<pad>	0
<unk>	0
<s>	0
</s>	0
<mask>	0
ी	-3.8401
▁.	-4.00059
▁आनी	-4.2001
क	-4.21002
न	-4.24193
ा	-4.29646
त	-4.53866
ं	-4.55251
▁	-4.68666
र	-4.70885
ो	-4.741
य	-4.81644
च्या	-5.00071
च	-5.00211
▁ह्या	-5.15305
े	-5.17907
▁,	-5.18831
चे	-5.22178
ची	-5.46259
▁हे	-5.46435
चो	-5.51733
▁अशें	-5.55251
▁हांणी	-5.60025
▁आसा	-5.60918
्या	-5.61584
ल	-5.65428
▁ते	-5.66786
ंत	-5.74792
म	-5.75164
▁ना	-5.78246
स	-5.81247
ान	-5.8707
ांत	-5.88826
प	-5.92177
▁एक	-5.93003
ण	-5.94603
▁खातीर	-5.94679
▁ही	-5.98588
▁'	-6.00459
व	-6.02586
ीत	-6.05451
▁आयज	-6.06431
ाक	-6.06639
▁स	-6.08086
ली	-6.09543
नी	-6.10924
ां	-6.11245
ड	-6.14747
▁?	-6.16326
▁"	-6.1776
ट	-6.20857
ले	-6.21877
▁हो	-6.22584
▁दोन	-6.25777
लो	-6.25857
▁क	-6.30896
▁तांणी	-6.31012
ून	-6.31236
ि	-6.3444
▁तो	-6.35494
▁प्रधानमंत्र	-6.36005
ात	-6.36091
▁हाणी	-6.36815
ग	-6.38123
ार	-6.38355
द	-6.38772
▁काल	-6.39461
ीक	-6.40728
ना	-6.41096
ज	-6.42063
ाचे	-6.44638
ाची	-6.46191
▁मंत्री	-6.4708
▁सांगलें	-6.47374
ाच्या	-6.50761
ळ	-6.5405
▁ती	-6.60024
ू	-6.60417
▁मोदी	-6.60624
ूय	-6.6178
ाचो	-6.61787
ल्या	-6.63194
श	-6.63543
▁-	-6.63936
▁व	-6.65904
▁पुण	-6.65936
चेर	-6.66304
ें	-6.66656
▁ताका	-6.6725
▁!	-6.67408
▁भारत	-6.6742
▁अ	-6.67644
ला	-6.68794
ांक	-6.68997
▁तशें	-6.71881
▁उपरांत	-6.74593
▁अशे	-6.75559
चें	-6.75746
ीय	-6.76843
कार	-6.76939
▁जाल्यार	-6.76954
ह	-6.77567
▁के	-6.77948
ता	-6.78366
या	-6.78973
▁म्हायती	-6.79596
ु	-6.79924
ंक	-6.80231
▁सरकार	-6.80969
िक	-6.8124
▁प्र	-6.82385
ित	-6.82943
▁भारतीय	-6.83625
▁न	-6.8377
▁नरेंद्र	-6.86058
▁त्या	-6.86919
▁करून	-6.87388
भ	-6.88245
▁कोंकणी	-6.89868
▁वेळार	-6.90412
ब	-6.91119
▁म्हाका	-6.91224
ांनी	-6.92088
▁केल्या	-6.92645
ध	-6.93972
ाचेर	-6.95612
री	-6.97069
▁जाली	-6.97599
▁हेर	-6.98086
▁लागून	-6.98195
▁सुरू	-6.98256
▁अशी	-6.9908
▁ताणी	-6.99146
▁कार्यावळी	-7.00428
▁तें	-7.01161
▁करतले	-7.01529
लें	-7.01736
▁आपल्या	-7.02069
▁हांचे	-7.0213
▁जाता	-7.02357
▁जाय	-7.04823
▁म	-7.04868
▁दिली	-7.05523
▁नि	-7.05826
▁)	-7.07511
▁म्हणून	-7.07608
▁...	-7.07797
(	-7.07807
▁राष्ट्र	-7.08113
▁आसात	-7.08337
▁गोंय	-7.08804
▁द	-7.09151
▁जातली	-7.09474
▁को	-7.09703
▁हांव	-7.10398
▁श्री	-7.11131
▁ब	-7.11377
▁ह	-7.11826
▁आ	-7.12181
▁दिसा	-7.13388
▁आड	-7.13576
▁भ	-7.13633
▁नवी	-7.13923
ख	-7.14332
▁त	-7.14464
▁असो	-7.15643
▁हांच्या	-7.16394
▁वर्सा	-7.16939
▁केंद्रीय	-7.18217
▁केली	-7.1979
▁या	-7.19834
▁ज	-7.20885
▁अध्यक्ष	-7.21424
फ	-7.21673
▁एका	-7.22571
▁वा	-7.22761
▁डॉ	-7.22779
▁प	-7.22929
ाय	-7.23278
च्यो	-7.25635
▁येता	-7.25915
▁सरकारान	-7.26683
ङ्क	-7.26976
▁ल	-7.27272
▁केंद्र	-7.27381
▁अशेंय	-7.28349
▁तीन	-7.28512
▁मुखार	-7.28678
▁करपाक	-7.28842
▁काय	-7.29072
्	-7.29226
णी	-7.29337
▁कांय	-7.29642
कडेन	-7.31772
▁केला	-7.32095
▁काम	-7.32149
▁लोक	-7.33316
▁घेवन	-7.33434
▁म्हळे	-7.34974
मा	-7.35034
▁राज	-7.35174
▁ख	-7.35426
खातीर	-7.35525
▁दिल्या	-7.3621
▁खेळ	-7.36241
▁सांगले	-7.36723
थ	-7.36749
▁चार	-7.36946
ंग	-7.37367
▁जालो	-7.37967
▁देशा	-7.38113
्र	-7.38869
ंनी	-7.39142
▁भारता	-7.39995
तले	-7.4
▁ङ्क	-7.40083
▁कडेन	-7.40262
्य	-7.40445
▁भेट	-7.40689
पी	-7.41335
▁आतां	-7.41426
▁करप	-7.41482
ठ	-7.42379
▁कितें	-7.42723
▁आशिल्ले	-7.43153
▁तांचे	-7.43244
▁भायर	-7.43552
▁हात	-7.43778
▁ग	-7.44178
▁भलायकी	-7.4429
▁वि	-7.44339
▁जालें	-7.44957
ांचे	-7.45224
▁भर	-7.45768
▁विशीं	-7.4594
▁दीस	-7.46046
▁चड	-7.46427
▁मुखेल	-7.46511
▁केलें	-7.46627
▁राष्ट्रपती	-7.46817
▁उलयताले	-7.46922
▁जाल्ल्या	-7.47121
▁सु	-7.47194
▁श	-7.47889
▁मुखेलमंत्री	-7.48589
▁मन	-7.48592
▁करपा	-7.49061
▁करता	-7.4914
▁र	-7.49176
▁तर	-7.4923
▁प्रमाण	-7.49627
▁पुराय	-7.49995
पा	-7.50026
▁आज	-7.50102
▁दिस	-7.50219
▁आय	-7.50262
▁राज्य	-7.50946
▁जाल्या	-7.50956
▁ए	-7.51075
▁बसका	-7.51354
▁शिक्षण	-7.51763
▁फ	-7.52093
का	-7.52123
▁वरवी	-7.52325
▁जातलो	-7.5327
यो	-7.53395
▁सांग	-7.537
ांची	-7.53732
▁उ	-7.53826
ऩ	-7.53914
▁घर	-7.54676
्न	-7.55405
च्मा	-7.56615
▁रे	-7.56826
▁मेरेन	-7.57624
▁लेगीत	-7.57971
▁केले	-7.58277
ेक	-7.5858
▁कथा	-7.58814
▁केल्ल्या	-7.59518
▁कर	-7.60133
▁तयार	-7.60203
्यो	-7.60429
शी	-7.60702
▁केलो	-7.61335
▁मा	-7.61961
णे	-7.62399
स्त	-7.62476
▁तांच्या	-7.62634
▁भाजपा	-7.62669
▁चर्चा	-7.6357
ूच	-7.63578
ुय	-7.64602
▁विचार	-7.65416
▁....	-7.66594
▁कार्यावळ	-7.66643
▁जावप	-7.66769
▁सेवा	-7.66984
▁विदेश	-7.67133
▁हाजी	-7.6714
▁आशिल्ल्या	-7.67292
▁लोकांक	-7.67901
▁हें	-7.67926
रे	-7.68248
▁मजगती	-7.68354
ानी	-7.68769
▁थंय	-7.68904
▁अर्थ	-7.68996
▁न्हय	-7.69308
ाव	-7.69423
▁जाला	-7.69793
▁हांगा	-7.70382
▁दिल्ली	-7.70497
▁च	-7.70544
▁म्हण	-7.7062
▁जोड	-7.71261
▁म्हळां	-7.71431
▁आपले	-7.71444
▁तरी	-7.71454
▁तशेच	-7.71565
▁सं	-7.71621
▁चल	-7.71653
ंच	-7.71939
▁रा	-7.71941
▁वेगवेगळ्य	-7.72133
▁म्हळा	-7.72715
▁मंत्रालया	-7.72825
ूक	-7.72865
▁हांची	-7.72978
▁हांवें	-7.73053
▁परत	-7.7373
▁कु	-7.73863
डी	-7.73876
▁सिंग	-7.73978
▁वेळ	-7.75453
▁सगळ्या	-7.75794
ेर	-7.76077
ेन	-7.76158
मतान	-7.76268
▁गरज	-7.76371
▁ताणें	-7.76544
▁हया	-7.77121
▁माहिती	-7.77269
▁साहित्य	-7.77275
सा	-7.774
▁म्हूण	-7.77868
▁जाल्ले	-7.7817
▁तांकां	-7.78296
▁इ	-7.78404
▁घेतले	-7.78672
▁ताणे	-7.7932
र्	-7.7933
▁जातले	-7.79378
ल्यो	-7.79962
▁हजार	-7.8092
नाथ	-7.81142
▁आयोज	-7.81795
ै	-7.82009
्मा	-7.82394
▁तेन्ना	-7.82504
▁बी	-7.83469
पाक	-7.83673
ूंक	-7.84005
▁करपाची	-7.84294
▁दिल्लींत	-7.84764
ये	-7.85065
▁म्हज्या	-7.85299
▁मात	-7.85594
ेश	-7.85808
▁ट	-7.85987
▁य	-7.86088
▁निर्णय	-7.86341
▁पांवड्या	-7.86494
▁केलां	-7.86535
ॉ	-7.87206
▁सावन	-7.87302
▁तांची	-7.87512
▁सगल्या	-7.87523
▁घरा	-7.88131
ुन	-7.88239
▁सर	-7.88305
क्ष	-7.88376
▁बसके	-7.88435
ांच्या	-7.88465
▁वावर	-7.88587
▁बायलां	-7.88592
▁खाल	-7.88943
▁तूं	-7.88965
▁ङ्कुडार	-7.89042
▁वापर	-7.89238
च्च	-7.89561
▁दिसता	-7.89775
▁आयोगा	-7.89856
▁रेल्वे	-7.89904
▁जे	-7.89971
▁सुवात	-7.90082
▁सुरक्षा	-7.9042
▁पुरस्कार	-7.9058
▁यत्न	-7.90581
▁आशिल्लो	-7.90602
▁उत्तर	-7.90674
▁दर	-7.91115
▁घेतलो	-7.91318
▁कोण	-7.91443
▁जा	-7.91876
झ	-7.92051
▁जारी	-7.9207
▁खासा	-7.92414
▁सांजे	-7.92766
▁खात्या	-7.92923
▁सकाळी	-7.93133
▁ऩ	-7.93167
ांचो	-7.93174
▁हि	-7.93451
▁--	-7.93779
ष	-7.93791
▁देव	-7.93845
▁जाले	-7.94132
▁देश	-7.94364
▁झ	-7.9481
▁ता	-7.95414
▁सावं	-7.95463
▁विकास	-7.95465
▁खा	-7.95468
▁नायक	-7.95556
ाखातीर	-7.96089
▁गो	-7.96153
▁म्हळ्यार	-7.96156
▁मतदान	-7.9617
▁आयलो	-7.96538
्व	-7.96561
▁वांगडा	-7.96703
▁समाज	-7.97111
टी	-7.98004
णा	-7.9816
▁प्रधानमंत्र्यां	-7.98435
वरवी	-7.98439
▁पु	-7.98504
▁तांका	-7.98557
ळी	-7.98974
ल्यान	-7.99033
▁पांच	-7.99034
▁धा	-7.99362
▁जावन	-7.99483
▁अधिकारी	-7.99495
▁येरादारी	-7.99667
▁आकाशवाणी	-7.99806
▁वाठारांत	-7.99848
ई	-8.00029
▁हांका	-8.00263
▁लाव	-8.0056
▁ओ	-8.00683
▁प्रदेश	-8.00815
घ	-8.01008
▁उक्तावण	-8.01308
ॊ	-8.01518
▁व्हड	-8.0173
▁काँग्रेस	-8.01758
▁दिवप	-8.01764
▁मेळ	-8.01833
▁ताजे	-8.02015
▁वाड	-8.023
▁ध	-8.02437
्म	-8.02493
▁आदार	-8.02958
ष्ट	-8.03315
▁येवजणे	-8.04024
▁सा	-8.04175
▁बदल	-8.04327
▁लागलो	-8.04483
मोद	-8.05104
▁मागीर	-8.05184
▁नव्या	-8.05427
▁सात	-8.05595
▁बा	-8.05607
▁आम	-8.05834
▁दितले	-8.05984
▁मरण	-8.06068
▁ला	-8.0609
▁आपू	-8.06347
▁म्हळें	-8.06521
ोविंद	-8.0668
▁केल्ली	-8.06797
▁घड	-8.06863
वे	-8.06927
ंद	-8.06935
▁विद्याथ्र्यां	-8.07003
्यांनी	-8.07084
▁आशिल्ली	-8.07595
▁धाड	-8.07737
▁आसता	-8.08283
▁थ	-8.08292
▁खबर	-8.08343
▁बस	-8.0884
तल्या	-8.08898
▁मु	-8.09066
▁तुका	-8.09185
▁ङ्काटल्या	-8.0934
▁का	-8.09755
▁उमेदवार	-8.09836
▁बंद	-8.10387
टा	-8.10398
ऱ	-8.10462
वा	-8.10611
▁सुरवात	-8.11636
▁वेचणूक	-8.11713
▁मान	-8.12174
पणान	-8.12313
▁वेंचणूक	-8.12472
▁ताज्या	-8.12572
्ट	-8.13205
▁सुरु	-8.13381
▁दिला	-8.14056
▁संस्था	-8.14172
ाचें	-8.14334
▁पक्ष	-8.14921
▁रामनाथ	-8.1562
ल्ल्या	-8.15676
▁पाव	-8.15751
▁विज्ञान	-8.15881
▁वेव्हार	-8.15905
▁आसपाव	-8.15915
▁उदरगत	-8.16277
▁नाका	-8.16551
तलो	-8.16558
▁सुवाळ्या	-8.16783
▁नियाळ	-8.16784
बा	-8.16797
जी	-8.1682
▁मे	-8.16982
▁की	-8.17011
ातल्या	-8.17209
▁एम	-8.17267
शे	-8.17543
▁बरे	-8.17904
▁जावंक	-8.18164
▁खंय	-8.18391
▁राज्यपाल	-8.18583
ीस	-8.18588
िल्ल्या	-8.19186
▁आठ	-8.19295
▁पूण	-8.1948
▁कळ	-8.19485
▁हा	-8.19589
▁पा	-8.19746
▁आमी	-8.20244
▁मार	-8.20266
▁उप	-8.20338
रो	-8.20462
जा	-8.20524
▁दिलो	-8.20529
▁तोंड	-8.20568
▁पयली	-8.20723
▁ङ्काल्यां	-8.20767
कणी	-8.20961
▁सध्या	-8.21291
▁:	-8.21293
▁आपली	-8.21435
▁नदर	-8.21449
▁केल्यात	-8.21589
▁कला	-8.21663
▁उलोवप	-8.21906
ळे	-8.22046
▁गांव	-8.22125
▁संबंद	-8.22209
▁ड	-8.22271
▁गेलो	-8.22318
▁आदले	-8.22389
▁ह्मा	-8.22477
वार	-8.22761
▁येवजण	-8.23021
▁उलयतना	-8.23154
▁घेतली	-8.23244
▁भितर	-8.23283
ल्यात	-8.23309
▁शे	-8.23374
▁घेवपा	-8.23381
▁गांधी	-8.24082
▁जायत	-8.24118
्स	-8.24702
▁उलो	-8.25007
▁राजकी	-8.25262
▁मळार	-8.25305
▁लोकांनी	-8.25534
ांतल्यान	-8.2574
▁आता	-8.25766
▁अशा	-8.25804
्त	-8.25815
्यान	-8.25846
▁पंगड	-8.25939
▁जैत	-8.26002
▁कोरोना	-8.26006
▁मदीं	-8.2603
▁ि	-8.26066
▁कित्याक	-8.26233
▁दु	-8.26343
श्ट	-8.26439
▁हांकां	-8.26459
ट्ट	-8.26848
▁आदेश	-8.2703
▁वरांचेर	-8.27038
ढ	-8.27525
▁कथासंग्रह	-8.27957
▁करुन	-8.28037
▁करूंक	-8.28522
▁दिता	-8.28663
▁पक्षाचे	-8.28765
शा	-8.29247
ाळ	-8.29264
▁वांगडी	-8.29313
▁ताचे	-8.29351
▁आर	-8.29613
िं	-8.29701
▁सांगलां	-8.29726
▁गोंयांत	-8.29795
▁उद्देग	-8.29825
दी	-8.30164
▁पयले	-8.30388
पूर	-8.30559
▁सादर	-8.30626
▁भाग	-8.30889
“	-8.30957
▁न्यायालयान	-8.30985
पुर	-8.31057
▁लोकसभ	-8.31084
▁तिका	-8.31135
िस	-8.31255
▁वांटे	-8.31447
▁मुंबय	-8.31923
▁संवाद	-8.32003
ांतल्या	-8.32579
ींग	-8.32954
▁दुसऱ्या	-8.33019
▁खूब	-8.33129
▁करपाचो	-8.33299
▁संवसारीक	-8.33408
▁करपाचे	-8.33634
पाची	-8.33916
िय	-8.33961
▁आवय	-8.33991
ल्मा	-8.33997
भर	-8.34186
▁लागुन	-8.34304
तात	-8.34524
पण	-8.34554
▁लोकां	-8.34885
ंचो	-8.34914
▁वाट	-8.34967
ंड	-8.34984
▁एकठांय	-8.35107
ॅ	-8.3523
▁इतले	-8.35274
▁बायल	-8.35336
▁प्रधानंत्र	-8.35386
▁जाल्यात	-8.35516
▁प्रस्न	-8.35652
▁पड	-8.36007
▁उदका	-8.36037
▁दिव	-8.36236
▁सर्ती	-8.36623
डे	-8.36974
दार	-8.37075
▁जाल्ली	-8.37271
▁अर्ज	-8.37321
▁लागली	-8.3742
▁प्रसार	-8.37511
▁कार्यावळींत	-8.38008
▁पावस	-8.38055
▁भास	-8.38123
▁आरोप	-8.38339
ाल	-8.38343
▁खर	-8.38416
▁तरे	-8.38671
▁यु	-8.38718
▁जाप	-8.38773
▁हां	-8.38975
▁साबा	-8.39123
▁सभा	-8.39137
▁प्रचार	-8.39908
▁तातूंत	-8.39993
▁लक्ष	-8.40161
▁म्हजे	-8.40188
▁वाठार	-8.40452
▁शी	-8.40604
▁आसतले	-8.4073
▁चालू	-8.40767
स्ट	-8.40921
ांचेर	-8.4102
▁मजत	-8.41105
▁पी	-8.4137
▁जी	-8.41577
▁कें	-8.41632
▁लग्न	-8.41663
▁सगळे	-8.41676
▁मनीस	-8.41717
ळा	-8.4172
▁ये	-8.41763
▁आपलो	-8.41807
ेचे	-8.42411
▁विधानसभ	-8.42502
▁एस	-8.42556
ाम	-8.42797
▁उर्बा	-8.42799
सर	-8.43112
▁प्रकल्प	-8.43131
▁पि	-8.43568
▁बरोबर	-8.43677
्क	-8.43769
ुल	-8.43908
▁आंतरराष्	-8.43951
ुर	-8.44153
▁दिवन	-8.44333
▁हर	-8.4436
▁करतात	-8.44464
▁येवन	-8.44641
▁लागले	-8.44739
ंचे	-8.44771
▁चा	-8.44797
▁आंग	-8.44878
ट्रीय	-8.44886
▁फा	-8.45023
▁एन	-8.45047
▁घडोवन	-8.45139
तली	-8.45223
▁वचून	-8.4524
▁दवर	-8.45246
▁मनांत	-8.45327
सो	-8.45447
ेंत	-8.45597
▁दि	-8.45597
▁एके	-8.45828
सी	-8.45843
▁आतंकवाद	-8.45991
ूट	-8.45995
ाच्यो	-8.46041
▁आस	-8.46125
▁संवसार	-8.46138
▁आवाज	-8.4614
▁पुलीस	-8.46289
▁संरक्षण	-8.46292
▁णव	-8.46544
▁रात	-8.46931
▁वेचणुक	-8.47063
अ	-8.47113
▁पावसा	-8.47168
श्र	-8.4724
ए	-8.47478
▁हाका	-8.47632
▁घालून	-8.47634
▁सी	-8.47641
▁बरें	-8.4765
▁कुमार	-8.47693
▁केल्ले	-8.47698
▁परिशदे	-8.47712
ेंद्र	-8.47752
▁जाण	-8.48021
प्र	-8.48165
▁जायना	-8.48185
ीण	-8.48196
क्त	-8.48314
▁राम	-8.48557
दा	-8.48581
▁म्हुण	-8.48687
▁ति	-8.48745
▁उच्च	-8.4878
ंची	-8.48867
ल्यार	-8.48973
▁वेंचणुके	-8.49396
▁शणै	-8.49502
▁महा	-8.49527
▁जो	-8.49553
ेत	-8.49573
▁सि	-8.49641
▁सुमार	-8.49926
▁विरोध	-8.49953
लां	-8.49958
▁उलयता	-8.49975
▁लाख	-8.50034
▁घ	-8.50119
बरोबर	-8.50204
▁सर्वो	-8.50237
▁विधेयक	-8.5044
▁आवाहन	-8.51138
▁सुविधा	-8.51201
▁विशय	-8.51337
▁बसकें	-8.51359
▁बरो	-8.51374
▁सोड	-8.51398
▁ताची	-8.51408
ंब	-8.51611
▁राव	-8.51756
▁भारताचे	-8.51939
▁आमदार	-8.51962
विशी	-8.52045
▁अशेय	-8.5213
ाद	-8.5214
▁चंद्र	-8.52385
▁भासाभास	-8.52387
▁नवे	-8.52611
▁सोप	-8.52709
ोदी	-8.53066
▁सुवाते	-8.53243
ांव	-8.53342
▁शाह	-8.53763
▁कि	-8.53801
न्न	-8.53922
▁उपाय	-8.53945
ाण	-8.54251
यता	-8.54313
▁सोद	-8.54479
ंतल्यान	-8.5452
ँ	-8.54568
▁उजवाड	-8.54761
▁ल्हान	-8.54937
▁मागणी	-8.54979
ेचो	-8.54983
▁पत्रकार	-8.54996
▁देखून	-8.55035
▁ताचो	-8.55051
▁सचीव	-8.55064
काय	-8.55241
ऊ	-8.55269
▁पालव	-8.55341
त्र	-8.55382
▁आयिल्ल्या	-8.55562
▁मि	-8.55607
▁हांचो	-8.55618
वि	-8.55758
▁उदक	-8.5609
▁धर	-8.56194
▁स्पश्ट	-8.5624
▁मेळटा	-8.56303
िर	-8.56342
▁घरांत	-8.56524
▁भाव	-8.56652
▁जय	-8.56747
▁उतर	-8.56809
▁विमान	-8.56839
▁लाय	-8.56897
▁राग	-8.57063
▁साद	-8.57189
▁राती	-8.57204
▁शेती	-8.57353
मान	-8.57476
▁मुखेली	-8.57505
ल्लो	-8.57516
▁जम्मू	-8.57549
▁परिस्थिती	-8.57549
▁हस्तुकी	-8.57551
▁पयलो	-8.57555
वी	-8.57568
▁संचालक	-8.5768
▁पळोव	-8.57714
ोवन	-8.57756
▁बांद	-8.5785
यडू	-8.57878
▁चे	-8.57929
▁पयल्या	-8.58288
टर	-8.58344
▁गेले	-8.58412
▁भाजपाचे	-8.58739
▁म्ह	-8.58837
▁आस्पाव	-8.58883
▁शांबा	-8.58887
▁राष्ट्राध्यक्ष	-8.58908
▁वांट	-8.58911
▁म्हजी	-8.58914
गा	-8.59026
▁उर	-8.59028
▁व्ह	-8.59136
इ	-8.5918
िका	-8.59193
िंग	-8.59428
▁नदरेन	-8.59428
मती	-8.59498
▁मांड	-8.59612
▁पर	-8.59678
ल्	-8.59767
▁आयलें	-8.59821
िल्लें	-8.59833
▁नेम	-8.59952
टे	-8.60079
▁करची	-8.60114
▁ङ्काव	-8.60267
स्	-8.60365
▁खात्यान	-8.60366
▁अंतर	-8.60455
कडे	-8.60472
▁समिती	-8.60484
▁वल	-8.60604
▁म्हणला	-8.60806
▁आयला	-8.60921
ओ	-8.60997
▁चाली	-8.61093
▁गु	-8.61105
▁मंत्रालय	-8.61189
▁शा	-8.61377
▁कार्य	-8.61426
▁ताजी	-8.6167
मदी	-8.61681
▁घेतला	-8.6172
डो	-8.62088
▁दिवपा	-8.62099
▁अश	-8.6214
▁राज्यां	-8.62267
▁जावपाची	-8.62359
▁कोटी	-8.62365
▁दिल्ल्या	-8.62396
▁भा	-8.62447
▁वर्स	-8.62667
▁पुलिस	-8.62787
ीकरण	-8.62903
▁इंडिया	-8.62993
▁मनोहर	-8.62993
▁नेट	-8.62995
▁निर्माण	-8.63005
▁सचिव	-8.63022
▁जाल्लो	-8.63033
▁विजय	-8.63127
▁घटम	-8.63177
▁हाड	-8.63341
▁राया	-8.63347
ूंय	-8.63373
▁गोंयच्या	-8.6338
ते	-8.63387
तीन	-8.63521
▁घाल	-8.63529
▁सर्तीत	-8.63564
ाॊ	-8.63623
▁बरी	-8.63659
▁माध्यम	-8.63757
तल्यान	-8.63816
ऽ	-8.63817
▁ङ्कुड	-8.63885
ताय	-8.63953
▁तशी	-8.63978
तकच	-8.64053
▁निकाल	-8.64407
ल्ले	-8.64456
▁काडून	-8.64534
▁दिल्लीत	-8.64556
िया	-8.64622
▁हेतान	-8.64624
▁त्यो	-8.64657
पाद	-8.64727
▁खासदार	-8.64814
▁अधिकाऱ्यां	-8.64953
िल्ली	-8.64985
ल्ल	-8.65035
▁सर्तींत	-8.65053
▁ङ्कावट	-8.65058
वळ	-8.65138
▁फु	-8.65228
शन	-8.65315
वण	-8.65408
▁पाकिस्तान	-8.659
▁जागृताय	-8.65908
▁उपकार	-8.66018
▁केळी	-8.66079
▁नात	-8.66089
▁पद	-8.66297
▁शि	-8.66375
▁भोव	-8.66463
▁करीत	-8.66616
▁अळें	-8.66786
▁जीव	-8.66971
▁प्रसारण	-8.66984
ल्ली	-8.67122
▁ऑङ्क	-8.67279
▁वाठारांनी	-8.6741
ंव	-8.67727
▁देशां	-8.67731
▁कार	-8.68
ंत्री	-8.68064
▁चि	-8.68107
-	-8.68246
▁प्रधानमंत्र्यान	-8.68302
ेची	-8.68385
▁जातलें	-8.68474
▁आमच्या	-8.68545
▁प्रशिक्षण	-8.6875
▁दा	-8.68969
▁उत्सव	-8.69069
वन	-8.69113
▁तांचो	-8.69247
▁फुडें	-8.69645
▁आयली	-8.69804
▁वळख	-8.6996
▁वै	-8.69966
▁उकतावण	-8.70242
▁जाहीर	-8.70242
▁कारवाय	-8.70243
▁हवामान	-8.70251
▁सगळी	-8.7026
▁गोवा	-8.70424
तना	-8.70514
▁नेटान	-8.70571
▁दुसरे	-8.70678
▁ह्य	-8.70717
▁पणजे	-8.70987
▁शेतकारां	-8.71216
▁सयत	-8.7135
▁बु	-8.71722
▁थळाव्या	-8.71764
▁जातल्यो	-8.7181
▁येवकार	-8.7183
▁पाल	-8.71837
▁पळोवन	-8.71913
ंतल्या	-8.72089
डा	-8.72116
▁तुमी	-8.72526
▁सांगला	-8.72586
▁संस्कृती	-8.72682
▁आप	-8.72948
▁इतिहास	-8.73177
▁पाच	-8.73196
ुट	-8.73216
▁लोकसभे	-8.73296
▁प्रकाश	-8.73298
▁पळय	-8.73382
▁प्रसाद	-8.73407
▁विचाल्लें	-8.73605
▁खेळां	-8.73667
▁भारतांत	-8.73669
▁हल्ल्या	-8.73916
उ	-8.73918
▁उदरगती	-8.73959
▁सो	-8.74043
▁युव	-8.7423
▁कांयच	-8.74607
ेच्या	-8.74845
ऴ	-8.74854
▁कामकाज	-8.74859
▁मेळटली	-8.74859
▁कायदो	-8.74865
▁अमित	-8.74953
▁समज	-8.75008
▁दोळे	-8.75108
▁ले	-8.7537
ळो	-8.75548
▁वयर	-8.75619
▁संसदे	-8.75691
▁गोंयचे	-8.75747
ंच्या	-8.75753
▁जि	-8.76012
▁दुसरो	-8.76453
▁धरून	-8.76675
▁हाचे	-8.7675
▁तांक	-8.76812
▁सुवाती	-8.76846
िन	-8.76941
▁बि	-8.7708
▁काँग्रेसी	-8.77088
▁घेतल्या	-8.77113
▁आस्त	-8.77139
▁सगले	-8.77399
▁हातांत	-8.77446
▁पुर	-8.77563
ल्लें	-8.77887
वेल्यान	-8.78068
▁हाचेर	-8.78121
▁दाखल	-8.78147
स्थ	-8.7819
िल्लो	-8.78208
▁गेली	-8.78246
▁आसतली	-8.78289
▁गोरवां	-8.78324
गड	-8.78404
▁पोट	-8.78488
▁किदें	-8.78492
▁गजाली	-8.78513
▁सेवे	-8.78566
▁ळ	-8.78688
▁पो	-8.78776
▁पावल	-8.78872
वेळार	-8.78872
▁आदी	-8.78887
▁रि	-8.78928
▁जाल	-8.78937
▁आयोजन	-8.79027
▁संद	-8.79064
▁म्हण्टा	-8.79109
▁बे	-8.79139
व्ह	-8.79475
▁कारण	-8.79695
▁पर्यटन	-8.79698
वर्धन	-8.79702
ेस्त	-8.79708
▁न्हंय	-8.7971
▁वैजकी	-8.79717
▁मान्यताय	-8.79721
▁पयलीं	-8.79903
▁पुष्पा	-8.80052
▁आणिक	-8.8009
▁भु	-8.80091
▁पंच	-8.80107
▁जावपाक	-8.80145
▁जालां	-8.80155
▁लाग	-8.80211
▁सर्त	-8.80312
▁दिवपाक	-8.8037
्यांत	-8.80519
▁ने	-8.80807
िट	-8.80876
▁हांगासर	-8.81
भा	-8.81189
▁वेपार	-8.81365
▁उपेग	-8.81375
▁कायद्या	-8.81378
▁क्रिकेट	-8.8138
▁पयस	-8.81386
▁चौ	-8.81554
बगर	-8.81693
▁तयारी	-8.81937
▁आवा	-8.82282
बी	-8.82789
व्या	-8.82802
▁अकादमी	-8.83059
▁आधार	-8.83085
▁आसतना	-8.8324
गे	-8.83241
ंट	-8.83273
▁काळ	-8.83277
▁शारांत	-8.83278
▁ई	-8.83475
▁वयल्या	-8.83535
दान	-8.83706
ल्ड	-8.84039
▁अळे	-8.8407
▁बो	-8.84084
▁कशें	-8.84092
▁अर्थि	-8.84256
ील	-8.84258
▁काळांत	-8.84329
i	-8.84782
▁अभ्यास	-8.84783
▁दक्षिण	-8.84784
▁चित्रपट	-8.84787
▁योगदान	-8.84792
▁श्नयताय	-8.84816
▁सांगता	-8.84836
▁संसद	-8.84887
▁मत	-8.8496
▁सदांच	-8.85133
ांग	-8.85403
▁परिशदें	-8.85439
▁कसो	-8.85614
िल्ले	-8.85645
▁गोंयात	-8.85964
▁वच	-8.86254
▁त्र	-8.86259
▁..	-8.86289
6	-8.8653
▁;	-8.86538
▁दुयेंती	-8.86538
▁सभापती	-8.86546
▁स्पष्ट	-8.8655
▁संबंदी	-8.86561
▁न्याय	-8.86566
▁सुर	-8.86824
▁केन्ना	-8.86867
▁सोंप	-8.86868
▁रंग	-8.87002
▁वेगवेगळ	-8.87066
▁खेळा	-8.87369
मे	-8.87412
मुखार	-8.87506
▁निमाणे	-8.87521
बळ	-8.87771
▁आशिल्ल्यान	-8.87802
ऱ्या	-8.88023
▁याद	-8.88059
▁सरकाराच्या	-8.88322
▁वातावरण	-8.88323
▁आघाडी	-8.88328
▁पर्रीक	-8.88341
▁करतना	-8.88395
ावन	-8.88539
▁बँक	-8.88548
जे	-8.88699
▁राज्यांत	-8.88803
▁शेतकार	-8.88813
0	-8.88847
ेळ	-8.8893
िल	-8.89241
▁करचे	-8.89297
▁ताच्या	-8.89323
▁उड	-8.89379
▁पाकिस्ताना	-8.89641
▁पडटा	-8.89655
▁आदीं	-8.89712
▁डी	-8.89739
▁उपलब्ध	-8.90142
▁मोग	-8.90163
▁.....	-8.9017
▁जावची	-8.90404
▁पाय	-8.90698
▁उतरां	-8.9083
▁घेवं	-8.91049
▁गणू	-8.91054
▁म्हा	-8.91125
न्स	-8.91129
▁सूर	-8.9121
▁नांव	-8.91323
वांगडा	-8.91324
▁गट	-8.91366
▁बेट	-8.91397
चार	-8.91421
त्व	-8.9147
▁सोयर	-8.91477
▁आद	-8.91654
▁पक्षा	-8.9174
▁म्हत्व	-8.918
9	-8.91986
▁प्रस्ताव	-8.91994
्यानी	-8.92081
यान	-8.92279
▁दवरून	-8.92285
▁अम	-8.92418
वीस	-8.92509
▁भेटे	-8.92743
▁कॉ	-8.9281
शें	-8.93186
वरी	-8.93267
▁मोड	-8.93311
▁विधानसभे	-8.93371
▁गजाल	-8.93587
▁धोरण	-8.93589
▁करचो	-8.93596
▁र्	-8.93731
▁वेवस्था	-8.93869
▁ट्रम्प	-8.9388
▁ताजो	-8.93884
▁कल्याण	-8.93894
▁उपचार	-8.93912
▁साडे	-8.93931
▁करतलो	-8.94006
▁पेट	-8.94203
▁पे	-8.94454
▁कडल्या	-8.945
ुक	-8.94538
▁संस्थे	-8.94659
▁भार	-8.94666
▁दिवपाचे	-8.94724
▁मो	-8.94837
आ	-8.94853
▁जावपा	-8.94901
▁आशिल्लें	-8.94909
▁सहकार्य	-8.94946
▁वांगड्यां	-8.94963
ऩा	-8.94968
▁मनशां	-8.95017
▁सांबाळ	-8.95055
▁हाडपा	-8.95063
▁जाणा	-8.95065
▁ङ्कुडाऱ्यां	-8.95132
▁जाग	-8.95164
▁शेतक	-8.95235
▁सव	-8.95269
▁हय	-8.95315
सावन	-8.95333
▁बसकेत	-8.95402
▁राय	-8.95418
▁केंद्रा	-8.95687
्मो	-8.95718
▁रस्त	-8.95782
▁संशोधन	-8.95803
▁मेळटलो	-8.95804
▁पंचायत	-8.95806
▁वाद	-8.95857
श्य	-8.96093
▁आमकां	-8.96105
▁लागू	-8.96109
▁भौश	-8.9613
▁विशी	-8.96278
▁काड	-8.96328
▁पावलां	-8.96517
▁देशांतल्या	-8.96654
▁जन	-8.96665
▁मज	-8.96694
▁प्रकार	-8.96814
▁पावला	-8.96816
▁खो	-8.97154
▁ट्विट	-8.97244
▁प्रधानमंत्र्या	-8.97326
ंय	-8.97346
▁न्यायालया	-8.97603
▁पंगडान	-8.97645
▁संघटने	-8.97764
▁आकडो	-8.97766
▁म्हजो	-8.97766
▁प्रक्रिया	-8.97799
▁निधी	-8.97856
▁केल्लो	-8.97939
▁सुट	-8.98014
▁रुपया	-8.9804
▁हु	-8.98046
ुला	-8.98054
▁छ	-8.98081
▁दक्ष	-8.98092
▁संदर्भांत	-8.98218
गेर	-8.98274
▁फावट	-8.98324
▁नाटक	-8.98445
▁थाराव	-8.98461
▁तेंको	-8.9858
▁शार	-8.98648
ातल्यान	-8.98833
▁दिवपाची	-8.98886
ावरवी	-8.98929
▁मडगांव	-8.99058
▁म्हत्वाच	-8.99062
ांणी	-8.99353
▁वे	-8.99583
पाचो	-8.99667
़	-8.99678
▁भांगरा	-8.99812
▁विन	-8.99819
्ला	-9.00363
मंत्री	-9.00612
▁पणजेंत	-9.008
ीम	-9.0085
ूं	-9.00863
ंचेर	-9.00865
▁पाट	-9.00868
▁वळ	-9.00896
▁परस	-9.0095
▁भट	-9.00993
▁जीण	-9.01011
▁भि	-9.01023
▁रक्षा	-9.01306
ेच	-9.0132
▁जातात	-9.01637
▁सकयल	-9.0177
ेल	-9.01777
▁ङ्काटभुंये	-9.01805
▁बोवाळ	-9.01805
▁सिन्हा	-9.01805
▁अणकार	-9.01808
▁तुळसू	-9.01826
▁घोशणा	-9.0183
ूम	-9.01954
▁जाल्यो	-9.01999
▁स्थापन	-9.02007
▁येतात	-9.02098
▁जल्म	-9.02291
▁देशांत	-9.02319
वल	-9.02422
▁गा	-9.02438
▁खातीय	-9.02486
▁नज	-9.02733
तालो	-9.02776
▁सरप	-9.02779
▁क्र	-9.02874
▁तिणे	-9.0288
▁निती	-9.02886
▁दिल्ले	-9.02914
▁तु	-9.02926
▁येत	-9.02943
िव	-9.03
▁उकतायल	-9.03304
▁दी	-9.0359
▁दिसले	-9.03713
▁गोय	-9.03729
▁रान	-9.03767
▁घरमंत्र	-9.03871
▁कंपनी	-9.03888
ोवप	-9.04063
▁जावचो	-9.04139
▁हजर	-9.04302
▁वता	-9.04538
ोरा	-9.0455
▁थार	-9.04768
ाकडेन	-9.04832
बर	-9.04862
ऱे	-9.04868
सून	-9.05072
▁सम	-9.05077
भशेन	-9.05078
▁चर्चे	-9.05099
▁वाठारांतल्या	-9.05104
▁दवरपा	-9.05179
.	-9.05216
कडल्या	-9.05637
िश	-9.05732
▁कय	-9.05766
्यु	-9.05777
▁काश्मीर	-9.05782
▁उठ	-9.05807
▁उद	-9.05895
▁शहा	-9.06008
▁उपराष्ट्रपती	-9.06016
▁मॅगी	-9.0602
▁बेगीन	-9.06031
▁रावता	-9.06063
▁नाशिल्लो	-9.0611
▁कसलो	-9.06163
▁अजून	-9.0618
▁कमी	-9.06233
▁घेवप	-9.06259
▁बाय	-9.06506
▁सत	-9.06587
▁ज्या	-9.0676
वट	-9.0677
▁स्ट	-9.06806
▁गाव	-9.06823
▁यो	-9.06928
▁फाट	-9.0695
्ल	-9.07063
▁माग	-9.07144
5	-9.07212
▁तिच्या	-9.07248
▁अमेरिके	-9.0735
▁सार	-9.07387
▁कयऩा	-9.07481
▁गोंम	-9.0753
▁मंडळान	-9.07535
▁उत्पादन	-9.07538
▁गटांत	-9.07558
▁दिल्यात	-9.07654
▁कामा	-9.07937
▁रु	-9.08013
▁पिक	-9.08039
ीव	-9.08065
▁मराठी	-9.0819
▁महाराष्ट्र	-9.0819
▁प्रवेश	-9.08192
र्ज	-9.0825
▁पुरवण	-9.08259
▁थंयच	-9.08273
▁मोख	-9.08287
▁मार्गदर्शन	-9.08288
▁खरें	-9.08339
▁राख	-9.08534
▁लेखक	-9.08552
▁ङ्का	-9.08568
▁सल्लो	-9.08583
▁लेख	-9.08583
▁गजा	-9.08598
▁दळ	-9.08612
▁मारून	-9.08643
बे	-9.0865
▁सुख	-9.08678
▁लो	-9.08761
▁दिलां	-9.08777
▁सभाघरांत	-9.08858
▁जिख	-9.08891
▁परिषदे	-9.08904
▁दद	-9.09128
▁रावलो	-9.0918
▁जेट	-9.09267
▁रिती	-9.09439
▁मंडळ	-9.09579
▁वती	-9.09815
▁पळ	-9.09837
छ	-9.09869
वाद	-9.09979
▁चुक	-9.09998
मल	-9.10084
्यांक	-9.10162
▁गाय	-9.10278
▁संदेशा	-9.10318
▁नोंद	-9.10342
▁संबंध	-9.10367
▁विश्वास	-9.104
8	-9.10404
▁उ्नतावण	-9.10412
▁अणभव	-9.10412
▁भुमिक	-9.10418
▁प्रभाण	-9.1053
▁फाव	-9.10562
▁वायट	-9.10647
▁आसतलो	-9.10651
▁तंत्रगिन्यान	-9.10674
वान	-9.10709
▁फटया	-9.10803
▁देवा	-9.10805
▁पडले	-9.10924
▁बसून	-9.11014
▁फाटी	-9.11054
▁वरां	-9.11069
▁चली	-9.11138
▁वाडोवपा	-9.11208
▁संस्थां	-9.11269
▁कशी	-9.11348
पाल	-9.11369
▁लागी	-9.11785
ात्मक	-9.11961
▁दिसून	-9.12025
▁संदेशांत	-9.121
▁कर्नाटक	-9.12242
▁घो	-9.12321
▁करचें	-9.12328
▁तंत्रज्ञान	-9.12447
लमा	-9.12466
▁धु	-9.12527
मेरेन	-9.12548
ृ	-9.12681
▁तोखणाय	-9.12685
▁आदर्श	-9.12685
▁ऑन	-9.12685
▁अस्तंत	-9.12687
▁परिणाम	-9.12688
▁टीचर	-9.12693
▁संसार	-9.1273
वेल्या	-9.12733
▁भयण	-9.12735
▁हातूंत	-9.12759
▁वर्सां	-9.12761
ॊत	-9.12781
दे	-9.12892
▁खण	-9.1298
▁आर्गां	-9.13171
▁पडली	-9.13182
▁येवपी	-9.13232
▁दरेक	-9.13244
▁येवंक	-9.13324
▁टी	-9.13328
युक्त	-9.13561
ेस	-9.13729
▁सरकारा	-9.13864
▁दार	-9.13936
▁बाद	-9.14015
▁कसले	-9.14022
2	-9.14162
वाड	-9.14191
▁घे	-9.1431
▁स्व	-9.1444
▁केन्नाच	-9.14443
▁मोठ	-9.14631
वटेन	-9.14652
▁इनास	-9.14706
ुकी	-9.14715
▁देख	-9.14792
▁बोट	-9.14893
ज्ञ	-9.14914
▁लागता	-9.15002
▁कुटुंब	-9.1501
▁पंजाब	-9.1501
▁नेपाळ	-9.15011
▁विस्तार	-9.15012
▁गडकर	-9.15012
धी	-9.15017
▁बाब	-9.15059
▁प्रतिनिधी	-9.15066
▁मानेस्त	-9.15069
▁कामत	-9.15083
▁फूल	-9.15088
▁ङ्कातर	-9.1509
▁जग	-9.15091
▁प्रवास	-9.15172
▁एङ्क	-9.15206
▁पळे	-9.15221
▁कसली	-9.15247
▁ङ्कुडल्या	-9.15324
▁ङ्काटल	-9.15356
▁कासय	-9.15357
▁परबी	-9.15378
▁अदी	-9.15568
▁करपाखातीर	-9.15592
▁भावना	-9.15716
▁लाल	-9.15752
▁नन	-9.15802
▁अन	-9.15861
्रीम	-9.15889
▁मेळोव	-9.15955
▁नव	-9.16083
गो	-9.16086
देश	-9.16377
▁बाल	-9.16392
यात	-9.16397
1	-9.16432
▁खास	-9.16726
▁हाल	-9.16801
▁सरकाराक	-9.16805
▁संस्थेचे	-9.1698
▁अप	-9.17
ाऱ	-9.17008
▁वास	-9.17015
▁मध्य	-9.17036
▁विद्यार्थी	-9.17391
▁खाजगी	-9.17392
▁जतनाय	-9.17393
▁महिला	-9.17393
▁केरळ	-9.17401
▁कामां	-9.17513
▁ऩु	-9.17529
▁देसाय	-9.17669
▁दिवंक	-9.17677
▁ग्राम	-9.1772
▁गे	-9.17736
▁दिसां	-9.17946
▁अन्न	-9.18294
ेचाळीस	-9.18638
▁गुण	-9.1875
▁विधेयका	-9.18756
▁व्यक्ती	-9.18793
▁सुरक्ष	-9.18819
3	-9.18887
▁गावड	-9.19036
▁खरे	-9.19141
▁दिले	-9.19169
▁आसत	-9.19223
▁ऑस्ट्रेलिया	-9.19283
▁निर्	-9.19491
▁द्र	-9.19642
ाविशी	-9.19691
▁अज	-9.19763
▁आयले	-9.19792
▁बात	-9.19822
▁अदमास	-9.1983
▁उर्जा	-9.19831
▁वेंकय्य	-9.19835
▁ज्ये	-9.19837
▁मेळ्ळे	-9.19839
▁म्हळयार	-9.19866
▁लावन	-9.1987
▁हाची	-9.19896
ंडा	-9.19912
▁आयुक्त	-9.19917
▁धर्म	-9.19934
▁लांब	-9.20054
र्स	-9.20054
▁म्हयन्या	-9.20158
ूर	-9.20173
ेट	-9.20223
▁भो	-9.20271
▁आसलो	-9.20285
▁सगली	-9.20657
▁सू	-9.20661
▁उक्तायल	-9.20678
लीं	-9.20708
▁भरून	-9.20903
▁बारा	-9.21006
मो	-9.21017
▁येव	-9.21053
▁आयच्या	-9.21168
▁एकशे	-9.21242
▁ओड	-9.21323
▁वु	-9.21341
▁वाशिना	-9.21366
▁मनशा	-9.21411
▁लोकांच्या	-9.21709
▁प्रभावी	-9.21813
▁भौशि	-9.21906
▁मतदार	-9.21925
▁साधन	-9.22084
▁आंगा	-9.22102
▁उकते	-9.22144
▁येना	-9.22252
▁कर्मचा	-9.22306
a	-9.22317
▁पुलवामा	-9.2233
▁दर्शन	-9.2233
▁भानुदास	-9.2233
▁मनयतात	-9.22333
▁नुस्तेमार	-9.22333
▁नितळसाण	-9.22334
▁खर्च	-9.22346
▁आशिया	-9.22356
▁मेळटले	-9.22367
▁दितना	-9.22374
▁सुंदर	-9.22416
▁वो	-9.22746
▁पक्षान	-9.22774
म्	-9.22811
▁चो	-9.22858
▁केस	-9.22879
डू	-9.22917
▁रातीं	-9.22985
िल्ल्यान	-9.23028
▁उल	-9.23111
▁एल	-9.2316
िम	-9.23207
मत	-9.23263
ऱा	-9.23272
▁तां	-9.23837
▁जिणे	-9.23996
▁जम	-9.24146
▁मंडळा	-9.24198
▁अर्थमंत्र	-9.24248
▁घा	-9.24286
खाल	-9.24524
▁सोडू	-9.24553
ुच	-9.24634
▁अल	-9.24711
▁भारताक	-9.24867
▁तेरेजमाना	-9.24895
▁समाधान	-9.24895
▁कोवीड	-9.24895
▁रॅली	-9.24896
▁भुरगे	-9.24901
▁संगीत	-9.24903
▁त्रास	-9.24903
▁विस्वास	-9.24906
▁जयंती	-9.24913
▁अहवाल	-9.24938
▁म्हाल	-9.24956
▁घेता	-9.2496
▁लश्कर	-9.24981
▁रुप	-9.25027
▁तरणाट्यां	-9.25076
सार	-9.25083
▁ळा	-9.25089
▁गुजरात	-9.25119
▁सुरक्षे	-9.25216
▁परिक्षा	-9.25224
भाव	-9.25263
▁स्	-9.25353
चेय	-9.25368
▁मंत्रीमंडळा	-9.25641
▁मेज	-9.25701
▁उक्तायला	-9.2572
▁शेत	-9.25938
▁नाई	-9.25997
▁शाण	-9.26189
▁सह	-9.262
जन	-9.26391
▁घट	-9.26532
▁मारता	-9.26647
▁आसले	-9.26894
गु	-9.26912
शंकर	-9.27027
▁बांगलादेश	-9.27091
लयली	-9.27288
▁वाटेक	-9.27331
▁व्यवस्था	-9.27425
धा	-9.27516
श्ठ	-9.27516
▁नाशिल्ली	-9.27527
▁बरामक	-9.27527
▁डिजीट	-9.27528
▁शर्मा	-9.2753
▁पाळ	-9.27539
▁वेवस्थे	-9.27548
▁९	-9.27565
▁तिचे	-9.27573
▁नियंत्रण	-9.27576
▁तपासणी	-9.27588
▁बऱ्या	-9.27652
▁किर	-9.27826
▁ङ्केरयेंत	-9.27938
▁आव्हान	-9.27953
▁मंजुर	-9.2805
▁गांवकार	-9.28135
▁जर	-9.28235
▁विभाग	-9.28245
▁दाखयल	-9.28358
▁पास	-9.28556
▁नागरिकां	-9.28653
प्रमाण	-9.28659
टया	-9.28739
▁कुडी	-9.28796
भु	-9.29027
▁कॅ	-9.29049
▁निर्मल	-9.2905
▁मर	-9.29059
▁शिक	-9.29109
▁अस	-9.29279
्ड	-9.29307
▁गोम	-9.29389
▁घालो	-9.29436
▁तरेक	-9.29494
▁मं	-9.29536
ूल	-9.29675
▁बँके	-9.29734
▁प्रकरणा	-9.29768
▁हुंवार	-9.29828
्रो	-9.29914
▁तेच	-9.29953
▁घोव	-9.30185
▁मुद्द	-9.30217
▁सिंड्रेला	-9.30229
▁वेवस्थापन	-9.30239
▁थेट	-9.30273
▁योग्य	-9.303
▁फुलां	-9.30311
▁लावप	-9.30326
राणे	-9.30372
▁डे	-9.30381
▁धाव	-9.30388
▁उलयले	-9.30412
▁भाशा	-9.30434
▁आत्म	-9.30465
▁सां	-9.30475
▁खेळांत	-9.30511
▁रावतले	-9.30514
तु	-9.30528
▁प्राण	-9.3056
▁उबो	-9.30613
▁उक्तायल्या	-9.30638
तरे	-9.30724
▁मतदारसंघा	-9.3077
▁न्हिद	-9.3078
▁मारलो	-9.30833
▁व्हडा	-9.3089
▁खबराकारांक	-9.3104
▁बसकेक	-9.31047
मन	-9.31065
▁कड	-9.3112
▁वसंत	-9.31182
▁प्रदर्शन	-9.31402
▁आयल्यात	-9.31473
▁बिहार	-9.31551
▁घेवपाची	-9.31767
▁आयल्या	-9.31818
दम	-9.32092
▁सत्य	-9.321
▁उणे	-9.32226
▁भुरग्यां	-9.32421
नात	-9.32449
▁वाण	-9.32477
▁शाळा	-9.32532
▁आयलां	-9.32539
▁रंजन	-9.32542
▁तसो	-9.32557
▁कोविड	-9.32691
बु	-9.328
▁दर्या	-9.32844
ञ्च्	-9.32861
▁इराण	-9.33008
▁अधिकृत	-9.33009
▁खूप	-9.33009
▁आव	-9.33044
▁दळा	-9.33052
ाग	-9.33055
▁री	-9.33065
▁यंत्रणा	-9.33069
▁सुदारणा	-9.3309
▁करतली	-9.33146
▁उबे	-9.33148
▁परी	-9.33162
▁वीज	-9.33222
▁विशयाचेर	-9.33233
▁वाटे	-9.33243
च्मो	-9.33332
▁ढ	-9.33341
▁निमाण	-9.33434
▁फाल्यां	-9.33552
▁पत्र	-9.33554
▁पडलो	-9.3357
▁पळेता	-9.33577
▁येवज	-9.33727
▁भुरग्यांक	-9.33763
झा	-9.33768
▁मदत	-9.3385
राज	-9.33906
▁तेन्नां	-9.34184
▁कार्यालया	-9.34192
▁घेत	-9.34386
▁खेळगड	-9.34406
▁अधिवेशना	-9.34578
▁जांव	-9.34578
▁फुडे	-9.34653
▁ओप	-9.34783
▁ङ्काल्या	-9.34797
▁पदक	-9.34971
▁हार	-9.35055
बू	-9.3523
▁संघा	-9.35243
▁दहशतवाद	-9.35256
▁रस्त्या	-9.35376
सयत	-9.35378
▁महोत्सव	-9.35495
▁कोणा	-9.35499
डील	-9.35524
▁जावं	-9.35777
▁पळेत	-9.35807
▁पळयता	-9.35819
7	-9.35851
५	-9.35859
▁जनरल	-9.3587
▁ङ्काटी	-9.35917
▁मार्गदर्शक	-9.3594
▁नीला	-9.35971
ेज	-9.35993
▁पुस्तक	-9.36017
▁मुळाव्य	-9.36041
▁ङ्कुडे	-9.3611
द्र	-9.36141
▁वाज	-9.36248
▁म्हामती	-9.36251
▁इन	-9.36289
आय	-9.36345
▁संबंधी	-9.36372
▁येवजण्य	-9.36395
▁मतमेजणी	-9.36415
शस्त्र	-9.36421
▁नामनेचे	-9.36428
▁जेव	-9.36447
▁पावले	-9.36504
▁गती	-9.36555
▁नय	-9.36653
▁फाटल्यान	-9.36709
▁जाल्ल्यान	-9.36855
▁वेचणुके	-9.36874
▁मेळोवपा	-9.36915
▁2	-9.36997
▁करपाचेर	-9.37094
▁पडिल्ल्या	-9.37226
▁शिर	-9.37247
ांकडेन	-9.37367
▁ेळ	-9.37542
▁परिशद	-9.37551
▁मोट	-9.37662
▁आग	-9.3778
▁आयिल्ले	-9.37793
▁वाडत	-9.37836
यांनी	-9.37945
परस	-9.37955
ार्थ	-9.38062
▁रो	-9.38065
▁चीना	-9.38112
▁अमेरिक	-9.38116
▁खबराकारां	-9.38264
▁दुख	-9.38357
▁भारताची	-9.38579
▁अॅ	-9.38624
पाचे	-9.38643
्यार	-9.38694
र्म	-9.38754
▁डिसेंबर	-9.38805
▁चंपावती	-9.38805
▁संविधान	-9.38805
▁वितरावण	-9.38806
▁प्रभू	-9.38807
▁संघटना	-9.38813
▁हिंदी	-9.38838
▁वयल्यान	-9.38859
▁तिजे	-9.38862
▁निर्देश	-9.38889
▁झगड	-9.38892
▁आयिल्लो	-9.38909
▁मुख्यमंत्री	-9.38967
▁नोंदणी	-9.38976
िज्य	-9.39016
▁घोष	-9.39021
▁अनु	-9.39029
▁वाय	-9.39071
▁ठ	-9.39221
▁कितल्याश	-9.39326
▁डद	-9.39394
▁प्रदेशांत	-9.39543
▁म्हजें	-9.39582
वादी	-9.39612
▁अश्या	-9.39619
ालय	-9.39791
▁सकाळ	-9.39822
▁बायले	-9.39833
▁शास	-9.39875
▁योग	-9.4011
▁दल	-9.40202
▁माय	-9.40225
▁अळी	-9.40234
▁तिन	-9.40236
▁बॅ	-9.40311
नासतना	-9.40321
▁येतले	-9.40626
▁राज्यात	-9.40637
▁सप्तक	-9.40731
ेगीत	-9.40761
ऋ	-9.40883
▁बंदी	-9.40884
▁कशे	-9.41024
ीश	-9.41161
तीं	-9.4119
▁भाग्या	-9.41222
ॉर	-9.41246
▁पावलो	-9.41354
बो	-9.41377
▁भाशे	-9.41378
▁जम्मु	-9.41835
▁लुकसाण	-9.41835
▁राहुल	-9.41835
▁सुनावणी	-9.41835
▁इत्सा	-9.41835
▁ङ्किल्म	-9.41843
▁बांदकाम	-9.41847
▁कथेत	-9.41851
▁वेगळी	-9.41852
▁प्रति	-9.41885
▁महात्म	-9.41915
▁कस	-9.41928
▁शो	-9.41947
▁आपणे	-9.41954
▁कानार	-9.41975
▁ताल	-9.42044
▁व्ही	-9.4216
▁चीन	-9.42183
▁गवेत	-9.42197
▁उलय	-9.42265
▁काळा	-9.42347
पणा	-9.42403
▁जेवण	-9.42415
▁आशय	-9.42463
▁भुरगीं	-9.42522
▁साय	-9.42654
▁आयतारा	-9.42665
▁अव	-9.42722
▁ष	-9.42845
खातीय	-9.42853
ष्ठ	-9.42862
▁संवसारा	-9.42973
▁तिची	-9.4299
▁डाय	-9.43054
वात	-9.43154
▁खाते	-9.43158
्द	-9.43159
▁दू	-9.43166
▁ताचेर	-9.43288
▁मुखेलमंत्र्यां	-9.43374
▁नागरीक	-9.43533
▁बरोच	-9.43546
▁उपक्रम	-9.43762
ल्म	-9.43783
▁येवपा	-9.43836
▁करूं	-9.4394
द्द	-9.44015
▁सयकाय	-9.44035
लों	-9.4407
▁घालता	-9.44179
▁वेगळे	-9.442
▁जाव	-9.44252
▁तेल	-9.44277
▁वाच	-9.4436
▁दिसना	-9.44409
▁वाटो	-9.44479
▁कायम	-9.44595
▁आं	-9.44646
सऱ्या	-9.44672
▁अर	-9.4474
▁उखल	-9.44756
▁श्नय	-9.44912
▁म्हामार्ग	-9.4496
▁रोजगार	-9.4496
▁समारोप	-9.4496
▁तुज्या	-9.44962
▁अपघात	-9.44965
▁सरदेसाय	-9.44975
▁पणजी	-9.44983
पत्र	-9.44995
▁जागो	-9.45017
▁आनंद	-9.45017
▁दादल्यांच्या	-9.45056
▁वेंच	-9.45067
र्ड	-9.45082
ुंक	-9.4511
▁मोटार	-9.45183
▁म्हणटा	-9.45215
▁शकू	-9.45265
▁आतंकवादा	-9.45338
िज	-9.45349
▁वचूंक	-9.45402
्री	-9.45588
▁आसली	-9.45604
▁दनपारां	-9.45789
▁दव	-9.45886
▁मोठ्या	-9.4608
तल्यो	-9.46146
▁रावन	-9.46235
▁नवो	-9.46282
▁संवसारांत	-9.46325
▁तरणाट्यांक	-9.46374
▁भशेन	-9.46392
▁नायड	-9.46403
▁तरेची	-9.46412
▁देशातल्या	-9.4654
▁काभ	-9.46596
▁मोहिमे	-9.46634
येर	-9.46642
▁फट	-9.46767
▁दाख	-9.46836
▁मतां	-9.46871
▁राजस्थान	-9.46878
▁कुडीत	-9.46938
▁भवन	-9.46996
▁तुजे	-9.47052
▁सुदार	-9.47103
▁सर्व	-9.47134
▁खे	-9.47183
मजगती	-9.47257
▁वयकाया	-9.47282
▁तू	-9.47374
थे	-9.47394
सान	-9.47602
▁तळ	-9.47607
▁केशी	-9.47632
▁देवाक	-9.47654
▁पोर	-9.47733
▁तपास	-9.47775
▁गोड	-9.47941
▁दोळयां	-9.47948
र्क	-9.48145
e	-9.48181
▁शिटकावणी	-9.48186
▁कोवलड	-9.48187
▁नारायण	-9.48187
▁चांचण	-9.48191
▁नगराध्यक्ष	-9.48191
▁सांवळो	-9.48193
▁राजकारण	-9.48195
▁उदेंत	-9.48225
▁शांती	-9.4823
▁विकस	-9.48238
▁पैशे	-9.48251
▁सपन	-9.48255
▁संपर्क	-9.48326
▁वाठारात	-9.484
▁भुरग्या	-9.48428
ताले	-9.4851
▁जिल्हो	-9.48521
▁साव	-9.48538
▁संदर्भात	-9.48579
▁उद्देगीक	-9.48586
संग	-9.48588
▁चलये	-9.48645
▁स्वता	-9.48699
ावेल्यान	-9.487
▁नाशिल्लें	-9.48791
▁प्रशासना	-9.48816
▁नव्यान	-9.48992
▁हाडून	-9.49028
▁काडपा	-9.49214
▁ण	-9.49341
▁अंदू	-9.49356
▁कोणे	-9.49441
▁सर्ग	-9.49573
▁ऩा	-9.49605
▁सग	-9.49702
▁ब्र	-9.49775
▁मू	-9.49784
▁प्रस्ना	-9.49788
▁फो	-9.49817
▁वी	-9.49825
▁रड	-9.49893
▁देवळांत	-9.49981
▁आयोग	-9.49995
▁वेच	-9.5006
▁ां	-9.50103
▁चडश	-9.50218
▁सोदता	-9.50302
▁बाळ	-9.50367
▁बळी	-9.50389
ल्लमा	-9.50472
▁थंयच्या	-9.50481
▁थारला	-9.50622
▁खंयच्या	-9.50742
▁डि	-9.50807
राव	-9.50846
▁न्हयकार	-9.50917
▁पंगडा	-9.50986
▁जिव	-9.51204
▁1	-9.51252
▁हांस	-9.51352
▁मद	-9.51426
▁लोकांचे	-9.51448
टले	-9.51454
▁महाराष्ट्रांत	-9.51499
▁पर्यावरण	-9.51519
▁व्दिप	-9.51519
▁तेंडुलक	-9.5152
▁कागाळ	-9.5152
मार	-9.51521
▁सोपुत	-9.51523
▁राठो	-9.51523
▁निवड	-9.51526
निश्चीत	-9.51533
▁आयकुपाक	-9.51535
▁भाषेतल	-9.51537
▁आयुश	-9.51539
▁जाग्यार	-9.51541
▁पुस्तकां	-9.51543
▁तुळशी	-9.51545
वर	-9.5156
▁बेबी	-9.51564
▁उलोवणी	-9.51592
▁दिवचल	-9.51601
▁रोह	-9.51665
▁आंकडो	-9.51709
▁उखल्ल	-9.51723
▁एकोड	-9.51764
▁वचपाक	-9.51855
▁आमचे	-9.51961
▁आजये	-9.51997
▁तुमच्या	-9.52014
▁म्हणलें	-9.5209
▁कोयर	-9.52177
तां	-9.5218
त्तर	-9.52223
▁साठ	-9.5227
▁दोळयांत	-9.52274
▁भलायके	-9.52327
▁कथाकार	-9.52345
▁कलाकार	-9.52429
वें	-9.5262
▁संदेश	-9.52685
्ळ	-9.52775
प्त	-9.52804
▁जवान	-9.52845
▁निर्णयाक	-9.52866
▁सोमारा	-9.52868
मु	-9.53273
वाल	-9.53274
▁लोकांची	-9.53462
▁धव	-9.53513
▁सद	-9.53532
▁कृ	-9.53564
▁सुक	-9.53575
ज्य	-9.53619
▁हवा	-9.53632
हर	-9.53735
▁अड	-9.53746
▁मार्ग	-9.53799
▁अभियाना	-9.53861
▁उल्ल	-9.53863
▁करताले	-9.53888
▁वचप	-9.5407
▁क्षेत्रांत	-9.54287
▁दय	-9.54344
▁बरोव	-9.54426
▁राज्यांतल्या	-9.54495
▁वेचणूके	-9.54533
▁वेवसाय	-9.54627
▁हाचो	-9.54668
०	-9.5496
▁जैतिवंत	-9.54968
▁सहयोग	-9.54968
▁स्थिती	-9.54968
▁सुचोवणी	-9.54968
▁रेडियो	-9.54968
▁हरयाणा	-9.54968
▁राजधानी	-9.54968
▁सावयकार	-9.54969
▁प्रादेश	-9.5497
▁ट्रंप	-9.54973
▁लोकशाय	-9.54974
▁दावो	-9.54978
▁भोंवडी	-9.55
▁रद्द	-9.55039
▁दुसरी	-9.55045
च्ये	-9.55046
▁मैदाना	-9.55116
▁आऩ	-9.55121
▁पक्षांच	-9.55129
▁पार	-9.55133
▁भंत्री	-9.55164
▁जिल्लो	-9.55166
▁पात्र	-9.55237
▁िा	-9.55244
▁संदी	-9.55443
▁जावडेकर	-9.55473
▁हाडली	-9.55558
▁केल्यो	-9.55644
▁क्षेत्रात	-9.55695
▁आमज	-9.55702
▁सभाघरा	-9.55708
▁मारला	-9.55737
पट	-9.55747
▁पै	-9.55753
▁दळां	-9.55812
दि	-9.55859
▁घालपा	-9.55958
▁दोग	-9.56207
वेले	-9.56262
ंघ	-9.56274
▁दिवचो	-9.56301
▁3	-9.56324
▁स्वच्छ	-9.56337
▁यादी	-9.56384
वणी	-9.5643
▁जु	-9.56456
▁काळजा	-9.56577
▁मरे	-9.56713
▁ट्रक	-9.5672
यलें	-9.56903
▁करपाचें	-9.56933
▁पुरो	-9.57119
ळया	-9.57251
▁परब	-9.57255
▁सांगून	-9.57329
▁व्हर	-9.57397
▁शकता	-9.57454
▁नाटकां	-9.57474
▁चित्र	-9.57574
▁वस्त	-9.57596
हो	-9.57682
भोद	-9.5769
▁मुख	-9.57811
▁निर्म	-9.58035
▁जावचे	-9.58093
▁लि	-9.58156
▁समुदाया	-9.5827
घर	-9.5827
▁देड	-9.5831
▁पल	-9.58351
▁लाठाया	-9.58355
▁शिव	-9.58365
द्ध	-9.58466
▁भेऱ	-9.58476
६	-9.58534
▁गंभीर	-9.58539
▁टक्के	-9.58539
▁तजवीज	-9.58539
▁जाहिर	-9.58539
▁कुशळटाय	-9.58539
▁गर्दी	-9.58539
▁तुमकां	-9.58542
▁सोपूत	-9.58543
▁वित्त	-9.58546
▁सुवाळो	-9.58547
▁उणो	-9.58557
▁तरनाट	-9.58561
▁मुजत	-9.58562
▁वस्तादपण	-9.5857
मृद	-9.58573
▁आपुण	-9.5859
▁तकली	-9.58592
▁विषय	-9.58619
▁सज्ज	-9.58653
कडच्यान	-9.58666
▁माल्ली	-9.58671
▁नाशिल्ल्या	-9.58682
▁च्या	-9.58682
ॅट	-9.587
▁वाठारानी	-9.58722
▁आळ	-9.58733
▁जाल्मा	-9.5878
▁स्वरा	-9.58805
▁एकोण	-9.5881
▁सप्तका	-9.58819
▁चलता	-9.58832
▁कार्यकार	-9.58865
▁घेवची	-9.58867
▁भेटी	-9.58878
▁बायला	-9.58886
▁चालु	-9.589
▁हांवे	-9.58938
ङया	-9.5896
ताली	-9.58995
▁थंड	-9.59084
▁सर्वा	-9.59161
▁अतिर	-9.59252
▁आमदारां	-9.59274
▁अशोक	-9.59304
▁नगर	-9.59367
वास	-9.5941
▁अटक	-9.5945
▁देळा	-9.59473
▁मानव	-9.5956
▁पर्व	-9.59609
▁निवेदन	-9.59649
▁डा	-9.59757
▁पासून	-9.59761
▁साहित्यीक	-9.59775
चाय	-9.59836
ांड	-9.59916
▁कोणाक	-9.59919
▁उणें	-9.59957
▁दूरदर्शना	-9.59993
ॅक	-9.6
▁पुला	-9.60023
▁आजून	-9.60044
▁दारा	-9.60173
▁दुमेंती	-9.60258
▁निमण	-9.60279
▁इमारती	-9.60352
▁न्ही	-9.60437
▁बर	-9.60557
▁समाजा	-9.60586
▁जनत	-9.60601
▁याज	-9.60677
▁बापाय	-9.6073
▁जपान	-9.60742
▁घोश	-9.60841
▁बड	-9.60858
▁दास	-9.60937
▁ओंप	-9.60937
ॠ	-9.60963
▁दो	-9.60984
▁चडांत	-9.60989
4	-9.61268
▁म्हणयार	-9.61341
▁संस्थेन	-9.61359
दळ	-9.61385
बका	-9.61403
▁ऩड	-9.6149
▁ट्र	-9.61495
▁प्रशासन	-9.6156
▁विमानतळ	-9.61612
ंतले	-9.61625
▁जाम	-9.61736
पासून	-9.618
▁केळयां	-9.61823
पाखातीर	-9.61897
▁संबोध	-9.61979
▁सरकाराचे	-9.62042
▁केल्लें	-9.62131
▁याचिका	-9.62219
▁अकादेमी	-9.62243
▁चवकशी	-9.62243
▁न्यायमुर्ती	-9.62243
▁मोबायल	-9.62243
▁नेमणूक	-9.62243
▁फुडल्या	-9.62246
▁निर्मिती	-9.62247
▁शेजार	-9.62248
▁प्रत्येक	-9.62248
▁रत्न	-9.62248
▁मोलाद	-9.62266
▁गुरू	-9.62281
▁कितली	-9.62286
मय	-9.62288
▁दत्तू	-9.62292
▁पोस्ट	-9.62298
▁भोवमान	-9.62298
▁विशयांचेर	-9.62315
▁समस्य	-9.62329
▁येस	-9.62377
▁कठी	-9.62413
▁ङ्कोन	-9.62443
ंदा	-9.62465
▁दिल्लो	-9.62506
▁तंत्र	-9.6251
क्षी	-9.62575
▁खबरो	-9.62631
▁पूर्ण	-9.62656
▁दोळ	-9.62722
ताये	-9.62907
यांत	-9.62977
चड	-9.62986
▁तळे	-9.63072
▁चाल	-9.63092
टना	-9.63146
▁कवी	-9.63202
कांनी	-9.63224
▁बसलो	-9.633
▁भेटयत	-9.6331
▁बाजार	-9.63331
▁रवी	-9.63393
▁साल	-9.63434
▁कोंकण	-9.63436
▁निर	-9.63476
▁मळा	-9.63504
▁ङ्कायनली	-9.6355
▁काडले	-9.63694
▁तांच्य	-9.63743
▁अधिकार	-9.63905
▁आपल्याक	-9.63928
▁सय	-9.63984
▁ददरी	-9.63995
▁ल्हवू	-9.6402
▁तरणाट	-9.64108
▁दोनशे	-9.64132
▁खाव	-9.64266
▁घु	-9.64336
▁जून	-9.64381
▁मेळची	-9.64412
▁समान	-9.64455
▁वाडट	-9.6461
हान	-9.6474
▁निवेदना	-9.64907
▁रावत	-9.64992
▁ऊ	-9.65019
▁रावपा	-9.65147
▁दिसांचे	-9.65153
येंत	-9.65206
▁उत्सवा	-9.65248
▁जात	-9.65255
एस	-9.6526
▁ङ्कावटी	-9.65261
▁तार	-9.65343
▁मंत्र	-9.65459
ुस	-9.65487
बेग	-9.65527
ॊग	-9.65533
▁मम	-9.65646
▁ङ्कुडाऱ्यान	-9.65698
▁हातान	-9.65705
▁जागृत	-9.66017
बाय	-9.66035
त्त्आ	-9.66048
t	-9.66082
▁कोंयसांव	-9.66089
▁व्हिडिओ	-9.66089
▁घरकान्न	-9.66089
▁विशाणू	-9.66089
▁प्रतिसाद	-9.66089
▁प्राधान्य	-9.66089
▁दोंगर	-9.6609
▁विद्यापीठ	-9.6609
▁सुरळीत	-9.66091
▁गरीब	-9.66093
▁कोयोना	-9.66093
▁बचाव	-9.66093
▁हर्ष	-9.66095
▁सुभाष	-9.661
▁भुखेर	-9.66101
▁वाशीन	-9.66101
▁ओंपलीं	-9.66102
▁इकरा	-9.66103
▁रशिया	-9.66111
▁वकील	-9.66115
▁उल्लेख	-9.66127
▁सांस्कृती	-9.66146
ाधीश	-9.66164
▁परतू	-9.66176
ध्द	-9.66185
▁चल्ला	-9.66196
▁अकरा	-9.66198
▁आनिक	-9.66198
▁भुख	-9.66222
▁मु्नत	-9.66223
▁अश्यो	-9.66237
▁उंचेल	-9.66237
▁स्क	-9.66264
▁ल्मा	-9.66281
ूण	-9.66311
▁दाखोवन	-9.66327
▁गोविंद	-9.6639
▁उऩ	-9.66483
▁इतली	-9.66494
आर	-9.66523
▁कोयसांवा	-9.6663
▁उप्रांत	-9.66631
▁मॅच	-9.66731
▁म्हन्यांत	-9.66737
▁तिग	-9.66767
▁मेल	-9.66778
▁ङ्कक	-9.66842
▁पावोवपा	-9.6686
▁कार्यालय	-9.66899
▁वय	-9.66984
▁प्रभाव	-9.6707
ूड	-9.67084
▁शिमे	-9.67142
▁मॅ	-9.67164
▁लायता	-9.67265
▁उबी	-9.67412
▁भाय	-9.6745
▁दिवचे	-9.67545
िना	-9.67552
▁बोर	-9.67554
▁यादव	-9.67568
▁सामान्य	-9.6768
कृत	-9.67728
▁सर्तीचे	-9.67769
वाह	-9.67793
ांतले	-9.6782
▁परबीं	-9.67922
▁वर्	-9.67993
▁पालो	-9.68125
▁लाड	-9.68219
▁वग	-9.68247
त्रा	-9.68271
▁उमेदी	-9.68324
▁माड	-9.68327
ृत	-9.68539
▁ङ्कुडारपण	-9.68543
▁नाच	-9.68581
▁अमेरिकेचे	-9.68628
▁अर्	-9.68695
▁विसर	-9.68756
▁गव	-9.68787
घया	-9.68867
▁मंत्रीमंडळ	-9.68927
▁उलोवपांत	-9.68973
ंडे	-9.68975
o	-9.69135
न्ह	-9.69158
लायन	-9.69161
▁कुळ	-9.69211
▁ङ्कुडारपणा	-9.69388
▁गिरायक	-9.6939
▁पट	-9.69469
▁पान	-9.69544
▁रावले	-9.69554
ऱी	-9.69586
▁फे	-9.69657
▁आयुष	-9.69829
▁वाह	-9.69931
▁हल्ल	-9.69954
s	-9.70082
▁गुंतवणूक	-9.70085
▁विद्यापिठा	-9.70089
▁संस्कार	-9.70089
▁सौर	-9.70089
▁घडणूक	-9.7009
▁दामोदर	-9.7009
▁मात्सो	-9.70091
▁बापूय	-9.70091
▁सामाज	-9.70093
▁गरजेचें	-9.70096
▁सामको	-9.70099
▁आसतलें	-9.70103
▁रोखडे	-9.70105
▁तुवें	-9.70105
▁नितळ	-9.70108
▁न्हेस	-9.70109
▁घेतिल्ल्या	-9.70129
▁देंव	-9.70142
▁यंत्रणे	-9.70221
▁वळेरे	-9.70241
▁खोलाये	-9.70275
▁अग	-9.70298
विधी	-9.70345
▁जारा	-9.70355
ख्य	-9.70359
▁देशभरांत	-9.70379
▁ददलऩ	-9.70401
▁तितले	-9.70422
▁इतलो	-9.70458
▁आयटी	-9.70479
▁सद्या	-9.7056
▁बंदर	-9.70568
▁येतलो	-9.70594
ंदी	-9.70683
▁महोत्सवांत	-9.70685
▁आतंकवाद्यां	-9.70716
▁नम	-9.70716
▁शेख	-9.70727
▁चु	-9.70783
▁उडयल	-9.70867
▁से	-9.70922
▁खेळटलो	-9.70985
▁क्ष	-9.71017
जय	-9.71026
र्ट	-9.71056
▁दवरला	-9.71075
▁घालप	-9.71083
ानंद	-9.71087
▁वाठारातल्या	-9.71089
▁रूप	-9.7111
▁कितलेश	-9.71152
कृष्ण	-9.71161
▁कबलाती	-9.71178
▁बळ	-9.71263
▁बंगाल	-9.71291
▁आपलें	-9.71319
ांखातीर	-9.71332
कृ	-9.71355
भया	-9.71401
▁झारखंड	-9.71403
▁लिप	-9.71438
▁आख	-9.71478
▁थारल्या	-9.71492
▁जाती	-9.71513
▁आयकून	-9.71545
▁राज्याचे	-9.71557
▁खेळटल	-9.71666
गांव	-9.7184
▁नदरे	-9.71853
▁सिं	-9.71867
▁श्रीलंके	-9.7193
▁झुजा	-9.7194
▁पावंड्या	-9.71959
ाव्या	-9.71989
▁छा	-9.72057
मरा	-9.72094
▁दिवपाचो	-9.72167
्यांच्या	-9.72328
षण	-9.72367
▁क्षेत्र	-9.72393
ेखातीर	-9.72458
▁भवनांत	-9.7247
▁गुंतवणुक	-9.72512
वेली	-9.7284
▁अंत	-9.7291
▁निवळ	-9.72964
▁नाग	-9.73077
▁योगी	-9.73107
▁वयले	-9.73123
▁घाल्ल	-9.73307
▁आसू	-9.73406
िंत	-9.73456
▁आसाम	-9.73458
▁मोल	-9.73469
▁बायता	-9.73485
▁तश	-9.73588
▁आयकू	-9.73592
कुल	-9.73612
▁दवरल्या	-9.73625
▁प्रकल्पा	-9.73672
▁घटक	-9.738
▁कार्यशाळ	-9.73846
▁पडू	-9.73903
िल्ल्यो	-9.73965
▁नांवा	-9.74106
ल्स	-9.74118
▁भोंवडे	-9.74221
▁दिपक	-9.74226
‘	-9.74256
▁अभिनंदन	-9.74256
▁प्रत्यक्ष	-9.74256
▁येजमानक	-9.74256
▁कोव्हीड	-9.74256
▁चाळीस	-9.74256
▁मुरगांव	-9.74259
▁रवींद्र	-9.74262
▁ङ्कांटभुये	-9.74266
▁आडखळ	-9.7427
▁सैम	-9.74275
▁शकना	-9.74287
नगर	-9.74296
▁भारतात	-9.74321
ांच्यो	-9.74329
▁धोक	-9.74333
▁देळ	-9.74361
▁संस्कृताय	-9.74367
▁काके	-9.74396
▁घालूक	-9.74397
▁पांय	-9.744
▁वेवसायीक	-9.745
राबर	-9.74535
▁गडे	-9.74547
▁पाड	-9.74559
▁खासग	-9.74565
▁वाढ	-9.74586
▁पुर्व	-9.74602
▁घेवचो	-9.74613
▁न्यायाधिश	-9.74635
▁सतरा	-9.74691
▁भोग	-9.74782
▁खोस	-9.74948
ंद्र	-9.75008
▁राज्यमंत्र	-9.75016
▁पळयत	-9.75023
▁हाव	-9.75041
▁कुशीक	-9.75077
▁केंद्रि	-9.75187
▁चचा	-9.75227
ड्डा	-9.75241
▁न्यायालय	-9.75248
▁बाबुल्या	-9.75347
▁घरां	-9.75361
▁व्हडलो	-9.75375
▁मार्गा	-9.75439
▁साध	-9.75441
▁फटो	-9.75458
ॅन	-9.75504
दास	-9.75517
▁सयकाया	-9.7554
ीटर	-9.75634
▁दळान	-9.75681
▁शंकर	-9.7579
माम	-9.75868
▁प्रधान	-9.75891
▁वखदां	-9.75998
डेन	-9.76055
▁बायलांक	-9.76057
देळ	-9.76073
▁रू	-9.76118
▁बल	-9.76193
▁झाडां	-9.76232
▁शांतीकाये	-9.76236
▁देशभर	-9.76242
▁गावांत	-9.76243
▁देशी	-9.76261
▁प्रवाशां	-9.76331
ेरा	-9.76362
्टा	-9.76785
ोज	-9.76804
तें	-9.76813
▁माळ	-9.76876
▁बेस	-9.76914
▁रण	-9.76994
▁भात	-9.77132
▁किते	-9.7716
▁िे	-9.77168
ल्ल्यो	-9.77291
वयर	-9.774
▁थारायला	-9.7751
▁छान	-9.77575
▁वावुरता	-9.77732
▁याज्मा	-9.77788
अर	-9.77848
▁बेगो	-9.77873
▁शिक्षक	-9.7792
▁कोयसांव	-9.77994
▁त्याच	-9.78022
हार	-9.78116
▁मेळू	-9.7826
▁महोत्सवा	-9.78363
▁मस	-9.7842
▁फुडार	-9.78474
▁सुधार	-9.78501
▁आल्	-9.78549
,198	-9.78603
▁उपरराष्ट्रपती	-9.78603
▁कल्पना	-9.78603
▁काणकोण	-9.78603
▁ङ्कोंडें	-9.78603
▁दामबाबा	-9.78603
▁येसस्वी	-9.78603
▁उलौ	-9.78603
▁काब्रा	-9.78603
▁जखमी	-9.78604
▁ट्वीट	-9.78604
▁पंदरा	-9.78604
▁ढवळीक	-9.78604
▁ख्यास्त	-9.78605
▁कवासो	-9.78606
▁मुद्यांचेर	-9.78606
▁दिश्टी	-9.78607
▁वळेरी	-9.78608
▁उगडास	-9.78609
एया	-9.78609
▁सगळया	-9.78615
▁तिज्या	-9.78618
▁पटेल	-9.78621
▁सुपर	-9.78628
▁उटंगरा	-9.7863
▁हिंदू	-9.78643
▁धांवत	-9.78645
▁मिश्र	-9.78677
▁आसल्यार	-9.78688
▁पळेले	-9.78696
▁वुरू	-9.78712
▁गेल्ल्या	-9.78751
▁फकत	-9.78762
▁म्हयन्यांत	-9.78774
▁आयिल्ली	-9.7878
▁जातल	-9.78819
▁आंतर	-9.78888
जर्स	-9.78893
▁स्वामी	-9.78929
▁शुक्रारा	-9.78934
▁शेनवारा	-9.7895
वूय	-9.78962
▁धर्मीक	-9.78966
▁सोय	-9.78996
▁काडलो	-9.79055
▁वतना	-9.79065
▁बार	-9.79101
▁कोविडा	-9.79104
▁म्हत्वाचे	-9.79181
▁उबार	-9.79191
▁माल	-9.79218
▁ज्यो	-9.79239
▁मान्य	-9.79257
▁दळाचे	-9.79271
▁पळोवं	-9.7933
▁दक्षता	-9.79335
ूस	-9.79346
▁उमेदवारां	-9.79354
ॅल	-9.7936
▁फट्या	-9.79475
लया	-9.79504
▁वासू	-9.79517
▁भाशेंत	-9.79564
▁मानून	-9.79631
ातल्मा	-9.79635
्गत	-9.79646
▁पस	-9.79714
डटा	-9.79721
▁कुर	-9.79858
▁हाच्या	-9.7986
▁लागला	-9.79865
▁सैनिकां	-9.79956
▁मोटो	-9.79964
▁अथ	-9.80061
▁तुजें	-9.80097
▁परि	-9.80154
▁लोकसभेंत	-9.80176
▁बरयल्य	-9.80213
▁ह्यावेळार	-9.80224
▁चाचणी	-9.80249
▁दाय	-9.80292
▁दिवाळे	-9.80302
▁अर्द	-9.80326
ाध्यक्ष	-9.80452
▁कयऩ	-9.80491
▁नासता	-9.80762
▁सहकार	-9.80809
▁जावपाचे	-9.80827
▁बरीच	-9.80829
▁घेतात	-9.80843
▁चित	-9.80993
ुड	-9.81033
▁नारद	-9.81061
▁आसून	-9.81065
▁उपाध्य	-9.81158
▁तेलंगणा	-9.81166
▁राखपा	-9.81187
क्षया	-9.81214
▁रच	-9.81306
▁नर	-9.81335
▁बाव	-9.81382
▁गोंयकार	-9.81457
▁ब्ल	-9.81464
कूल	-9.81501
▁वड	-9.81513
▁थांब	-9.81514
काळ	-9.81532
▁जड	-9.81687
▁नागरी	-9.81739
▁कोलो	-9.81843
ांल	-9.81929
दु	-9.81993
▁घडणुक	-9.82011
भार	-9.82028
२	-9.8218
▁परिशदेचे	-9.8246
णया	-9.82481
्यांची	-9.82515
▁ओम	-9.82572
▁जायते	-9.82706
▁मैदानाचे	-9.82756
▁दुयेंसा	-9.82858
▁लागीं	-9.82942
साण	-9.82955
▁आदींच	-9.82973
▁जण	-9.82983
ॉन	-9.82987
▁प्रधानभंत्र	-9.83023
तालें	-9.83114
▁अधिसुचोवण	-9.83149
▁अहमदाबाद	-9.83149
▁आयुर्वेद	-9.83149
▁आरबीआय	-9.83149
▁ङ्कारपेट	-9.83149
▁सल्लागार	-9.83149
▁हाजिर	-9.83149
▁पंडित	-9.83149
▁मंजूर	-9.83149
▁चेन्नय	-9.8315
▁अखेर	-9.8315
▁केंद्रशास	-9.8315
▁निर्बंध	-9.83152
▁खबरदारी	-9.83153
▁येणावळ	-9.83156
▁बहु	-9.83156
▁ओडिशा	-9.83159
▁आशिल्ल्यो	-9.83161
▁मेळ्ळ्या	-9.83164
▁अदिक	-9.83165
▁कयतरे	-9.83173
▁सगळो	-9.83174
▁माचये	-9.83179
▁गेल्ली	-9.83185
▁वेस्ट	-9.83205
▁दोट्टी	-9.83211
▁अरुण	-9.83239
▁व्हाळ	-9.83259
▁व्यापार	-9.83263
▁जाण्ट	-9.8327
▁उगड	-9.83313
▁धांव	-9.83346
▁गर	-9.8336
कस्म	-9.83386
▁बुन्यादी	-9.83413
्च	-9.83426
्यांचो	-9.83457
▁संबोधीत	-9.83475
▁साथ	-9.83578
▁पाचशे	-9.83586
▁अरब	-9.836
▁पळोवया	-9.83618
▁खै	-9.83642
▁दर्जो	-9.83735
▁स्थानका	-9.83737
▁मुंबयत	-9.83743
▁न्ह	-9.83755
▁दोगांय	-9.8376
▁येवजणेखा	-9.83784
▁ुखेलंत्र	-9.83791
▁देशाक	-9.83808
ऩाक	-9.83817
▁शाणू	-9.83871
▁उफ	-9.83898
▁पडपाच	-9.83918
▁खेपे	-9.83927
▁उज	-9.83993
▁दवल्ले	-9.8418
ाखाल	-9.84208
स्प	-9.84225
▁तसोच	-9.843
▁रोक	-9.84334
▁विश्वज	-9.84341
▁शिकप	-9.8441
▁दिशा	-9.84416
▁नामनेच	-9.84448
▁सारख	-9.84519
▁शिख	-9.84544
▁भागीदारी	-9.84602
▁मंत्र्यान	-9.84694
▁बायलेक	-9.84721
▁नाथ	-9.84733
▁खंड	-9.84759
▁कामाक	-9.84827
दयाळ	-9.84875
▁उदय	-9.84891
▁याज्म	-9.85026
▁ऩाल	-9.85082
▁ताळ	-9.85173
▁अजाप	-9.8522
▁अधिवेशन	-9.85247
▁ताचें	-9.85266
▁जें	-9.85315
▁मुळ	-9.85339
▁तांबड	-9.85388
▁आदर	-9.85391
▁गांवांत	-9.8547
ंगल	-9.85584
▁दुका	-9.85602
▁तै	-9.85602
▁भोद	-9.85736
▁मेळयले	-9.85757
▁तुम	-9.85775
▁नागरिक	-9.85869
▁कार्यक्रमा	-9.85903
माण	-9.85951
▁म्हणत	-9.86015
▁तांचें	-9.8607
▁हज	-9.86109
▁धुकल	-9.86122
▁पध्दत	-9.86281
▁अभ	-9.86356
▁सकल	-9.86407
▁बाजारांत	-9.86482
▁आत	-9.86501
ळें	-9.8655
खर	-9.86623
▁गि	-9.86672
▁आहा	-9.86676
्ता	-9.86695
यार	-9.86793
णाम	-9.86833
▁भुरगी	-9.86835
ल्ल्यान	-9.86848
▁कितले	-9.86979
▁हुंवारा	-9.8706
▁तत्वां	-9.87091
▁विभागाचे	-9.87094
▁बिर	-9.87097
▁मोठे	-9.87154
▁पावता	-9.87258
▁खूबश	-9.87347
▁मोडी	-9.87376
▁दरेका	-9.87382
▁कोंब	-9.87405
पसून	-9.87592
▁मंडळाचे	-9.87692
▁सुमन	-9.87707
▁जिल्ल्यांत	-9.8784
m	-9.879
▁उ्नतायल	-9.87911
▁परिस्थीती	-9.87911
▁वाराणसी	-9.87911
▁शहीद	-9.87911
▁सर्वेक्षण	-9.87911
▁बुनयाद	-9.87911
▁अविनाश	-9.87911
▁प्रश्न	-9.87912
▁उरमतारे	-9.87912
▁द्विपक्ष	-9.87912
▁पाद्री	-9.87912
▁म्हटला	-9.87912
▁शुन्य	-9.87913
▁प्रतिबंध	-9.87913
▁जोडपालव	-9.87914
▁ज्ञान	-9.87917
▁भुरगो	-9.87918
▁वास्को	-9.87922
▁मोहीम	-9.87929
▁मांडटले	-9.87941
▁आयु्नत	-9.87965
▁दनपारा	-9.87967
▁तुजी	-9.87988
▁पार्क	-9.87995
ॅशन	-9.88002
▁संकुला	-9.88007
▁अंतराळ	-9.88009
गत	-9.88022
अल	-9.88027
▁पारंपार	-9.88028
▁सोळा	-9.88039
▁येक	-9.88052
▁पूल	-9.88058
▁जातकच	-9.88058
▁विमो	-9.88063
ाआड	-9.88066
ंदू	-9.88097
एल	-9.88103
▁पद्दती	-9.88104
▁लागसार	-9.88106
राम	-9.88108
▁पुजा	-9.88112
▁नव्य	-9.88122
▁दायज	-9.88133
▁फक्त	-9.88143
▁मुखेलमं	-9.88155
▁पण	-9.88201
▁राजांगणांत	-9.88272
▁पंगडाचे	-9.88307
▁पालिका	-9.88333
▁ङ्कांट्या	-9.88347
▁खाशेल	-9.88403
व्ही	-9.88427
▁परव	-9.88441
▁उरिल्ल्या	-9.88451
▁दितात	-9.8851
▁वर्ग	-9.88528
घड	-9.886
▁उक्ता	-9.88608
▁कर्मचाऱ्यां	-9.88641
▁आवड	-9.88683
▁कव	-9.88705
▁बसला	-9.88707
▁गोल	-9.88716
पती	-9.88731
▁जाणां	-9.88748
▁सांवळयान	-9.88755
ढया	-9.88759
्को	-9.88798
भव	-9.88823
▁उजो	-9.88864
▁घोवा	-9.88874
▁ताब	-9.88875
▁मोट्या	-9.88951
पाचें	-9.8898
नाफुडें	-9.88995
▁मंत्र्या	-9.89093
▁हावें	-9.89101
▁उकत	-9.89217
▁येवजण्यां	-9.89261
▁सप्तकां	-9.8931
▁निमणे	-9.89358
▁पेड	-9.89434
▁तांचेर	-9.89625
▁गोयल	-9.89687
राय	-9.89737
▁साहित्यांत	-9.89746
ाखातीय	-9.89768
धर	-9.89772
▁गोयांत	-9.89913
ेरेन	-9.89924
▁कश्मीर	-9.8993
▁मागला	-9.89935
▁दिसू	-9.90021
▁स्प	-9.90042
▁अमेरीके	-9.90061
▁रोकड	-9.90086
▁घेव	-9.90098
▁आसतात	-9.90125
▁यू	-9.90209
ोद	-9.90233
▁माध्यमां	-9.90273
▁बाग	-9.90378
▁साक	-9.90414
▁नांवान	-9.90461
▁दिलें	-9.90493
▁वाग	-9.90847
▁हिमा	-9.90944
ॊक	-9.91182
▁येवचे	-9.91263
▁उबारपा	-9.91353
▁हिता	-9.91372
▁म्श	-9.91398
▁गीत	-9.91469
▁दुसरें	-9.91475
▁पोत	-9.91555
▁दश	-9.91688
▁वेता	-9.91753
▁शारी	-9.91767
▁म्हगेल	-9.91795
▁हैदराबाद	-9.91847
▁सोन	-9.91894
▁आर्गा	-9.919
▁म्हणपाचे	-9.91949
▁गोंयांतल्या	-9.91977
▁ट्	-9.92164
▁इं	-9.92175
▁ुखेल	-9.92207
प्प	-9.92308
▁संघ	-9.92349
वाई	-9.92395
▁नाव	-9.92434
आड	-9.92547
▁प्रक्रिये	-9.92548
▁संकल्प	-9.9271
▁हार्	-9.92733
▁लज	-9.92749
▁चौक	-9.92762
येत	-9.92848
r	-9.92892
▁दिगंबर	-9.92911
▁स्वतंत्र	-9.92911
▁194	-9.92911
▁आङ्क्रिक	-9.92911
▁कार्यकत्र्यां	-9.92911
▁गुवाहाटी	-9.92911
▁तामीळनाडु	-9.92911
▁पळौन	-9.92911
▁बॅडमिंटन	-9.92911
▁म्हयनाळ	-9.92911
▁उड्डाण	-9.92911
▁म्हयने	-9.92911
▁परवानग	-9.92912
▁सिंधू	-9.92912
▁थोडो	-9.92912
▁महामारी	-9.92912
▁एकवटीत	-9.92912
▁वेवहार	-9.92916
▁वर्णन	-9.92918
▁सर्वपक्ष	-9.92918
▁झुज	-9.92919
▁काळीज	-9.92922
▁पालिके	-9.92926
▁भुतान	-9.92927
▁सिद्ध	-9.92941
▁शीम	-9.92946
▁अठ्ठ	-9.92954
▁उदयगत	-9.92969
▁प्रगती	-9.92974
▁सारकी	-9.92994
▁उरतली	-9.93005
▁खात्मा	-9.93015
शिल	-9.93028
▁पथून	-9.93031
▁गाडी	-9.9305
▁आयकर	-9.93069
▁रावजी	-9.9307
▁जातरी	-9.93075
वास्तव	-9.93084
▁कृती	-9.93087
▁प्रसंग	-9.9309
▁शिगमो	-9.93101
▁आपय	-9.93103
▁हाडटा	-9.93111
▁जातरे	-9.9312
▁स्थान	-9.93125
▁जोशी	-9.93144
▁संघटणा	-9.93149
▁कान	-9.93151
▁कापड	-9.93152
▁श्रम	-9.93156
▁कसल्या	-9.93157
▁काश्मीरांत	-9.93161
▁मूळ	-9.9322
▁इत	-9.93256
▁म्हणपाची	-9.93318
▁शाॊ	-9.93339
▁हांच्यो	-9.9336
▁न्हू	-9.93374
▁आन	-9.93393
▁कार्यशाळे	-9.93409
▁हालींच	-9.93419
▁वयली	-9.9342
▁फेणो	-9.9342
िड	-9.93443
क्षा	-9.93499
▁वस्तू	-9.93522
▁अटल	-9.93527
▁स्वा	-9.93554
▁अच	-9.93566
▁येतली	-9.93615
▁एकठा	-9.93679
▁नासले	-9.93709
▁रस	-9.93717
▁हुम	-9.93769
▁नियोजन	-9.93774
▁असल्या	-9.93815
▁अॅप	-9.93846
त्री	-9.93849
▁सक्ती	-9.93869
▁प्रकरण	-9.93897
▁जिणेंत	-9.93968
▁ङ्क्र	-9.93978
र्थ	-9.94063
▁खान	-9.94132
▁विचारता	-9.94142
▁भान	-9.94186
र्व	-9.94295
▁दुखां	-9.94323
▁दस	-9.94505
▁फुट	-9.94533
▁सामान	-9.94553
▁निमाणो	-9.94554
▁जावचें	-9.94671
▁राज्यसभ	-9.94676
▁तिचो	-9.94713
▁वाटेर	-9.94832
▁देशभरात	-9.94854
▁सांगूक	-9.94893
▁करार	-9.94902
▁विकत	-9.95039
▁व्यक्त	-9.95111
वता	-9.95125
सारके	-9.95147
▁पुलिसां	-9.95262
▁रीण	-9.95278
▁वतले	-9.95284
▁वन	-9.95356
▁शेटी	-9.9536
▁वावुरप	-9.95422
▁म्हणचे	-9.95506
त्तम	-9.95627
▁आदल्य	-9.95687
ेंतल्या	-9.95697
ैल	-9.95791
▁भाशेन	-9.95792
ल्रे	-9.95793
▁मनाक	-9.95846
▁ददस	-9.95869
▁नाल्ल	-9.95889
▁भुरग्यांचे	-9.959
बाब	-9.95968
▁वर्सी	-9.95986
▁पयलें	-9.95986
▁दिसाचो	-9.9631
▁भोंव	-9.96354
▁पुलिसान	-9.96533
▁वरा	-9.96539
▁राखण	-9.96599
कोट	-9.96692
▁अंदूं	-9.9671
▁उम	-9.9674
▁काडी	-9.96802
▁विश्व	-9.96822
▁भाजप	-9.96824
▁वसंता	-9.96842
ङ	-9.96981
▁बायत	-9.97034
▁फाटल्या	-9.97041
▁विचाल्ले	-9.97103
▁गेल्ले	-9.9711
▁चाचण्य	-9.97167
८	-9.97205
३	-9.97208
१	-9.97212
▁चोर	-9.97239
▁पातळ	-9.97293
▁तुमचे	-9.97295
▁धन	-9.97347
▁साम	-9.97413
▁हाडप	-9.97474
▁मतदारां	-9.97501
▁मोद	-9.97583
▁किद	-9.97668
▁हातात	-9.97901
▁विक्र	-9.97916
▁दरेकी	-9.97947
▁शिष्टमंडळा	-9.97965
र्ण	-9.97968
▁ददल	-9.97978
▁कल	-9.97993
▁बाबा	-9.98051
र्नांड	-9.98052
भाय	-9.98069
▁सुद	-9.98099
ंदे	-9.981
▁18	-9.98156
▁ऑगस्ट	-9.98174
▁ऑ्नटोबर	-9.98174
▁कौल	-9.98174
▁थरथर	-9.98174
▁दुरुस्त	-9.98174
▁पराक्रम	-9.98174
▁बंगळुरू	-9.98174
▁लष्कर	-9.98174
▁समृद्ध	-9.98174
▁म्शामती	-9.98174
▁हिप्पी	-9.98175
▁सांवळ्या	-9.98175
▁सिताराम	-9.98175
▁विवेकानंद	-9.98176
▁रमेश	-9.98176
▁अभियंत	-9.98177
▁तातुत	-9.98178
▁जाळ्या	-9.9818
▁छत्तीसगड	-9.98181
▁ङ्काटभुये	-9.98182
▁स्वागत	-9.98183
▁इनाभ	-9.98183
▁शिरोड	-9.98186
▁सार्नय	-9.98187
▁गंगा	-9.98187
▁अरूण	-9.98188
▁प्रेरणा	-9.98194
▁बायतीम	-9.98195
▁तळमळ	-9.98203
▁पध्दतीन	-9.98213
▁मार्च	-9.98214
▁गेल्लो	-9.9822
▁खात्री	-9.98226
▁सोश	-9.98236
▁खरेदी	-9.98239
▁आमगेर	-9.98264
▁पदवी	-9.98267
▁पडप	-9.98285
▁सोबीत	-9.98297
▁पूज	-9.98305
▁सुरवे	-9.98306
▁दितलो	-9.98326
▁बांदावळ	-9.98351
भायर	-9.98373
▁हाय	-9.98376
▁घट्ट	-9.98401
▁भॊत्री	-9.98409
▁सत्त्आ	-9.9841
▁इश्ट	-9.98412
▁भजन	-9.9846
▁विक्रम	-9.9851
▁ददर	-9.9869
▁मळ	-9.9871
▁सारको	-9.98777
▁जमनी	-9.98804
▁फये	-9.98901
▁घेतिल्ले	-9.98905
▁मुखेलमंत्र्यान	-9.99028
▁सांगू	-9.99064
▁दोतोर	-9.99087
▁दांड	-9.99135
हय	-9.99209
▁उजवाडाक	-9.99266
▁तेको	-9.99273
▁परीषदे	-9.99321
▁ऩय	-9.9934
▁जिवा	-9.99341
▁भांत्री	-9.99342
▁तत्व	-9.99367
▁वाल	-9.99393
▁कोय	-9.99398
ँग	-9.99516
▁तिसर	-9.9952
▁मानले	-9.99563
▁म्हणपाचें	-9.99628
देव	-9.99631
▁दिना	-9.99685
▁पत्रकारां	-9.99694
▁मह	-9.99712
▁देवळा	-9.99752
▁थारता	-9.99783
सरी	-9.99786
▁रावपी	-9.99797
▁आपणाक	-9.9981
▁ऋ	-9.99864
▁जिल्ल्या	-9.99909
▁मडगांवां	-10.0009
▁राल	-10.001
्यांचे	-10.0011
▁खात	-10.0015
ंटी	-10.0018
▁पडला	-10.0032
▁शारा	-10.0041
पक्ष	-10.0049
▁5	-10.0056
▁उत्पादना	-10.006
▁ङ्कुडाऱ्या	-10.0062
▁खोल	-10.0067
▁प्राधिकरणा	-10.0069
▁पट्ट	-10.0081
▁आसलें	-10.0086
▁भाज	-10.0088
▁रेग	-10.0099
▁सरता	-10.01
▁सॅ	-10.0101
▁जोडले	-10.0111
▁मायक	-10.0112
▁ङ्कड	-10.0114
▁दिसांनी	-10.0116
▁उस	-10.013
▁आशे	-10.0139
▁हॅ	-10.0144
▁संग्रह	-10.0146
▁पावली	-10.016
ोवपाक	-10.017
▁लागल्या	-10.0182
▁गण	-10.0186
▁दम	-10.0186
▁येतालो	-10.019
ेग	-10.0191
▁हांचें	-10.0208
▁बद	-10.0212
▁बॉ	-10.0213
▁उलोव	-10.0217
ल्य	-10.0227
डस	-10.023
ॊद	-10.0242
▁बेग	-10.0244
▁व्हडल्या	-10.0245
▁वीस	-10.025
▁करुं	-10.0271
७	-10.0275
▁उत्	-10.0275
कुमार	-10.0276
▁कार्या	-10.0276
▁दवरता	-10.0277
वेळ	-10.0286
फाट	-10.03
▁शाळेत	-10.031
▁मोटे	-10.0342
फुडें	-10.0345
▁म्हान	-10.0345
▁पालक	-10.0346
ियो	-10.0353
▁अनि	-10.0357
रामन	-10.0361
▁कितेंय	-10.0364
ुरू	-10.0365
स्थान	-10.0369
▁वेल	-10.0369
▁व्यवसाय	-10.0373
▁व्हिडियो	-10.0373
▁सुचोवण्यो	-10.0373
▁आंध्र	-10.0373
▁पुरुष	-10.0373
▁पेद्रू	-10.0373
▁चकमक	-10.0373
▁श्नती	-10.0373
▁राजिनाम	-10.0373
▁मेळ्ळा	-10.0373
▁सीताराम	-10.0373
▁सहाय्य	-10.0373
▁तुजो	-10.0373
▁ननभत	-10.0373
▁जमा	-10.0374
▁बंदखण	-10.0374
▁तमाय	-10.0375
▁क्रांती	-10.0375
▁......	-10.0377
▁उऩाम	-10.0378
▁नासलो	-10.0378
▁वितराय	-10.0379
▁दुबाव	-10.0381
▁विस	-10.0381
▁पडटले	-10.0382
▁फातर	-10.0382
▁निर्गत	-10.0383
▁इनामां	-10.0385
▁निरीक्षक	-10.0392
▁दुब	-10.0395
▁संकल्पना	-10.0396
▁माल्लो	-10.0396
पंडीत	-10.0397
▁दुर्	-10.0397
▁सुटाव	-10.0399
पैकी	-10.0403
क्रीय	-10.0404
▁इतल्यांत	-10.0404
▁सत्र	-10.0404
▁काश्मीरातल्या	-10.0407
वंत	-10.0413
▁यंत्र	-10.0415
▁एकूण	-10.0415
▁कर्नाटकांत	-10.0416
मळ	-10.0417
▁जिवीत	-10.0419
▁ङ	-10.042
▁बावट	-10.0431
▁फिर	-10.0433
▁दारांत	-10.0436
▁रॉ	-10.0437
▁शणैल्या	-10.0437
▁खबरी	-10.0443
विशीं	-10.0446
▁थळ	-10.0448
▁मध्यम	-10.0451
▁नावा	-10.0454
▁आफ	-10.0457
▁भाट	-10.0464
▁१	-10.0469
▁लेगलेगळ्म	-10.0471
▁आर्	-10.0472
▁चर्च	-10.0472
▁काडली	-10.0474
▁राविल्ल	-10.0486
▁शु	-10.0487
▁हॉक	-10.0491
धार	-10.0499
▁o	-10.0508
▁राज्यातल्या	-10.0515
▁थारायलां	-10.0515
▁खांद	-10.0531
▁जस	-10.0536
▁वांग	-10.0538
▁शकतात	-10.0549
▁माथ	-10.055
▁बिन	-10.0556
▁मुख्य	-10.0556
▁ऱ	-10.0557
▁मेळप	-10.0563
▁तांतूंत	-10.0578
▁तेज	-10.0583
▁शिक्षकां	-10.0584
▁दुःख	-10.0587
श्च	-10.0587
ड्डे	-10.0597
▁राण्यां	-10.0601
ाप्रमाण	-10.0601
▁वसा	-10.0605
▁पातळी	-10.0612
▁शारात	-10.0615
▁आवयन	-10.0617
▁पोरसांत	-10.0637
--	-10.0637
▁संव	-10.0642
▁पुस्तकांत	-10.0642
▁करतालो	-10.0646
▁क्षेत्रा	-10.0647
▁साधना	-10.0649
▁आकार	-10.0664
▁हेविशी	-10.0664
▁न्यायालयांत	-10.0665
▁दिसलो	-10.0678
▁साळ	-10.0689
वेलो	-10.0692
▁सांखळ	-10.0694
विश्	-10.0704
▁मंच	-10.0707
▁शिवा	-10.0711
▁मतदारसंघां	-10.0712
▁केन्नां	-10.0713
▁रोमी	-10.0726
▁गेम	-10.0736
पोर्ट	-10.0744
▁धांप	-10.0746
▁घात	-10.075
▁गया	-10.0757
▁ऽ	-10.0766
▁चिर	-10.0784
▁नौदळ	-10.0794
▁दनपार	-10.0798
लऽ	-10.0804
▁उरो	-10.0809
▁अधिकाऱ्यांक	-10.081
दिसा	-10.0812
▁संमेलना	-10.0813
▁सावळ	-10.0822
▁करतल्य	-10.0823
▁उकतायला	-10.0833
▁पत्रकारांक	-10.0836
▁तिसरे	-10.0838
▁जिल्ल्यात	-10.084
▁मानवी	-10.0852
▁पैल	-10.0853
▁पालकां	-10.0854
ुण	-10.0857
▁चाचण	-10.0858
▁मती	-10.086
तकीर	-10.0861
बंद	-10.0862
▁आव्हानां	-10.0865
▁चॅ	-10.0865
▁उप्रा	-10.0871
▁भवनात	-10.0881
▁वांगड	-10.0886
▁चल्ल्या	-10.0887
▁जमी	-10.0892
▁खबराकार	-10.0894
▁प्रल	-10.0906
शीत	-10.0906
शया	-10.0909
▁अजुन	-10.0911
▁खरो	-10.0914
▁बिहारांत	-10.0937
▁सहभाग	-10.0938
जीत	-10.0943
▁खेळात	-10.0959
▁193	-10.0961
▁चक्रीवादळ	-10.0961
▁नोव्हेंबर	-10.0961
▁विधीमंडळ	-10.0961
▁शुभारंभ	-10.0961
▁सप्टेंबर	-10.0961
▁सागंले	-10.0961
▁आदिवासी	-10.0961
▁गौरू	-10.0961
▁जीएसट	-10.0961
▁शिबीर	-10.0961
▁ङ्कुटबॉल	-10.0961
▁पडटली	-10.0961
▁प्रयोग	-10.0961
▁थाकाय	-10.0962
▁भाशीक	-10.0962
▁जेन्ना	-10.0962
▁पूराय	-10.0962
▁विंगड	-10.0962
▁बेकायदेश	-10.0962
▁मेळ्ळी	-10.0962
▁हातुंत	-10.0962
▁कविता	-10.0963
▁नोकर	-10.0963
▁यादस्ती	-10.0963
▁प्रणाली	-10.0964
▁दिशेन	-10.0964
▁कळोवणे	-10.0964
▁कृष्णा	-10.0965
▁आरक्षण	-10.0966
वयल्यान	-10.0966
▁शस्त्रां	-10.0966
▁इंग्लंड	-10.0966
▁वच्चे	-10.0967
▁ऩमरे	-10.0968
▁तकले	-10.0969
▁प्रधानभॊत्र	-10.0969
▁हिंस	-10.097
▁गूण	-10.0971
▁ताण	-10.0973
▁नायट	-10.0974
▁भागिदार	-10.0976
▁तिजी	-10.0978
▁काडटा	-10.0979
▁मागणे	-10.0982
▁हारयले	-10.0985
▁चीट	-10.0986
▁भेटयल्या	-10.0991
▁कांट	-10.0997
▁भूंय	-10.0997
▁घेतना	-10.1006
▁बुड	-10.1008
▁रोड	-10.1013
िराट	-10.1014
बाग	-10.1016
▁सागर	-10.1017
▁कॉन्	-10.1017
र्ती	-10.1017
▁जवानां	-10.1021
▁कामगार	-10.1023
▁देवान	-10.1025
▁काणी	-10.1027
▁निकत	-10.1027
▁कथेचो	-10.1028
▁फळ	-10.1033
▁दिसांच	-10.1034
▁व्हरपा	-10.1034
▁याष्ट्र	-10.1039
मया	-10.1044
▁धानमं	-10.1048
▁आपयल्या	-10.1049
▁गजालीं	-10.105
▁अभि	-10.1055
ंपो	-10.1056
▁तज्ञ	-10.1066
▁लायली	-10.1073
हायती	-10.1074
▁केंद्रान	-10.1077
▁सांगरे	-10.1079
▁तोंडार	-10.1086
▁शणैन	-10.1092
▁एकदां	-10.1099
वलळीं	-10.1104
▁रावल	-10.1122
▁मनांतल्या	-10.1129
▁देवळां	-10.1135
▁खात्मान	-10.1138
▁भायल्या	-10.114
▁राखू	-10.1148
▁पद्दतीन	-10.115
▁समा	-10.1153
यिा	-10.1165
▁मतदारसंघात	-10.1179
संख्या	-10.1187
▁द्रा	-10.1187
भान	-10.1189
▁हू	-10.1192
▁मनशाक	-10.1192
▁उपक्रमा	-10.1194
▁स्वातंत्र्य	-10.1195
▁मॅन	-10.1203
ींया	-10.1208
▁जपाना	-10.1215
▁सगळ्यांक	-10.1229
▁संमेलन	-10.1229
▁मेळिल्ल	-10.1248
▁लसीकरण	-10.1252
▁साळू	-10.1256
▁वेव	-10.1262
▁कार्डा	-10.1262
▁बसी	-10.1274
▁सांगली	-10.1277
िव्ह	-10.1279
▁आसप	-10.128
▁तिणें	-10.1284
र्जी	-10.1295
लाल	-10.1301
▁तातू	-10.1301
▁लु	-10.1304
वलळी	-10.1311
▁पिराये	-10.1318
दीप	-10.1319
▁घार	-10.1322
▁काळजांत	-10.1325
▁हॉस्पिटला	-10.1328
▁दोळ्यां	-10.1331
▁तळें	-10.1343
ेबल	-10.1361
▁उलोवन	-10.1363
▁ग्र	-10.1382
▁पर्यटकां	-10.1385
▁सत्रां	-10.1386
▁पंगडाक	-10.1391
▁तीस	-10.1393
▁काप	-10.1406
▁महाविद्यालय	-10.141
▁मेकळी	-10.1411
बाव	-10.1421
जीव	-10.1423
ूळ	-10.1436
▁आणि	-10.1436
▁पोल	-10.1445
्यात्तर	-10.1446
▁धड	-10.1447
▁दासभटा	-10.1453
▁इतल्या	-10.1474
▁पाकिस्तानाचे	-10.1481
▁चर	-10.1486
४	-10.149
सकयल	-10.1493
्यू	-10.1495
▁सांज	-10.1495
▁जावडेक	-10.1497
झया	-10.1506
▁सुत्रा	-10.1508
▁येवपाच	-10.1517
▁मोह	-10.1518
▁मंद	-10.1519
▁पदाच	-10.1521
▁ङ्केरये	-10.1528
▁ब्रिट	-10.1529
▁कोट	-10.1541
▁पैस	-10.1549
▁कोलकाता	-10.155
▁चवथ	-10.155
काम	-10.1551
▁पायां	-10.1555
▁केंद्राचे	-10.1571
ुषमा	-10.1575
▁चडशे	-10.158
▁बोल	-10.1583
हम्मद	-10.1585
▁गुदिन्	-10.1586
▁ग्रामपंचायत	-10.1586
▁प्रक्षेपण	-10.1586
▁प्रोत्साह	-10.1586
▁मंगळार	-10.1586
▁मध्यप्रदेश	-10.1586
▁मिरामार	-10.1586
▁शिङ्कारस	-10.1586
▁संकेतस्थळ	-10.1586
f	-10.1586
▁संख्येन	-10.1586
▁हॉटेल	-10.1586
▁बशिल्लो	-10.1586
▁गिन्यान	-10.1586
▁सकारात्मक	-10.1586
▁किर्तन	-10.1586
▁पाळटात	-10.1586
▁ळक्म	-10.1586
▁गुलाब	-10.1586
▁ङ्कलंदाज	-10.1587
▁पयशे	-10.1587
▁कोहली	-10.1587
▁म्हण्टकच	-10.1587
▁पिडीत	-10.1587
▁बसयलो	-10.1587
▁कोनशा	-10.1589
ांतोडे	-10.1589
▁16	-10.1589
▁सामकी	-10.159
▁कामगिरी	-10.1592
▁व्हडले	-10.1594
▁शेवट	-10.1595
▁व्हिडी	-10.1596
▁भाऊ	-10.1596
करण	-10.1598
▁काडूंक	-10.16
▁संवसारभर	-10.16
▁मांडवी	-10.1602
▁खंर	-10.1603
▁सोरो	-10.1603
▁बोरकार	-10.1607
▁उद्देश	-10.1609
▁एम्स	-10.1611
▁दाव्या	-10.1611
▁खेरी	-10.1616
▁कथेच्या	-10.1616
▁मेकळे	-10.1618
▁सांजवेळा	-10.1619
▁लां	-10.1622
▁रुपयां	-10.1626
▁हुतात्म्यां	-10.1626
▁हाणे	-10.1628
▁मोगा	-10.1628
▁काडप	-10.1629
▁सांत	-10.1638
▁ताजेकडेन	-10.1645
ंजली	-10.1647
▁भूत	-10.1648
▁भंय	-10.1649
▁यात्र	-10.1649
▁धोरणां	-10.1659
▁नॉ	-10.1664
▁दोगां	-10.1664
▁तशे	-10.1666
▁वचचे	-10.1667
▁कथांनी	-10.1673
▁अदमासपत्रक	-10.1674
▁उठलो	-10.1676
▁मेत	-10.1678
ड्डी	-10.1682
▁हातो	-10.1684
▁व्हाय	-10.1687
▁धल्ल	-10.1691
▁गेला	-10.1693
▁मानांक	-10.1693
▁तिसरो	-10.1693
▁अनंत	-10.1698
▁खाशेले	-10.1705
▁भारतांतल्या	-10.1724
▁बय	-10.1726
▁मल	-10.1727
▁आपट	-10.1731
ल्ल्मा	-10.1738
▁लागल्यात	-10.1738
ऱो	-10.1745
▁करंड	-10.1745
▁4	-10.1752
▁आपणा	-10.1754
डया	-10.1756
▁ट्विटरा	-10.1757
वैल	-10.1772
▁रस्ते	-10.1783
▁गोंमा	-10.1788
धानमं	-10.1795
▁कर्मचाऱ्यांक	-10.1795
▁कीर	-10.1796
▁मेळपा	-10.1799
▁लागिल्ल	-10.18
सभेंत	-10.1824
वीर	-10.1825
▁घाले	-10.1829
▁मालक	-10.1831
▁शेट	-10.1835
▁असल	-10.1836
▁कारणां	-10.1856
▁राज्यांक	-10.1863
▁आपणाव	-10.1865
▁पिराय	-10.1865
▁मेळूक	-10.1868
▁संस्कृत	-10.1869
▁उमेद	-10.1869
▁कार्यालयांत	-10.1872
▁नेमान	-10.1874
▁एच	-10.1876
▁पैली	-10.1883
▁अधिकाऱ्या	-10.1884
धकार	-10.1892
▁तुट	-10.1892
▁सेंट	-10.1902
▁बाबुल	-10.1912
▁जोर	-10.1913
▁इमारत	-10.1918
▁जिल्ह्यांत	-10.192
▁प्रकल्पांचे	-10.1925
ूज	-10.1927
▁परवड	-10.1932
▁काळे	-10.1932
▁काडपाक	-10.1933
▁जांवक	-10.194
▁उद्देजक	-10.1945
▁धे	-10.1947
▁विधानसभेचे	-10.1949
▁येवं	-10.195
▁श्रीलंक	-10.1951
▁दिसाच्या	-10.1978
ामण	-10.1982
▁पडटात	-10.1983
वशी	-10.1993
▁हाताक	-10.1995
ेरात	-10.1995
शभ	-10.1997
▁पयलीच	-10.2001
▁चिना	-10.2005
▁झुजतल	-10.2012
▁घाली	-10.2013
▁दादल्या	-10.2017
▁आपल्य	-10.202
▁आरे	-10.202
ायेन	-10.2028
▁थळा	-10.2037
▁महत्वाच	-10.2042
▁घेतल्यात	-10.2043
▁ङ्केर	-10.2047
▁मेळाव	-10.2071
▁व्य	-10.2077
ांतल्यो	-10.2082
▁गेल्या	-10.2084
देग	-10.2089
▁झु	-10.2092
▁पोरस	-10.2103
ळटा	-10.211
▁ऩम	-10.2144
▁चॅनला	-10.2147
'	-10.216
भितर	-10.2163
पीए	-10.2163
▁घटकां	-10.2167
▁विभागा	-10.2181
▁याचिके	-10.2192
िन्स	-10.2198
▁चलो	-10.2199
डीए	-10.22
▁उपा	-10.2207
▁हाडल्या	-10.222
घात	-10.223
▁दिसताले	-10.2242
▁अर्थवेवस्थ	-10.2247
न्नास	-10.2248
▁खंडपिठा	-10.2249
भेयेन	-10.225
x	-10.2253
ङ्र्क	-10.2253
▁इंडोनेशिया	-10.2253
▁कमांडर	-10.2253
▁ऩत्रकाय	-10.2253
▁ऩरयळदे	-10.2253
▁प्रदुशण	-10.2253
▁प्रसिध्द	-10.2253
▁फ्रांसिस्का	-10.2253
▁राजदूत	-10.2253
▁उपस्थित	-10.2253
▁प्रदुषण	-10.2253
▁नेमणुक	-10.2253
▁अंतरिक्ष	-10.2253
▁उपगिर	-10.2253
▁गिरेस्त	-10.2253
▁ङ्क्रान्स	-10.2253
▁धावड्यो	-10.2253
▁यमराज	-10.2253
▁विद्यार्थ्यां	-10.2253
▁अधिक्षक	-10.2253
▁मेळ्ळो	-10.2253
▁राजीनाम	-10.2253
▁संचालनालया	-10.2253
▁प्रभाग	-10.2253
▁ङ्क्रांस	-10.2253
▁स्थापणूक	-10.2253
ादाबाद	-10.2253
▁उणाव	-10.2253
▁माधव	-10.2253
▁पोर्टल	-10.2253
▁दखल	-10.2254
▁काांम	-10.2254
▁म्हापशें	-10.2254
▁सारकें	-10.2255
▁जापसालदारकी	-10.2255
▁एनडीए	-10.2255
▁15	-10.2255
▁मास्क	-10.2256
▁पोखर	-10.2256
▁सदस्य	-10.2256
▁कपला	-10.2256
▁बांदोड	-10.2256
▁उडोव	-10.2256
▁जाल्ल्मा	-10.2257
▁डिसो	-10.2258
▁प्लास्टीक	-10.2259
▁गोलंदाज	-10.2259
▁काळोख	-10.226
▁भुखेरभॊत्र	-10.2261
▁आतामेरेन	-10.2262
▁बाराबर	-10.2262
▁स्टेशना	-10.2262
▁सुधारणा	-10.2264
▁व्यंक	-10.2264
▁करिना	-10.2264
▁गोगो	-10.2265
▁ङ्कूडार	-10.2265
▁ददल्मा	-10.2266
▁श्रीनगर	-10.2267
▁तितली	-10.2267
▁एकाच	-10.2268
▁रोकांक	-10.2273
▁अधि	-10.2273
▁थाम	-10.2278
▁निवाड	-10.228
▁दवरतले	-10.2291
▁दुयेंस	-10.2296
▁हावे	-10.2297
▁गटां	-10.2303
▁आंगवण	-10.2306
▁कऱ	-10.231
▁उठून	-10.2314
▁पटना	-10.232
▁उलयलो	-10.2322
▁वेग	-10.2324
▁पांचवे	-10.2329
▁बरय	-10.2331
▁खेळटा	-10.2332
▁विडी	-10.2335
▁तेका	-10.234
▁प्रकरणां	-10.2347
▁असे	-10.2357
▁सादलो	-10.2358
▁तेवटेन	-10.2359
▁सोडलो	-10.2364
ावती	-10.2366
▁त्मा	-10.2367
▁तांतूत	-10.2367
▁राज्यानी	-10.2372
▁शीला	-10.2374
▁कश्ट	-10.2398
▁सगल्य	-10.2398
पयली	-10.2403
▁बिज	-10.2407
ॉर्ड	-10.2413
▁भंग	-10.2415
▁वोगी	-10.2418
▁तये	-10.2419
▁निमणो	-10.2423
▁बोटी	-10.2433
▁पंगडां	-10.2435
▁हांगासरल्या	-10.2435
▁अवि	-10.2436
▁म्हयन्याच्या	-10.2453
▁सुच	-10.2456
▁नानक	-10.246
▁षटका	-10.2469
▁पर्यटक	-10.2472
▁मेलजणे	-10.2475
▁न्यायालयाचे	-10.248
▁घाट	-10.2482
▁शक्ती	-10.2482
▁आशा	-10.2485
▁साज	-10.2485
▁भाष	-10.2488
तुक	-10.249
▁अंद	-10.2491
▁शळ	-10.2495
▁वर्सांत	-10.25
▁शाल	-10.25
▁नौदळा	-10.2502
▁शाां	-10.2504
▁अमी	-10.2512
▁हांसता	-10.2515
▁पोरां	-10.2518
गिरी	-10.2541
▁गुंतवणुकी	-10.2542
▁अधिकाऱ्यान	-10.2543
वरण	-10.2551
▁प्रदेशांतल्या	-10.2568
▁गटाच	-10.2576
▁मुखेलपणा	-10.2588
▁गटात	-10.259
ंडी	-10.2591
ॠया	-10.2595
▁दर्ज	-10.2598
▁अट	-10.2604
ाॊत	-10.2606
▁स्ल	-10.261
नाग	-10.261
▁ननत	-10.2611
▁पयल्याच	-10.262
▁मोर	-10.2628
▁आंब	-10.2637
गाव	-10.2641
विस्त	-10.2663
▁वेगवेग	-10.2668
▁वखद	-10.2673
▁जिक	-10.2674
▁वेंचणुक	-10.2678
▁पट्टा	-10.268
▁घडणुके	-10.2684
खया	-10.2686
▁नवें	-10.271
▁चॅनल	-10.2718
▁उरता	-10.272
▁तेरा	-10.2722
▁तांतू	-10.2745
▁कबलात	-10.2745
▁डाव	-10.2778
▁बायलांची	-10.278
▁आवात	-10.2783
▁टि	-10.2784
▁घटना	-10.2787
▁कोसळ	-10.2801
▁सारखे	-10.2812
▁रोम	-10.2829
▁सरकाराचो	-10.2834
▁रेल	-10.2834
सेना	-10.2834
▁आंख	-10.2851
ेप्रमाण	-10.2853
संघट	-10.2856
▁घेलऩा	-10.2857
▁कथांच	-10.2862
ालयान	-10.2863
▁परबे	-10.2865
सारखे	-10.2872
▁चलप	-10.288
▁जातालो	-10.2889
▁ल्हार	-10.2896
▁दाखयता	-10.2899
▁उब	-10.2903
पुण	-10.2908
▁व्याख्या	-10.292
▁म्हाविद्यालया	-10.2922
▁ठाक	-10.2929
▁तेखातीर	-10.293
▁व्या	-10.2931
ेदार	-10.2933
▁निश	-10.2939
ामेरेन	-10.2942
चणूक	-10.295
▁रोख	-10.2955
लेऱा	-10.2956
▁धोल	-10.2963
यु्नत	-10.2965
h	-10.2966
▁इंडियन	-10.2966
u	-10.2967
S	-10.2967
▁भौमान	-10.2967
▁अरेबिया	-10.2967
▁अर्थसंकल्प	-10.2967
▁आकर्श	-10.2967
▁आळाबंद	-10.2967
▁उटंगाराच	-10.2967
▁खिणभर	-10.2967
▁छत्तीसगढ	-10.2967
▁नवकल्पना	-10.2967
▁बायोपिका	-10.2967
▁मामलेदार	-10.2967
▁लॉकडावन	-10.2967
▁संघटणेचे	-10.2967
▁संघटणेन	-10.2967
▁सुनावणे	-10.2967
E	-10.2967
▁देखरेख	-10.2967
▁रायडर्स	-10.2967
▁शिबिरा	-10.2967
▁सरन्यायाध	-10.2967
▁इस्पितळा	-10.2967
▁विस्कळ	-10.2967
▁अखिल	-10.2967
▁आदित्य	-10.2967
▁मिडीया	-10.2967
▁खंडपीठा	-10.2967
▁गाडये	-10.2967
▁दुयेसा	-10.2967
▁गरिब	-10.2967
▁हााँ	-10.2967
▁पडटलो	-10.2967
▁सिगार	-10.2967
▁बाकीच्या	-10.2967
▁प्रवीण	-10.2968
▁परिक्षे	-10.2968
▁खुप	-10.2968
▁सनराय	-10.2968
▁ओंठ	-10.2968
▁इंधन	-10.2968
▁इंडियन्सा	-10.2968
▁वरिष्	-10.2968
▁पांवडो	-10.2968
गयी	-10.2968
▁सांपड	-10.2968
▁दिव्यांग	-10.2969
▁महासंचालक	-10.2969
▁लेचणूक	-10.2969
▁बंधन	-10.2969
▁तिडक	-10.2969
▁प्ल	-10.297
▁अमृत	-10.297
▁गार्ड	-10.297
▁न्युज	-10.2971
▁मानधन	-10.2972
▁पोलीस	-10.2973
▁वाडोवप	-10.2974
▁स्वयं	-10.2975
▁दाखोवप	-10.2976
▁फवक	-10.2977
▁जुलय	-10.2977
▁ङ्कोट	-10.2978
▁गोंयबाब	-10.298
▁प्रमाणपत्र	-10.2981
▁ङ्कायद	-10.2983
▁गाळी	-10.2984
▁तुस्त	-10.2985
▁मुक्त	-10.2987
▁प्रधानभंत्रमां	-10.2987
▁गुळी	-10.2988
▁मधू	-10.2988
▁उऩया	-10.2992
▁मानतात	-10.2993
▁उसरा	-10.2995
▁नजरे	-10.2997
▁अपक्ष	-10.2997
▁वेंग	-10.2997
▁भावने	-10.3002
▁लीज	-10.3004
▁घडटा	-10.3007
▁भरती	-10.3008
▁सपनां	-10.3009
▁दूद	-10.3009
▁न्हीद	-10.3009
▁मंत्र्यां	-10.3011
▁कळाव	-10.302
▁सहज	-10.302
▁मात्शे	-10.3021
▁म्हजेकडेन	-10.3024
▁म्हणूक	-10.3031
▁याचिकेचे	-10.3033
▁सुद्धा	-10.3043
▁व्यवस्थाप	-10.3044
ुरप्	-10.3046
▁रावंक	-10.3047
▁सदळ	-10.3049
▁पक्षाक	-10.3051
▁केळे	-10.3052
▁घेवचे	-10.3052
▁कर्नाटकांतल्या	-10.3055
▁टु	-10.3063
▁तरेचे	-10.3065
▁इनासान	-10.3066
▁भाशेचो	-10.307
ज्ज	-10.3074
▁४	-10.3079
▁दाट	-10.308
▁शॉ	-10.308
▁विभागांत	-10.3082
▁पक्षांनी	-10.3083
▁विमानतळार	-10.3085
▁पांवड्यावेल्य	-10.3086
▁समाजांतल्य	-10.3086
▁किलो	-10.3088
▁घेलऩ	-10.3089
▁साह	-10.3092
▁रानां	-10.3099
▁३	-10.31
चार्य	-10.3101
▁चल्ल्यात	-10.3104
्याण्णव	-10.3113
▁गाज	-10.3117
रूप	-10.312
▁हल्ले	-10.3121
▁व्य्नती	-10.3125
रोग	-10.3135
▁हाली	-10.3138
▁काण्णां	-10.3145
▁दांत	-10.3145
▁जोडल्या	-10.3148
▁रुपान	-10.3149
▁पावपा	-10.3151
▁शिम	-10.3154
▁जगती	-10.3158
▁आसूंक	-10.3168
▁इतल्यान	-10.3172
▁महाविद्यालया	-10.3173
▁प्रण	-10.3174
म्स	-10.3175
▁वयकाय	-10.3179
▁शू	-10.3188
▁हळ	-10.3191
बॉल	-10.3203
▁धुव	-10.3208
वाट	-10.3209
▁गळ	-10.322
▁थारलां	-10.322
▁उरिल्ले	-10.3223
▁मुखेलमंत्र्या	-10.3231
▁पुस्तका	-10.3232
▁तड	-10.3235
▁राज्याच्या	-10.3242
▁उजा	-10.3257
▁हाडले	-10.3264
▁रोप	-10.3276
▁आसूं	-10.3279
▁बसता	-10.3288
▁ननर	-10.329
▁हम	-10.3293
▁पुना	-10.3297
हवाल	-10.3299
▁उलैता	-10.3306
▁लावपा	-10.3309
▁जाणांक	-10.3312
▁दोळ्यांत	-10.3315
▁घाल्या	-10.3316
▁चारशे	-10.3321
▁केन्नाय	-10.3323
▁मोहिम	-10.3328
▁प्रशा	-10.3328
▁खून	-10.3333
ण्ड	-10.334
▁आश	-10.3341
▁मुर	-10.335
▁तीनशे	-10.3356
▁दुस	-10.3361
▁आयोगाचे	-10.3367
▁ल्हव	-10.337
▁लोब	-10.3372
▁अमेरीक	-10.3394
▁पिळग	-10.3403
▁पोश	-10.3411
▁माळे	-10.3417
▁दीप	-10.3423
▁हैद्राबाद	-10.3452
▁पद्दत	-10.3463
ंदु	-10.3473
▁म्हयन्यात	-10.3474
वासा	-10.3475
▁वतात	-10.3476
सिंग	-10.3477
िचर	-10.3477
▁लड	-10.3478
▁उल्ली	-10.3487
▁संबंधि	-10.3492
▁दोगा	-10.3493
ाचल	-10.35
▁अभ्यासक्रम	-10.3501
▁पीए	-10.3508
▁पुता	-10.352
संचालन	-10.3528
▁आयतार	-10.353
▁दर्यांत	-10.3543
▁दुम	-10.3545
▁शक्त	-10.3549
▁वाडल्या	-10.3572
▁सोल	-10.3582
▁तरीय	-10.3588
▁संज	-10.3604
▁उदरगतीचे	-10.3612
▁लेऱा	-10.3619
▁अदमासपत्रका	-10.3628
▁कलाकारां	-10.3628
▁मिस	-10.3629
▁यंत्रा	-10.3636
▁रुपयांच	-10.3646
▁भंत्रारमा	-10.3665
▁माण	-10.3671
▁मनात	-10.3673
▁मात्श	-10.3681
तायेन	-10.3689
▁आमका	-10.3692
▁एन्	-10.3696
▁एखाद	-10.3698
▁नात्या	-10.3699
▁घाला	-10.3703
▁कुशी	-10.3704
सारखी	-10.3718
▁भांगर	-10.3718
्रम	-10.372
▁गुन्यांव	-10.3724
▁उटंगरां	-10.3732
b	-10.3736
y	-10.3736
र्पोरेट	-10.3736
▁आंदोलन	-10.3736
▁आभदाय	-10.3736
▁कवळेंकार	-10.3736
▁देशवासियां	-10.3736
▁मेयादायी	-10.3736
▁वाजपेयी	-10.3736
▁शौचालय	-10.3736
▁स्थगित	-10.3736
▁स्थगीत	-10.3736
▁अङ्कगाणिस्तान	-10.3736
▁जॉर्ज	-10.3736
▁प्रकल्ऩ	-10.3736
▁मालदिव	-10.3736
▁विषाणू	-10.3736
▁सरचिटणीस	-10.3736
c	-10.3736
▁मुजरत	-10.3736
▁नियामक	-10.3736
▁पढाव	-10.3736
▁प्रशासकी	-10.3736
▁थायलंड	-10.3736
▁उत्पादक	-10.3736
▁वेगळ्या	-10.3736
▁सन्मान	-10.3736
▁बुद्धी	-10.3736
▁इबाड	-10.3736
▁तरतुद	-10.3736
▁निशेध	-10.3737
▁बॅटरी	-10.3737
▁उ्नत्य	-10.3737
▁क्रमांक	-10.3737
▁कदेला	-10.3737
▁ऩुयाम	-10.3737
▁थोडे	-10.3737
▁प्राप्त	-10.3737
▁जैश	-10.3737
▁अरुणाचल	-10.3737
▁पियु	-10.3737
▁कथेक	-10.3737
▁भिरांत	-10.3738
▁निश्चि	-10.3738
▁हाजो	-10.3738
▁गुरु	-10.3738
▁ददल्री	-10.3738
ra	-10.3738
▁शजाय	-10.3738
▁बशिल्ले	-10.3739
▁इतलें	-10.3739
▁तरतू	-10.3739
▁नोटीस	-10.374
▁युरोपीय	-10.374
▁गुप्त	-10.374
▁विसर्ज	-10.3741
▁ट्रस्ट	-10.3741
▁गयज	-10.3742
▁केरळांत	-10.3743
▁नासली	-10.3744
▁आपतका	-10.3744
▁जातरो	-10.3744
▁सायबा	-10.3745
▁आयपीए	-10.3745
▁आतंक	-10.3745
▁जालऩाच	-10.3747
▁ऐ	-10.3748
▁आवै	-10.3749
▁दिस्ता	-10.375
▁सत्त्आधा	-10.375
▁लोकार्प	-10.375
▁घेतल्यो	-10.3751
▁चौदा	-10.3752
▁मुख्यालय	-10.3753
▁विशयावेल	-10.3754
▁पांचव्या	-10.3754
▁आंद्र	-10.3755
▁देगे	-10.3755
▁दितली	-10.3755
▁आसतल्यो	-10.3756
त्कार	-10.3758
▁तितलो	-10.3759
▁कुशळताय	-10.376
▁धीर	-10.3761
▁कबलातीचेर	-10.3764
▁कुंभ	-10.3765
▁नेमावळ	-10.3766
▁थारतले	-10.3767
▁ददवा	-10.3769
▁भूम	-10.377
▁तयारेचो	-10.3772
▁एखाद्या	-10.3775
▁दया	-10.3775
▁उपास	-10.3777
▁बारीक	-10.3778
▁एकुण	-10.3779
▁दिके	-10.3782
▁चवथ्या	-10.3784
▁आग्रो	-10.3787
▁हइ	-10.3787
ऱ्यान	-10.3788
▁सगळ्य	-10.3794
▁अध्म	-10.3794
▁सायना	-10.3795
▁शें	-10.38
▁तत्वगिन्यान	-10.3801
▁भेस	-10.3802
▁खासदारांनी	-10.3808
▁यश	-10.3809
▁मेळूं	-10.381
ेडिय	-10.3811
▁व्याप	-10.3812
ाफाय	-10.3815
▁उत्तरप्रदेश	-10.3816
▁उप्राशिल्ल	-10.3817
पणाचे	-10.3821
▁समजून	-10.3833
▁पणस	-10.3843
▁पडल्यात	-10.3844
▁आट	-10.3845
▁वयलो	-10.3849
▁रुप्या	-10.3855
▁लागिल्लो	-10.3855
▁अन्	-10.3856
▁जल	-10.3857
▁पेज	-10.3858
▁भटान	-10.3863
▁प्रदर्शना	-10.3863
खले	-10.3864
▁नामन	-10.3864
▁एफ	-10.3869
▁रंजना	-10.387
▁पथ	-10.3874
▁दीन	-10.3876
▁201	-10.3877
▁८	-10.3881
▁पेडणें	-10.3883
▁परां	-10.3891
▁एकामेका	-10.3894
▁रांची	-10.3894
▁२	-10.3903
▁गेल्लें	-10.3908
▁शाळेंत	-10.3908
▁वतालो	-10.3913
▁उतरांनी	-10.3916
▁व्हरता	-10.3917
जूक	-10.3919
▁लख	-10.3925
▁दाखयत	-10.3927
▁म्शऱ	-10.3935
▁ङ्कट	-10.3942
▁येद	-10.3942
व्य	-10.3945
▁पळोवपाच	-10.3949
एमसी	-10.3952
▁गुणव	-10.3954
▁सांव	-10.3958
▁झुजार	-10.3963
▁मारीत	-10.3981
▁कथेच	-10.3984
▁जवानांक	-10.3986
▁बोब	-10.3992
▁सत्तर	-10.3995
▁व्हडली	-10.3995
▁म्हत्वाचें	-10.4006
▁खुब	-10.4011
▁ङ्केरी	-10.4025
▁चल्या	-10.4028
▁हैद्राबादा	-10.4029
▁रामनाथान	-10.4029
हास	-10.4032
▁टद	-10.4042
▁सूट	-10.4051
▁आसची	-10.4053
▁म्हयन्यां	-10.4054
▁मल्ल्या	-10.4057
▁घेल	-10.4057
▁जगा	-10.4067
वर्तन	-10.4072
▁आयिल्लें	-10.4074
▁मेळना	-10.4098
▁सांखळे	-10.41
▁सत्ते	-10.4102
▁अशो	-10.4106
▁खंयचो	-10.4123
▁दिसांचो	-10.4152
▁आका	-10.4156
▁कडक	-10.4159
▁लसीकरणा	-10.4167
▁सोम	-10.4168
▁शांतीकाय	-10.4183
▁भाग्यान	-10.4186
▁वांटप	-10.4188
यावेळार	-10.4193
▁बाये	-10.42
▁काळो	-10.4201
▁जायत्य	-10.4203
वसुली	-10.4214
▁ङ्कळ	-10.4227
▁घाम	-10.4229
▁पुस	-10.423
▁दिल्लें	-10.4235
▁उल्ले	-10.4235
▁रुख	-10.4247
▁मारपा	-10.4249
▁पदकां	-10.4261
ूख	-10.4265
▁चलोवप	-10.4271
▁एप	-10.4271
▁अपेक्षा	-10.4275
▁सुवा	-10.428
ोग्य	-10.4285
▁जित	-10.429
▁सादपा	-10.4298
▁फाम	-10.4306
▁वाडटा	-10.4309
▁विद्या	-10.431
▁करताली	-10.4315
▁पिशे	-10.4319
▁भश	-10.432
▁करू	-10.4321
▁थारावपा	-10.4321
▁सोदू	-10.433
▁कानांत	-10.4337
▁नट	-10.4343
▁मर्याद	-10.4347
▁गांवच्या	-10.4365
▁नये	-10.4382
वाणी	-10.4384
▁अळ	-10.4393
कांम	-10.4396
▁समितीचे	-10.4413
▁सांवळया	-10.4422
▁तिर	-10.4441
▁रावचे	-10.4442
▁ॠ	-10.4443
▁उत्पादनां	-10.4444
ॅन्स	-10.4445
▁कित्या	-10.4458
्आ	-10.4461
▁आयस	-10.4461
▁राश्ट्री	-10.4467
मुख	-10.4469
▁व्हांव	-10.447
देसाय	-10.4472
पूर्ण	-10.4475
गवेत	-10.448
िटल	-10.4484
▁वचपाचे	-10.4499
▁जिल्ह	-10.4504
कुळ	-10.4506
▁हाडटल	-10.4509
▁सेमीङ्कायनल	-10.4515
▁बंग	-10.4524
▁त्रिप	-10.4531
स्त्र	-10.4536
▁बंगालांत	-10.4541
दुर्ग	-10.4541
▁सदाच	-10.455
▁इस्	-10.4564
▁हॉस्पीटल	-10.4565
▁भेटयल	-10.4566
फुड	-10.4567
▁198	-10.4568
▁आत्मनिर्भर	-10.457
▁ए्नसप्रेस	-10.457
▁जानेवारी	-10.457
▁प्रात्यक्षिक	-10.457
▁मंत्रिमंडळ	-10.457
▁शाश्वत	-10.457
▁अंकुश	-10.457
▁आंध्रप्रदेश	-10.457
▁इफ्ङ्की	-10.457
▁कार्यकर्त	-10.457
▁चॉकलेट	-10.457
▁जबाबदार	-10.457
▁दनपरां	-10.457
▁धो्नया	-10.457
▁नगरपालिके	-10.457
▁पंधरा	-10.457
▁पेन्शन	-10.457
▁भ्रष्टाचार	-10.457
▁मुलाखती	-10.457
▁वेगळ्यावेगळ्या	-10.457
▁शिश्टमंडळा	-10.457
▁साइत्य	-10.457
▁सीबीआय	-10.457
▁पवित्र	-10.457
▁फ्रांस	-10.457
▁भागादळा	-10.457
▁लावधारकां	-10.457
▁मलेशिया	-10.457
▁रोखडोच	-10.457
A	-10.457
▁शुल्क	-10.457
▁आझाद	-10.457
▁बोल्सांत	-10.457
▁खोशये	-10.457
▁लडाख	-10.457
▁वलयोध	-10.457
▁हस्तांतर	-10.457
▁अल्प	-10.457
▁पार्टी	-10.457
▁धंदो	-10.457
▁नशीब	-10.457
च्छ	-10.457
▁चंवर	-10.457
▁थोडी	-10.457
▁दामून	-10.457
▁मीनाबाय	-10.457
▁ळेती	-10.457
▁शंभर	-10.457
ट्युब	-10.457
▁१४	-10.457
▁गुप्तहे	-10.457
▁२०	-10.4571
▁आपापल	-10.4571
ेश्वर	-10.4571
▁उपकरणा	-10.4571
▁ङ्कुलां	-10.4571
▁१०	-10.4571
▁तिजो	-10.4571
▁मनयतले	-10.4571
▁प्रताप	-10.4571
▁१५	-10.4571
▁गर्ग	-10.4571
▁जात्रे	-10.4571
▁सदानंद	-10.4571
▁माथ्यार	-10.4572
▁शक्य	-10.4572
▁शेतकामत	-10.4572
▁प्रचारसभा	-10.4572
▁पर्याय	-10.4572
▁कायताना	-10.4573
▁मनयलो	-10.4573
▁विद्यालया	-10.4573
▁घडोल	-10.4573
▁अभिमान	-10.4573
योजना	-10.4574
▁थारायले	-10.4574
▁दवल्ली	-10.4575
▁निशाण	-10.4575
▁अंदाज	-10.4575
▁झूज	-10.4575
▁तागेल	-10.4576
▁हळूच	-10.4576
▁महाराष्ट्रात	-10.4576
▁नेपाल	-10.4576
▁ताब्यांत	-10.4577
▁पांड	-10.4577
▁रेड्डी	-10.4577
▁मळांचेर	-10.4577
▁पोलिस	-10.4578
▁ऩालरा	-10.458
▁एडम	-10.458
▁थारतली	-10.458
▁खाण	-10.4581
▁गज	-10.4584
▁घटने	-10.4584
▁हाडिल्ल्या	-10.4587
▁फोंड	-10.4587
▁आपणांक	-10.4587
▁नोट	-10.4588
▁वाहनां	-10.4589
▁प्रतिभा	-10.4589
▁काडल्यो	-10.4589
▁भिये	-10.4589
▁रोजा	-10.459
▁पद्म	-10.459
▁रडूंक	-10.4591
▁नियम	-10.4593
▁म्हणजे	-10.4595
▁खोशी	-10.4595
▁पावण्या	-10.4596
▁मतदारसंघांत	-10.4598
▁पदर	-10.4598
▁मत्न	-10.4599
▁सुनीत	-10.46
▁नित्य	-10.4601
▁महोत्सवाचे	-10.4601
▁सवंग	-10.4606
▁संयम	-10.4607
▁जमावा	-10.4609
▁हरशी	-10.4612
पेट	-10.4614
▁पाकळ	-10.4623
घट	-10.4623
क्रिया	-10.4627
▁वचना	-10.4631
▁एकदा	-10.4631
▁काशी	-10.4634
▁विमानतळा	-10.4636
▁आराखडो	-10.4638
▁आयकु	-10.4644
▁कामगारांक	-10.4647
▁जाताली	-10.4651
▁काश्मिरात	-10.4652
▁चूक	-10.4655
खारा	-10.4661
▁चौथ	-10.4661
▁बुधवारा	-10.4664
▁लेग	-10.4667
▁केळयांचो	-10.4669
डिए	-10.467
▁व्यवस्थे	-10.467
▁भुरग्यांनी	-10.4671
▁नुस्तें	-10.4672
ङ्काय	-10.4672
▁बायो	-10.4676
▁सामकें	-10.4679
▁येतक	-10.4681
ॊफ	-10.4682
▁रिज	-10.4687
▁शाळां	-10.4702
▁सगलो	-10.4704
▁अंतरले	-10.4705
▁किळ	-10.4706
▁वितर	-10.4709
▁मुखेलपण	-10.4709
▁बसले	-10.471
▁सुत्रां	-10.4713
▁लावकार	-10.4714
▁ताॊ	-10.4714
▁उक्ती	-10.4725
▁उद्	-10.4727
▁बास	-10.4734
▁आठव	-10.475
▁रक्षामंत्र	-10.4762
▁पें	-10.4763
▁करुण	-10.4766
▁सगल्यांक	-10.4767
कोळ	-10.477
▁दाब	-10.4771
▁मुला	-10.4772
▁पडिल्ले	-10.4773
▁आर्म	-10.4776
▁मनोवपा	-10.4776
▁शाले	-10.4783
▁परतें	-10.4786
▁सेना	-10.4808
पुर्ण	-10.4811
▁प्रधानंत्र्यां	-10.4812
एए	-10.4813
▁मतदारसंघ	-10.4824
▁मतदारांक	-10.4834
ांजे	-10.4839
▁मोहन	-10.4842
शेद	-10.4847
▁हाडला	-10.4849
▁मिनटां	-10.485
▁कंपन्या	-10.4855
▁बिग	-10.4855
▁परतु	-10.4856
▁हुब	-10.4857
▁ङ्काटभू	-10.4862
▁ओली	-10.4867
▁म्हऱ	-10.4872
ियम	-10.4874
▁बू	-10.4878
▁अचक	-10.4882
▁कार्	-10.489
▁सोदपा	-10.4896
▁प्रती	-10.4901
▁एकमेकां	-10.4905
▁चित्रा	-10.4906
▁मुग	-10.4906
▁शिकयल	-10.4911
▁आयल्यार	-10.4914
▁झाड	-10.4917
प्पन	-10.4917
▁माने	-10.4919
▁वाडिल्ल्या	-10.492
ांतल्मा	-10.4928
▁बापायन	-10.4928
▁संग्रहांत	-10.4932
▁संसदेचे	-10.4937
▁लागिल्ल्या	-10.4942
सारको	-10.4943
▁पैल्या	-10.4945
▁राखणे	-10.4957
▁घडोवपा	-10.4958
▁चिट	-10.4959
▁तुळ	-10.4964
ळ्ळे	-10.4998
▁लागतात	-10.5005
ाष्ट्री	-10.5014
▁मेळ्या	-10.5016
▁केंद्राचेर	-10.5017
▁शेकड	-10.5025
▁चलतल्य	-10.5028
▁छाप	-10.503
▁घेवपाचो	-10.5037
▁रावप	-10.5037
▁तांबडे	-10.5037
▁मनशाचे	-10.5037
रंगी	-10.504
धारण	-10.508
▁हक्क	-10.5087
▁फेण	-10.5094
▁दूरदर्शन	-10.5108
▁दिल्लींतल्या	-10.5111
▁सर्गा	-10.5112
▁प्रधानंत्र्यान	-10.512
जया	-10.5138
▁ननम	-10.5142
▁मग	-10.516
▁दर्यादेग	-10.5166
▁दिवाळ	-10.5167
▁हांसत	-10.5169
▁संदर्भ	-10.5175
▁झारखंडात	-10.5179
▁हुप	-10.518
▁विभागान	-10.5184
वेद	-10.5185
▁थारायल्ल	-10.5191
मेळ	-10.5196
▁भुर	-10.5199
▁दंड	-10.5204
िसान	-10.5208
▁कोश	-10.5208
▁खाशेल्य	-10.522
▁दिसलें	-10.5232
▁हारोव	-10.5238
▁आदि	-10.5258
▁मातये	-10.5263
▁ताप	-10.5273
▁चाव	-10.5282
ण्णव	-10.5294
▁उत्तराखंडात	-10.5299
▁प्रदर्श	-10.5301
▁काडिल्ल	-10.5314
▁महासंघा	-10.5315
र्गा	-10.532
▁नियोज	-10.5327
▁कितल्या	-10.5344
▁नाशिल्ले	-10.535
▁नुस्ते	-10.5367
▁िय	-10.5375
संचालक	-10.5382
सुद्धा	-10.5383
ग्राम	-10.5385
विरोध	-10.5386
लागून	-10.5388
▁गुजरातांत	-10.5397
ोनिया	-10.54
▁थोड्या	-10.5408
▁फाल्या	-10.5411
गांवकार	-10.5413
▁फळा	-10.5413
▁कास	-10.5415
वपाचो	-10.5429
▁स्टॅ	-10.5441
▁लागल्य	-10.5443
ाधिकार	-10.5455
▁स्टेशन	-10.5466
▁आशळल्ल	-10.5473
ाज्मा	-10.5478
पीठ	-10.5478
▁स्टार्ट	-10.5479
▁इन्स्टिट्य	-10.5479
▁कामािलऱी	-10.5479
▁क्षेपणास्त्र	-10.5479
▁भाध्मभ	-10.5479
▁समृध्द	-10.5479
▁196	-10.5479
▁अंमलबजावण	-10.5479
▁आस्थापना	-10.5479
▁इंडिज	-10.5479
▁कितल्योश	-10.5479
▁चंद्रशेखर	-10.5479
▁ताकतिकेन	-10.5479
▁दूरूस्त	-10.5479
▁पृथ्वी	-10.5479
▁प्रतिस्पर्ध	-10.5479
▁प्रदक्षणा	-10.5479
▁बंडखोर	-10.5479
▁भुवनेश्वर	-10.5479
▁भौसा	-10.5479
▁संबोदीत	-10.5479
▁सार्वत्र	-10.5479
▁सिनेमा	-10.5479
▁सीआरपीएङ्क	-10.5479
▁सौदी	-10.5479
▁आकर्ष	-10.5479
▁स्नेह	-10.5479
▁दुर्लक्ष	-10.5479
▁न्हवरो	-10.5479
▁रामचंद्र	-10.5479
▁हिंसाचार	-10.5479
▁परस्पर	-10.5479
▁कुडको	-10.5479
▁तातुंत	-10.5479
▁निमित्	-10.5479
▁हांगसर	-10.5479
▁अवकाश	-10.5479
▁इस्त्रो	-10.5479
▁भोपाळ	-10.5479
▁ग्रंथ	-10.5479
▁संसर्ग	-10.5479
▁सिंधु	-10.5479
▁बॉ्नस	-10.5479
▁191	-10.5479
▁कॉन्ङ्करन्सींगा	-10.5479
▁धुंवर	-10.5479
▁अठरा	-10.5479
▁कांद्याच	-10.5479
▁म्हामारी	-10.5479
▁राश्ट्रपती	-10.5479
▁भाशण	-10.5479
▁बिराडा	-10.5479
▁२१	-10.5479
▁अब्दुल	-10.5479
▁लागवड	-10.5479
▁बापोल	-10.5479
▁कॅपिटल्स	-10.5479
▁आशिल्या	-10.5479
▁बसयतले	-10.5479
▁कॉलेज	-10.5479
▁१८	-10.548
▁गैर	-10.548
▁युरोपिय	-10.548
▁मांद्रे	-10.548
▁१२	-10.548
▁वांकडे	-10.548
▁कथीत	-10.548
▁लोकजीण	-10.548
▁भितल्ल्या	-10.548
▁गरजेचेर	-10.548
▁खेप	-10.5481
▁तापमान	-10.5481
▁वेगळो	-10.5481
▁अडचण	-10.5482
▁वंशाच	-10.5482
▁व्हंकल	-10.5482
हांव	-10.5482
▁म्हारगाय	-10.5483
▁सायबर	-10.5483
▁बांध	-10.5483
▁वासिना	-10.5483
लगाम	-10.5484
▁डोस	-10.5484
▁वाचप्या	-10.5484
▁सिध्द	-10.5484
▁घेतिल्लो	-10.5484
▁बाळगू	-10.5484
▁विनंती	-10.5484
ेहरू	-10.5485
▁आशळल्ल्मा	-10.5485
▁देवागेर	-10.5485
बाज	-10.5485
▁ङ्कोड	-10.5485
▁चक्र	-10.5486
▁मयें	-10.5486
▁अवसर	-10.5487
▁बाजारपेठ	-10.5488
▁माध्यमातल्यान	-10.5488
▁अब्	-10.5488
▁याजमां	-10.5491
▁हातभार	-10.5492
▁उबारतले	-10.5493
▁हरकत	-10.5493
▁अक्षय	-10.5493
▁थारतलो	-10.5493
▁श्रीकांत	-10.5493
▁आशील्ल	-10.5495
▁प्रेम	-10.5495
▁श्रीराम	-10.5496
▁निरोप	-10.5497
▁भाविकां	-10.5497
▁जनेला	-10.5497
▁धोलके	-10.5497
▁जयपूर	-10.5498
▁अत्या	-10.5499
▁शिक्ष	-10.5499
▁भाटकार	-10.5499
डीओ	-10.55
मास्टर	-10.55
▁हाचेवरवी	-10.55
▁कितलो	-10.5502
▁समावेश	-10.5502
▁न्यू	-10.5502
▁बरयल्ल	-10.5503
▁संधी	-10.5506
ुआ	-10.5508
▁श्रव	-10.5508
▁लोकपाल	-10.5509
▁युती	-10.5509
्र्यु	-10.5512
▁भरिल्लो	-10.5515
▁शिष्टमंडळ	-10.5516
▁आरटी	-10.5518
▁सिती	-10.5519
▁पारदर्शकता	-10.552
▁मारूंक	-10.5523
▁आमंत्र	-10.5524
▁फेस्त	-10.5525
सूर	-10.5526
▁उऩयांत	-10.5526
▁नेमाळ	-10.5528
▁आगा	-10.553
▁कोलव	-10.5531
▁शाळांनी	-10.5533
▁बँकेचे	-10.5534
▁डिज	-10.5536
▁दीसभर	-10.5536
▁वचपाची	-10.554
▁सूत्र	-10.5541
▁घडये	-10.5545
▁शुभ	-10.5545
▁वृत्ती	-10.5552
▁जाऩ	-10.5559
ैशी	-10.5563
▁येयल	-10.5563
▁तदार	-10.5563
▁हल्ल्यांत	-10.5568
▁कळ्ळे	-10.5576
▁इश्कोलांत	-10.5583
▁वायु	-10.5586
▁आई	-10.5587
▁डॉलर	-10.5593
गती	-10.5593
▁काव्य	-10.5596
▁जारे	-10.5598
▁ब्रिटना	-10.5601
▁देशभरांतल्या	-10.5601
▁मेळयला	-10.5605
▁हुस	-10.5606
▁पावल्यात	-10.5612
▁सुटका	-10.5621
▁वावुरप्यां	-10.5622
▁संवय	-10.5624
▁झाडा	-10.5625
▁कश्य	-10.5629
्निस	-10.5643
ांतूत	-10.5644
▁जिणेची	-10.565
ातूंत	-10.5659
▁हेवटेन	-10.5661
ेसाम	-10.5662
▁ग्रा	-10.5666
▁हॉ	-10.5674
▁कळना	-10.5683
▁तितल्या	-10.5684
▁म्हगेले	-10.5692
▁शेतकारांचे	-10.5697
▁प्रकल्पाचो	-10.5697
▁लायले	-10.5698
▁विनोद	-10.5702
▁जवाना	-10.5712
▁पदाधिका	-10.5721
▁वावुरतात	-10.5725
▁पोतयेंत	-10.5725
▁आवाजांत	-10.5725
▁अध्	-10.5726
▁मर्यादा	-10.5729
▁खतखत	-10.5735
▁आसताना	-10.5742
▁स्मारक	-10.5742
▁सांगचें	-10.5742
▁पसून	-10.5749
▁हाडपाच	-10.575
स्टेट	-10.5754
▁आडाव	-10.5757
▁दवरल्यात	-10.5757
▁धरता	-10.577
▁काज	-10.577
▁उदरगतीची	-10.5774
▁कच्च	-10.5775
▁पाविल्ल्या	-10.578
▁हॉस्पिटलांत	-10.5781
▁सातशे	-10.5785
▁पावना	-10.5787
▁अभियान	-10.5788
▁दिव्य	-10.5792
▁दर्यादेगे	-10.5803
सवाय	-10.581
▁दवरिल्ले	-10.5859
वर्	-10.5878
बास	-10.5879
▁रुखा	-10.5882
▁प्रदेळ	-10.5902
▁ददता	-10.5906
▁चडून	-10.5906
▁खाता	-10.5919
▁आसामात	-10.5933
▁टिक	-10.594
िक्त	-10.5944
▁आम्या	-10.5955
▁हाांच	-10.5956
ोवाल	-10.5966
▁सेंटर	-10.5971
▁म्हाप	-10.598
हळे	-10.6008
▁उत्त	-10.6009
▁मेळचो	-10.6009
▁केरी	-10.6015
▁जाळे	-10.6017
ल्हा	-10.6021
▁नारदा	-10.6026
▁उक्ते	-10.6032
▁टप्प्यां	-10.6039
▁धाडपा	-10.6054
▁बसल्या	-10.6055
▁तला	-10.6063
▁वाघ	-10.6079
ॅण्ड	-10.609
▁विश	-10.6097
▁ओंपतल	-10.6124
व्रत	-10.6127
▁परिषद	-10.6144
▁अऩ	-10.6151
वयल्या	-10.6153
▁भागीदार	-10.6158
वचार	-10.6164
▁पडटाले	-10.6179
▁दुमेंत	-10.618
शिल्ल्या	-10.6201
▁सगल	-10.6206
सभा	-10.6208
ल्ल्ओ	-10.621
▁बंगालात	-10.6213
▁सास	-10.6216
▁मेता	-10.6241
▁मायेच	-10.6246
▁ङ्कायनलीत	-10.6248
▁प्रकल्पाचे	-10.6253
▁लजे	-10.6253
▁सत्रा	-10.6253
▁नासत	-10.6255
▁मोलाच	-10.626
▁कयता	-10.6276
▁येवप	-10.628
▁कामगारां	-10.6282
▁जागे	-10.6302
▁तेविशी	-10.6315
भाज	-10.6318
▁सेल	-10.6326
▁परिक्षां	-10.6349
▁कॉम	-10.635
▁पडल्या	-10.6366
ांगडा	-10.6374
ुरेश	-10.6376
▁काश्मिर	-10.638
प्रधान	-10.6385
सेवा	-10.6388
कितें	-10.6396
अशें	-10.6399
▁कार्यावळींचे	-10.64
सचीव	-10.6401
▁शाळे	-10.6401
षया	-10.6404
▁विमानतळाचे	-10.6411
▁लागु	-10.642
ुखार	-10.6428
▁देवता	-10.6435
व्हाय	-10.6438
ोत्सव	-10.6441
▁सुनीता	-10.6459
▁लायन	-10.647
▁जापसालदार	-10.6471
▁सेमी	-10.6471
▁अति	-10.6475
स्थाऩ	-10.6475
▁क्रिस्त	-10.6477
▁वस्ताद	-10.6477
ः	-10.6479
▁स्थलांतर	-10.6479
▁195	-10.6479
▁अध्यक्षतेखाल	-10.6479
▁अहमद	-10.6479
▁आपत्ती	-10.6479
▁उत्कृश्ट	-10.6479
▁कंपन्यो	-10.6479
▁काश्िर	-10.6479
▁कौश	-10.6479
▁खुशाल	-10.6479
▁चंवल्ला	-10.6479
▁दिग्दर्श	-10.6479
▁पांडुरंग	-10.6479
▁भुखेरभंत्रमां	-10.6479
▁भुखेरभंत्री	-10.6479
▁महामंडळा	-10.6479
▁मिरवणूक	-10.6479
▁मीडिया	-10.6479
▁समन्वय	-10.6479
▁सामग्री	-10.6479
▁काकोडकार	-10.6479
▁गोठ्यांत	-10.6479
▁जाणविकाय	-10.6479
▁दोनापावला	-10.6479
▁नगरपालिका	-10.6479
▁पायपलायन	-10.6479
▁प्रजासत्त्आक	-10.6479
▁राजघाट	-10.6479
▁वॅबसायटी	-10.6479
▁स्त्रोत	-10.6479
▁ड्रायव्ह	-10.6479
▁प्राथमिक	-10.6479
▁बांबोळ	-10.6479
▁अधध	-10.6479
▁राङ्केल	-10.6479
I	-10.6479
उत्कृष्ट	-10.6479
▁बुध्दि	-10.6479
▁संघटणेच्य	-10.6479
▁रविंद्र	-10.6479
▁विठ्ठल	-10.6479
▁वैद्य	-10.6479
▁पेट्रोल	-10.6479
▁जम्ू	-10.6479
▁व्होकल	-10.6479
▁संक्रम	-10.6479
▁सैन्य	-10.6479
▁पॅनल	-10.6479
▁बाबतींत	-10.6479
▁भोंवडाय	-10.6479
▁मेहता	-10.6479
▁इगर्ज	-10.6479
▁लघु	-10.6479
▁वाहिनी	-10.6479
▁लाळीना	-10.6479
▁पश्चि	-10.6479
▁तरसाद	-10.6479
▁पूर्व	-10.6479
▁थारायल्या	-10.6479
▁गद्य	-10.6479
▁प्रधानभांत्री	-10.6479
▁रॅप	-10.6479
▁मुळावे	-10.6479
▁बाजऩ	-10.6479
▁दोघां	-10.6479
▁गॅस	-10.6479
▁दादले	-10.6479
▁खिणा	-10.6479
▁गांठ	-10.648
▁व्यथा	-10.648
▁परिवर्तन	-10.648
▁तारखे	-10.648
▁१७	-10.648
▁११	-10.648
▁सुब्र	-10.648
▁प्रतिभे	-10.648
▁स्थळ	-10.648
ख्ख	-10.648
▁शुद्ध	-10.648
▁वरिश्	-10.648
▁पुर्तुगाल	-10.648
▁शैली	-10.648
रविंद	-10.6481
▁दुयती	-10.6481
▁भरपाय	-10.6481
आमुऴ	-10.6481
▁उपगिऱ्या	-10.6481
▁अस्थी	-10.6482
▁आइल्ल	-10.6482
▁होत्सवा	-10.6482
▁11	-10.6482
▁चादर	-10.6482
▁गंगे	-10.6483
▁मिठा	-10.6484
▁पुनर	-10.6484
▁रोकाॊ	-10.6484
किंग्स	-10.6484
▁ट्नक	-10.6485
▁घेतिल्ली	-10.6486
▁तुगेर	-10.6486
▁गोपन	-10.6487
▁साडेचार	-10.6487
▁मागण्य	-10.6488
▁राज्यसभेत	-10.6488
▁ननधी	-10.6488
▁देह	-10.6488
▁रस्त्यांच	-10.6488
▁जाल्ल्यो	-10.6488
▁सावदी	-10.6489
▁दवल्ल्या	-10.6489
▁पन्नास	-10.6491
▁राजकुमार	-10.6491
▁कोरिया	-10.6491
▁हांबे	-10.6491
▁शांतताय	-10.6492
▁तोडून	-10.6492
▁पोन्न	-10.6493
▁ज्योती	-10.6493
▁कोणाकूच	-10.6494
▁कितलीशी	-10.6494
▁संवेदनशील	-10.6495
▁आसळल्	-10.6495
▁वांगरे	-10.6495
ोडून	-10.6496
▁हायस्	-10.6498
▁सुधारपा	-10.6498
▁राधा	-10.65
ुकट	-10.6501
▁तोमर	-10.6501
▁संकल	-10.6501
▁निर्मणी	-10.6501
▁पिसो	-10.6502
▁स्ऩ	-10.6502
▁सचिवालया	-10.6502
▁पुजे	-10.6503
▁चलयली	-10.6504
▁चिड्ड	-10.6504
▁जलद	-10.6504
▁भगत	-10.6504
▁उलोवपां	-10.6505
▁सेने	-10.6508
▁पूत	-10.6508
▁जिल्यात	-10.6509
▁वचूक	-10.6509
▁तांत्रिक	-10.6509
▁मॅट्र	-10.651
▁राष्ट्रवादी	-10.6511
▁रचना	-10.6514
▁म्हणस	-10.6515
▁मंगल	-10.6516
दाद	-10.6518
▁पॉल	-10.6523
▁आ़	-10.6523
▁मैदान	-10.6523
क्ष्म	-10.6525
मूद	-10.6526
▁पैशा	-10.6532
आनी	-10.6533
ााांंं	-10.6534
▁खांब	-10.6535
▁म्शण	-10.6536
▁शास्त्रज्ञ	-10.6537
▁बळार	-10.6538
▁माळेंत	-10.6539
▁प्रसिद्धी	-10.654
▁घराण्या	-10.6541
▁प्रेस	-10.6542
▁हातुत	-10.6545
▁व्याख्याना	-10.6547
▁पडिल्लो	-10.6553
▁एङ्कए	-10.6554
▁फसी	-10.6554
लक्ष्मी	-10.6556
▁वितरण	-10.6557
▁पुराव	-10.6557
▁थोड्याच	-10.6558
▁इतिहासिक	-10.656
▁लक्षणा	-10.656
▁सोडोवपा	-10.656
▁ओडून	-10.6561
▁दसा	-10.6562
▁सालांत	-10.6565
▁निवृत्त	-10.6569
▁खीण	-10.657
▁तालु्नयां	-10.6571
▁समर्थन	-10.6571
▁आवट	-10.6573
▁निर्मात	-10.6573
▁आमरे	-10.658
▁ल्हारा	-10.6582
▁रूपयां	-10.6584
▁मदली	-10.6588
▁जाणकार	-10.6588
▁जिल्ल्यांतल्या	-10.6589
▁साखळे	-10.6593
▁रिग	-10.6595
▁थाय	-10.6595
▁सांगणे	-10.6598
▁येदो	-10.66
▁अडेच	-10.6602
▁वाटप	-10.6602
▁पाळ्ळ	-10.6608
▁तेचप	-10.6615
▁सुनि	-10.6617
▁व्हांवता	-10.6618
▁घडोवपाच	-10.6623
▁जोडणी	-10.6637
▁गेल्यार	-10.6638
▁भाशेची	-10.6638
▁पैसो	-10.6638
▁जाध	-10.6642
व्श	-10.6642
▁वताली	-10.6643
िकरण	-10.6651
▁आठशे	-10.6652
▁एकचार	-10.6654
▁हस्त	-10.6658
▁७	-10.6661
▁फोट	-10.6662
▁वाऱ्या	-10.6663
▁भुरग्यांची	-10.6667
▁गेल्यात	-10.6668
▁येवची	-10.6676
▁पॉ	-10.6678
▁ळाया	-10.6679
▁येरादारीचेर	-10.668
▁उत्तराखंड	-10.6681
▁कोंबो	-10.6682
▁धप	-10.6684
▁दवरिल्ल्या	-10.6689
▁घाल्ले	-10.6701
▁कोणूय	-10.6701
▁प्रेर	-10.6708
▁असले	-10.6713
▁तामीळनाडू	-10.6722
▁सोस	-10.6722
▁डॅ	-10.6726
▁घुस	-10.6734
▁पंगडामद	-10.6745
▁शिवरा	-10.6745
▁बेप	-10.6748
▁नरे	-10.6759
▁चलू	-10.6759
▁आडावपा	-10.6761
▁महत्वाचे	-10.6766
ांबी	-10.6772
▁बस्त	-10.6778
▁साहित्याच्या	-10.6779
▁सहमत	-10.6785
▁पावल्या	-10.6786
▁गटान	-10.6787
▁थारायल्ले	-10.681
▁दीव	-10.6814
छया	-10.6817
▁10	-10.6821
▁प्रकल्पांच	-10.6822
▁संमत	-10.6823
▁बाबु	-10.6827
डेज	-10.683
▁भोंवता	-10.6835
पोंदा	-10.6837
▁हालीच	-10.6841
ालडे	-10.6842
पीसीआ	-10.6851
▁ध्यास	-10.686
▁उंच	-10.687
▁आचारसंहिते	-10.6872
▁महारा	-10.6886
▁वाशिन	-10.689
भूत	-10.6895
▁उरले	-10.6901
टॅक	-10.6907
▁म्हण्ट	-10.6927
▁आंगांत	-10.6927
▁साध्य	-10.6932
▁दर्जा	-10.6934
चालना	-10.6935
▁तेलंगणात	-10.6942
▁काडल्या	-10.6942
ल्रा	-10.6944
नितान	-10.6944
▁उद्देजकां	-10.6959
▁पातळिल्ल	-10.6972
▁आऩल्म	-10.6985
▁पर्	-10.6988
▁फोड	-10.699
▁पॅन्	-10.7006
▁सभाघरां	-10.7007
पदाच	-10.7008
▁देशांतले	-10.7015
ुल्ला	-10.7022
▁मेलजण	-10.7024
▁उकताय	-10.7033
लऱी	-10.704
▁म्हणया	-10.7059
भास	-10.706
▁पळेल्या	-10.7069
▁कार्ड	-10.7081
▁खेळगड्यां	-10.7084
▁भिव	-10.7084
▁हारश	-10.7109
▁उण्या	-10.7116
▁विमानां	-10.7117
▁शेण	-10.7144
▁प्रिय	-10.7145
▁दुःखा	-10.7164
▁सोमार	-10.7169
▁माद	-10.717
▁झुजांत	-10.7188
▁ओपल	-10.7195
▁कंपन्यां	-10.7217
▁कोल्याच	-10.7227
▁घालपाचे	-10.7238
▁उक्तायले	-10.7247
▁दोतोरां	-10.7254
शिया	-10.7256
परेश	-10.7261
▁दिताले	-10.7266
▁मेळु	-10.7276
▁उलयतल	-10.7289
▁सुरक्षेचे	-10.7303
▁चळवळ	-10.7307
▁म्हणूं	-10.731
▁दवरु	-10.7323
▁गोंयकारां	-10.7323
▁खबरे	-10.7357
▁एकामेकां	-10.7363
▁संमेलनां	-10.7369
▁मतमेजण	-10.7369
▁वेंचणुकां	-10.7374
▁बाराव	-10.7386
ैजकी	-10.7403
▁वाडला	-10.7432
साठाव	-10.7434
▁किम	-10.7443
▁सत्त	-10.7463
▁चलिल्ल	-10.7465
▁ङ्कांट	-10.7472
▁बोड	-10.748
शासन	-10.7481
ऩणा	-10.7489
चित्र	-10.7491
उप्रांत	-10.7495
लागुन	-10.7498
▁आराखड	-10.7498
शिवा	-10.7502
हूण	-10.7507
ावळी	-10.751
सागर	-10.7523
▁दत्त	-10.7528
ालीन	-10.7533
▁मुंब	-10.7543
▁मंदिरा	-10.7559
▁किदे	-10.7562
▁इनाम	-10.7579
गिऱ्या	-10.7587
▁छत्तीस	-10.7588
रसंचार	-10.7589
▁कागद	-10.759
the	-10.759
औ	-10.759
▁उपराश्ट्रपती	-10.759
▁उेदवार	-10.759
▁जॉन्सन	-10.759
▁फेब्रुवारी	-10.759
▁संशोधक	-10.759
▁सुवेवस्थ	-10.759
ity	-10.759
p	-10.759
विविधताय	-10.759
▁इशान्य	-10.759
▁तामिळनाडू	-10.759
▁नगरसेव	-10.759
▁नचटपट	-10.759
▁निकोबार	-10.759
▁न्युझिल	-10.759
▁पुंडलीक	-10.759
▁भूरग्यां	-10.759
▁महामार्ग	-10.759
▁म्हूर्त	-10.759
▁रशिये	-10.759
▁विकऱ्याची	-10.759
▁वेधशाळे	-10.759
▁वॉट्सअॅप	-10.759
▁शांतादुर्ग	-10.759
▁श्रेणी	-10.759
▁संसाधन	-10.759
▁सुटसुटीत	-10.759
▁सुमित्रा	-10.759
▁इंटरनॅ	-10.759
▁उटंगारांच	-10.759
▁उत्ऩादन	-10.759
▁एप्रिल	-10.759
▁नमस्कार	-10.759
▁न्मामारमा	-10.759
▁मावजो	-10.759
▁म्यानमार	-10.759
▁अमिरात	-10.759
▁ओदीशा	-10.759
▁तांदूळ	-10.759
▁र्सुी	-10.759
▁शब्द	-10.759
▁मेट्रो	-10.759
▁सगळयो	-10.759
▁वक्तव्य	-10.759
▁वण्टी	-10.759
▁अयोध्य	-10.759
▁आसऩाल	-10.759
▁कवाश्या	-10.759
▁काकुळट	-10.759
स्मृती	-10.759
▁लागणूक	-10.759
▁ङ्कूडाऱ्या	-10.759
▁ज्युली	-10.759
▁दत्तूशेट	-10.759
▁वेल्लोर	-10.759
▁िडियाच	-10.759
▁भांत्रारमा	-10.759
▁हस्तूकी	-10.759
▁चिखली	-10.759
▁दबाज्या	-10.759
▁चित्ररथ	-10.759
▁संचलन	-10.759
▁इश्टागत	-10.759
▁फसके	-10.759
▁राबित	-10.759
▁उक्तालण	-10.759
▁रांदनी	-10.759
▁नमुने	-10.759
▁कॅनडा	-10.759
▁धुकल्ल्या	-10.759
▁सध्मा	-10.759
▁पायलट	-10.759
▁देगण	-10.7591
▁हुस्को	-10.7591
▁दरएक	-10.7591
▁बांदील	-10.7591
▁घुस्मटमार	-10.7591
▁अंतरीक्ष	-10.7591
▁दूरसंचार	-10.7591
▁मावशेभाव	-10.7591
▁श्रेष्	-10.7591
▁ब्र्निस	-10.7591
▁१३	-10.7591
▁नर्मद	-10.7591
vi	-10.7591
▁मास्तर	-10.7591
▁गाडयां	-10.7591
▁१६	-10.7591
▁लाऩय	-10.7591
ha	-10.7592
▁शेंकड्यांत	-10.7592
प्रतिनीधी	-10.7592
▁भक्ती	-10.7592
▁सैनी	-10.7592
▁स्थीत	-10.7592
▁यमुन	-10.7592
▁संग्रहालय	-10.7592
▁भरिल्ले	-10.7592
▁दलयऩ	-10.7592
▁मोंस	-10.7592
▁शिटकाय	-10.7592
▁वकिल	-10.7592
▁समाधी	-10.7593
▁शरीर	-10.7593
ंवटे	-10.7593
▁वरसां	-10.7593
▁कवळेक	-10.7593
▁प्रतिष्ठ	-10.7593
▁कार्यकाळा	-10.7593
▁पांचवो	-10.7593
▁धोण	-10.7594
▁पशु	-10.7594
▁ङ्कुडारपणाखाल	-10.7595
▁चेंबर	-10.7595
▁देखुनूच	-10.7595
▁मुल्यां	-10.7595
▁सांबाळ्ळ	-10.7596
▁ठोक	-10.7596
▁वशका	-10.7596
▁अनुदान	-10.7596
▁कार्नाव	-10.7596
▁जैतवंत	-10.7597
▁आंगणांत	-10.7597
▁कानपूर	-10.7597
▁पदार्थ	-10.7597
जीजू	-10.7597
▁विश्वासमत	-10.7598
▁देवस्थान	-10.7598
▁ख्रि	-10.7598
▁रोखडी	-10.7598
▁धावड्या	-10.7598
बर्ग	-10.7599
▁आमगेल	-10.7599
▁वारें	-10.76
▁उद्देजकताय	-10.76
▁क्वा	-10.76
▁बशिल्ल्या	-10.76
▁पोटवेंचणुकेंत	-10.76
पलतडच	-10.7601
▁चैत	-10.7601
▁पिठा	-10.7601
रक्षण	-10.7602
▁बातम्य	-10.7602
▁पुनरु	-10.7603
▁राज्यसभेचे	-10.7604
▁ङ्कर्नांड	-10.7604
▁पाटल्मा	-10.7605
▁देखुन	-10.7605
▁एअर	-10.7606
▁सगल्मा	-10.7606
▁फुडले	-10.7606
▁मीना	-10.7607
▁R	-10.7608
▁प्रवाहा	-10.7608
▁जात्रा	-10.7608
▁केळेकार	-10.761
ाॊचेय	-10.761
▁मध्यवर्	-10.7612
▁सादरीकरण	-10.7612
▁वळखतात	-10.7612
▁सासाय	-10.7613
▁अनुरा	-10.7614
▁वैल्या	-10.7615
▁सुदाय	-10.7615
▁उरतलो	-10.7619
▁उबग	-10.7619
▁असल्यो	-10.7619
▁मित्र	-10.762
▁थीर	-10.762
▁जैैैैत	-10.7622
▁लाँ	-10.7623
▁कतार	-10.7625
▁बर्ड	-10.7625
▁उभारल	-10.7626
▁थळावे	-10.7626
▁धारकां	-10.7627
▁धरूंक	-10.7628
▁पार्थ	-10.7628
▁अध्यक्षपद	-10.7629
▁पावतली	-10.763
▁कळ्ळ	-10.763
▁अर्जुन	-10.7635
▁धोरणात	-10.7637
▁एकमत	-10.7639
▁भरिल्ली	-10.7641
▁इस्रो	-10.7641
▁जशें	-10.7641
▁नाशिल्ल्यो	-10.7642
▁कोणाकडेन	-10.7644
▁रडू	-10.7644
लेगीत	-10.7647
▁र्जा	-10.7648
▁लायतले	-10.765
▁सोब	-10.7653
▁व्हरून	-10.7655
▁भऱा	-10.7656
▁कोलकातात	-10.7657
▁विरोधका	-10.7658
▁तदान	-10.766
▁भयान	-10.7663
▁भयां	-10.7668
▁सयद	-10.7671
▁कडकड	-10.7672
▁अर्ध	-10.7672
▁प्रनत	-10.7673
गंज	-10.7675
▁हाजेर	-10.7679
▁आंखल्यात	-10.7682
▁म्हालांत	-10.7685
▁बॉला	-10.7686
रवणे	-10.7687
▁माळये	-10.769
▁गोंयभर	-10.7693
▁आयकता	-10.7694
▁नकळ	-10.7696
▁कळोव	-10.7699
ीकयण	-10.7704
▁मरता	-10.7705
▁उकत्या	-10.7707
▁प्रथ	-10.7709
▁गळ्या	-10.7712
▁तंत्रज्ञानाच	-10.7713
▁भाग्य	-10.7715
▁येवजण्यांचो	-10.7717
▁शेंकड	-10.7718
▁कलम	-10.772
▁केपे	-10.772
▁अर्थव्यवस्थे	-10.7721
▁खावप	-10.7732
▁मदल्या	-10.7732
▁पिवपाचे	-10.7738
▁वतली	-10.7744
▁पडता	-10.7748
्तीस	-10.7752
▁लागना	-10.7753
▁हांसलो	-10.7754
ऩाद	-10.7761
▁सुटलो	-10.7767
ोटेक	-10.7773
▁राङ्का	-10.7773
▁घेवपाचें	-10.7776
▁दाखोवपा	-10.7778
ल्ङ्क	-10.7785
▁मेळचें	-10.7787
▁विभागाच्या	-10.7787
▁उणी	-10.7791
▁गिरायकां	-10.7794
▁सल्ली	-10.7796
▁मेलजण्म	-10.78
▁गुज	-10.7801
वयलो	-10.7801
▁पक्षांक	-10.7804
▁पत्रका	-10.7807
िरीक	-10.7807
▁शिट	-10.7808
मेव	-10.782
▁प्ले	-10.7831
▁सेव	-10.7832
▁आभा	-10.7832
▁रोस	-10.7844
स्कर	-10.7857
▁भरिल्ल्या	-10.7861
▁बांदिल्ले	-10.7861
▁आसामांत	-10.7879
▁सर्ज	-10.7882
▁मेकळ	-10.7892
▁उजव	-10.7897
▁गळ्यांत	-10.7903
▁दिश	-10.7921
▁वेगळेपण	-10.7933
▁लायिल्ले	-10.7937
▁पोष	-10.7938
▁संवसारातल	-10.7944
▁हाडू	-10.7953
▁उरमत	-10.7971
प्रिय	-10.8006
्भक	-10.8041
▁हुड	-10.8087
▁राजस्थानात	-10.8087
▁थारले	-10.8106
▁वोग	-10.8113
▁टप्प	-10.8115
▁प्रवाश	-10.812
▁काद	-10.8152
▁म्हणरा	-10.8161
▁युवकां	-10.8167
▁लागपा	-10.8167
▁सक्	-10.8191
▁घडोवप	-10.8196
ऩुय	-10.8201
▁गरजेच्य	-10.8248
▁लाडट	-10.8252
▁कथेचे	-10.8275
▁बिहारात	-10.8277
▁अजापा	-10.8277
▁हदल	-10.8288
▁भलायक	-10.8311
मेंट	-10.832
▁काळखा	-10.8327
▁स्वच्छत	-10.8338
ािी	-10.834
▁उक्त	-10.8362
▁भेटयले	-10.8373
▁मतदारसंघांतल्या	-10.8431
▁यात्रे	-10.8433
ारीख	-10.8436
00	-10.8437
▁सैनिक	-10.8445
लेखन	-10.8479
▁जिखले	-10.8492
▁खतखते	-10.8493
▁ब्रि	-10.8493
▁ददल्ल	-10.8496
गुळो	-10.8502
▁रवीश	-10.8522
▁काण्ण	-10.8528
▁साद्य	-10.854
▁शिवसेन	-10.8552
▁परंपर	-10.8556
ालऩा	-10.856
▁नागरीकां	-10.8562
▁गुड	-10.8566
▁लाडोलऩा	-10.8575
▁खेल	-10.8578
▁अपुर्बाय	-10.858
भाई	-10.8595
▁दुमेंतीां	-10.8599
▁बांदपा	-10.8608
▁म्हणपा	-10.861
▁चलथ	-10.8612
▁पेडणे	-10.8615
▁सक्तीचे	-10.863
▁केशींच	-10.864
ैैैैन	-10.8653
▁ह्म	-10.8679
▁रूपा	-10.8682
स्वास	-10.8684
वयले	-10.8689
▁देस	-10.8696
▁बुधवार	-10.8697
▁वचूं	-10.8719
ोन्स	-10.8719
▁न्यायाधिशां	-10.8722
▁झुंजा	-10.8726
भाशेन	-10.8744
मोहन	-10.8744
स्वामी	-10.8745
प्रसाद	-10.8746
हेतान	-10.8747
▁हुतात्म	-10.8758
▁घरांतल्या	-10.8763
पदक	-10.8784
12	-10.8788
भूल	-10.8792
एसआय	-10.88
▁संगण	-10.882
▁शास्त्रज्ञां	-10.8825
▁इंग्लीश	-10.8832
नसंघा	-10.8834
दर्शक	-10.8839
▁घुस्मट	-10.8839
▁ऑल	-10.884
▁कारकिर्द	-10.884
▁चलणुके	-10.884
▁देंगणा	-10.884
▁फाॊगरा	-10.884
▁मालमत्तेच	-10.884
▁सशक्तीकरण	-10.884
▁साक्षीदार	-10.884
,196	-10.884
निटायझ	-10.884
▁अप्रत्यक्ष	-10.884
▁आघाडे	-10.884
▁इत्सुक	-10.884
▁इब्रामपूर	-10.884
▁उऩरब्ध	-10.884
▁उपमुखेलमंत्री	-10.884
▁कम्युनिटी	-10.884
▁खफयदायी	-10.884
▁खफयाकाया	-10.884
▁गगनयान	-10.884
▁घोटाळे	-10.884
▁चंदीगड	-10.884
▁तानावडे	-10.884
▁देशविदेशा	-10.884
▁नोकऱ्य	-10.884
▁बंगळूर	-10.884
▁बिरेस्तारा	-10.884
▁भशोत्वल	-10.884
▁भौन	-10.884
▁मिझोराम	-10.884
▁वलधानसब	-10.884
▁सांस्कृतिक	-10.884
▁स्टेडियमा	-10.884
▁स्थिरता	-10.884
▁हॅलिकॉप	-10.884
▁अभिभाशण	-10.884
▁आस्ऩा	-10.884
▁एनसीसी	-10.884
▁कंत्राट	-10.884
▁कल्पने	-10.884
▁कामगीरी	-10.884
▁नेतृत्	-10.884
▁बलिदान	-10.884
▁भणणऩ	-10.884
▁मालमत्त्आ	-10.884
▁म्होंवा	-10.884
▁विधायक	-10.884
▁शांघाय	-10.884
▁संलसाय	-10.884
▁सामुदाय	-10.884
▁सुलाळमा	-10.884
▁अरिश्ट	-10.884
▁दुयेतीं	-10.884
▁प्रधानभॊत्रमाॊ	-10.884
▁प्रयत्न	-10.884
▁भांडवल	-10.884
▁शेजाऱ्या	-10.884
▁अमरावती	-10.884
▁खडेगा	-10.884
▁बारीकसाणी	-10.884
▁रवांडा	-10.884
▁शोपिया	-10.884
▁साांगरे	-10.884
▁स्पर्ध	-10.884
▁इंडीया	-10.884
▁मणिपू	-10.884
▁स्थायी	-10.884
M	-10.884
जिल्होधिकार	-10.884
▁इंग्लिशी	-10.884
▁याज्मऩार	-10.884
▁ताकतीक	-10.884
▁दूरदश	-10.884
▁बत्तीस	-10.884
▁बशिल्ली	-10.884
▁लैंग	-10.884
फ्टनं	-10.884
▁चोडणक	-10.884
▁नाजाल्यार	-10.884
▁रघु	-10.884
▁हंगाम	-10.884
▁मडकय	-10.884
▁लक्ष्मण	-10.884
▁वायूसेन	-10.884
▁स्टार्टअप	-10.884
▁कार्यक्षम	-10.884
▁ळेतक	-10.884
▁मोन्यानी	-10.884
▁हांतूण	-10.884
▁गोंदळ	-10.884
▁झूंज	-10.884
▁कर्तव्य	-10.884
ङ्घ	-10.884
▁इंजीन	-10.884
▁अंतुल्या	-10.884
▁कारापूर	-10.884
▁संहित	-10.884
▁मुख्यमंत्र्या	-10.884
▁मावशे	-10.884
▁वैजुक	-10.884
▁अभिनेत	-10.884
▁संपादक	-10.8841
▁मॉड	-10.8841
▁मुरगाव	-10.8841
▁200	-10.8841
▁युगांत	-10.8841
▁आश्रम	-10.8841
▁भेदभाव	-10.8841
▁कोसळील्ल्या	-10.8841
▁देळबया	-10.8841
▁तणाव	-10.8841
▁सापड	-10.8841
▁इटली	-10.8841
सनेमा	-10.8841
▁बेगगन	-10.8841
▁म्हादय	-10.8841
▁रॉयल्स	-10.8841
▁कॉमर्स	-10.8841
▁भ्नती	-10.8841
▁कोरीया	-10.8841
▁भुंये	-10.8842
▁1985	-10.8842
रस्वत	-10.8842
▁वलश्ल	-10.8842
▁टॅनिस	-10.8842
▁म्हासंचालक	-10.8842
▁अणु	-10.8842
▁पांख	-10.8842
▁नंबर	-10.8842
▁187	-10.8842
ोलेशन	-10.8842
▁कट्टर	-10.8842
▁छातये	-10.8843
▁क्रिस्तांव	-10.8843
▁अधधकाय	-10.8843
ma	-10.8843
▁हाताळपा	-10.8843
▁मोहम्मद	-10.8843
ॅ्नसी	-10.8843
▁भेद	-10.8843
▁ह्नक	-10.8844
▁चलतलें	-10.8844
▁ङ्केरवि	-10.8844
▁सोपोवपा	-10.8844
▁बरयलां	-10.8845
▁फोर्स	-10.8845
▁विठू	-10.8845
▁पॉझ	-10.8845
▁गांधीजींच	-10.8845
▁म्हातार	-10.8845
▁25	-10.8846
▁बेसबर	-10.8846
▁अभियांत्रिक	-10.8846
▁मुखेलपणाखाल	-10.8846
▁उऱय	-10.8847
▁केळ्यां	-10.8847
▁जाग्यांचे	-10.8847
▁तालुक	-10.8848
▁जीलन	-10.8848
ऩूणा	-10.8848
्यांयशी	-10.8848
▁मुद्याचेर	-10.8848
▁वगल्मा	-10.8849
▁मेळयल्या	-10.8851
▁समीती	-10.8851
▁जुवार	-10.8852
▁मोगदान	-10.8852
▁वगळ्मा	-10.8852
▁खर्श	-10.8852
▁ङ्कूड	-10.8852
▁घेतल्मा	-10.8852
▁सुटके	-10.8852
▁आवडटा	-10.8854
ंळोध	-10.8854
▁गणऩ	-10.8854
▁संकट	-10.8855
▁फसका	-10.8855
▁उमाळ	-10.8856
▁धार्म	-10.8857
▁जीणेत	-10.8859
▁पदव्य	-10.8859
▁उक्तामर	-10.886
▁राज्यसभेंत	-10.886
▁सोंस	-10.8861
▁ननमा	-10.8861
▁गुन्यांवकार	-10.8861
▁भोंवतणच	-10.8861
▁भाषणा	-10.8861
▁मत्स	-10.8863
▁हातूत	-10.8863
▁जनतेक	-10.8863
▁दडक	-10.8864
▁ऩमरी	-10.8864
▁तुष	-10.8865
▁वचणूक	-10.8865
▁अनावर	-10.8865
▁किल्ल्याचे	-10.8866
▁सद्दा	-10.8868
▁चिकन	-10.8868
▁वर्मा	-10.8868
▁तांणे	-10.8869
▁घेतरे	-10.8871
▁पांव	-10.8871
▁सामकार	-10.8872
▁कोचीन	-10.8873
▁मुखेऱमंत्र	-10.8874
▁भोंवतणी	-10.8874
▁रूख	-10.8877
▁पातक	-10.8879
▁मंत्रीपद	-10.888
▁सेंट्र	-10.8881
▁पाटणे	-10.8883
▁मंदिरांत	-10.8883
मोनिय	-10.8884
वींद	-10.8885
▁समर्प	-10.8888
▁मॅरी	-10.8889
▁हदर	-10.889
▁दिल्यो	-10.889
▁रॉब	-10.889
▁बिलां	-10.8891
▁चल्ली	-10.8892
▁लसाा	-10.8893
▁वेवसायिक	-10.8893
▁फामरा	-10.8894
▁पेंड	-10.8895
थापन	-10.8896
▁ङ्कुट	-10.8898
▁वामन	-10.89
▁लागतले	-10.8904
▁साई	-10.8908
ंकय्य	-10.8909
▁गेह	-10.891
▁मांय	-10.8911
▁थै	-10.8912
▁उजव्या	-10.8914
▁पालख	-10.8914
▁आंब्या	-10.8914
▁सारकेल	-10.8917
▁खऱ्या	-10.8917
▁म्हणपाचो	-10.8918
▁पात्रताय	-10.8918
▁सुभा	-10.892
▁ढद	-10.8927
▁वस्तु	-10.8929
▁वजन	-10.893
▁पांवला	-10.8934
▁कात्र	-10.8937
▁लिंग	-10.8943
▁प्रक्रियेंत	-10.8944
▁उरतले	-10.8945
वृत्ती	-10.8946
▁कळटा	-10.8947
▁प्रवाश्यां	-10.8948
▁ऩाऱ	-10.895
▁हवेच	-10.8958
▁लोकांच्यो	-10.8958
▁भाशेचे	-10.8959
▁हॉस्पिटल	-10.8963
▁ङ्कांटभ	-10.8968
राष्ट्र	-10.8969
▁उद्ध	-10.8973
▁भाशेतल	-10.8973
े्नस	-10.8975
▁जमिल्ल	-10.8976
▁आयुषम	-10.898
▁रित्य	-10.8985
▁कक्षा	-10.8987
▁कार्यावळींचो	-10.8988
▁वेतन	-10.899
▁सवणी	-10.8995
▁उस्त	-10.8997
▁जोडये	-10.8997
▁पुस्तकाचे	-10.9004
▁दोतोराक	-10.9004
▁गावात	-10.9006
▁गळया	-10.9008
र्वे	-10.9011
▁चलयतल	-10.9018
▁मागले	-10.9018
▁सातत्य	-10.902
▁ठाकू	-10.903
▁काडपाचे	-10.9034
▁म्हालांतल्या	-10.9037
▁पालोवप	-10.9038
▁पुण्यात	-10.904
▁आमदारांनी	-10.9065
▁उरिल्ल	-10.9096
ीयाल	-10.9106
▁वासना	-10.9117
▁न्हिदिल्ल	-10.9124
पात्र	-10.9125
▁लागिल्ले	-10.9129
▁परंपरे	-10.9132
▁ङ्किल	-10.9155
▁विकू	-10.9155
▁सुदि	-10.9174
अया	-10.9178
▁बडोव	-10.9209
▁सुटये	-10.9223
▁धाडल्या	-10.9231
▁शिवसेने	-10.9235
सुत्र	-10.9242
▁लक्ष्	-10.9257
श्ल	-10.9264
▁दादल्यांच	-10.9271
▁लेऱ	-10.9271
▁बिमस्ट	-10.9281
▁सोडिल्ल्या	-10.9283
▁रावल्या	-10.9313
▁वावुर	-10.9319
▁धांवड्य	-10.933
▁धांपले	-10.9337
लऱे	-10.9354
गळुर	-10.937
फुल्ल	-10.9393
▁काळखांत	-10.94
▁पिळगे	-10.9422
गीच	-10.9428
▁नाचता	-10.9432
रेखन	-10.9433
▁उण्य	-10.9455
▁चॅनलांचे	-10.9474
▁इंद	-10.9504
्टिट	-10.955
▁कोंड	-10.9574
दीऩ	-10.9576
▁चौकश	-10.9591
▁इल्ले	-10.9594
▁मांडपाच	-10.9603
▁परिसंवाद	-10.9635
▁लंडन	-10.9664
▁प्रदर्शनाचे	-10.968
▁विसरूं	-10.9683
▁दोण	-10.9696
▁संवसारांतले	-10.9717
▁मुस्लिम	-10.9725
▁चुकीच	-10.9727
▁जेवता	-10.9741
▁हांसले	-10.9747
▁माळू	-10.9768
▁मंड	-10.9867
▁तिगां	-10.99
▁तामीळनाडूंत	-10.9924
▁जुळ	-10.9942
▁परीषद	-10.995
ांच्मो	-10.9961
▁ेळपा	-10.9961
ाांं	-10.9963
▁वाडिल्ल	-10.998
▁समजीकाय	-10.9986
खंड	-10.9989
▁20	-11.001
▁पड्ड	-11.0013
ाबार	-11.0061
▁तज्ञां	-11.0067
▁नांवाचे	-11.0074
▁पत्रकांत	-11.0098
िरयत	-11.0134
गोपाल	-11.0134
▁तालु्नयांतल	-11.0136
▁सोडपाच	-11.0164
कित्याक	-11.0176
दलाचे	-11.0177
▁आंखल्या	-11.0185
उकते	-11.0186
भांत्री	-11.019
▁हाजे	-11.0191
▁भरपाच	-11.0191
▁पेटयल	-11.0202
भाज्य	-11.0203
▁आग्र	-11.0213
▁बाटल	-11.022
▁नियंत्र	-11.0241
▁जनेलांत	-11.0244
▁स्मार	-11.0252
▁इंग्ल	-11.0254
▁गुन्याव	-11.0256
ळयलां	-11.0258
किस्तान	-11.0266
v	-11.0267
गळ्मा	-11.0268
▁कॉन्ङ्करन्स	-11.0268
▁श्रध्दा	-11.0268
V	-11.0268
▁अंतस्कर्ण	-11.0268
▁अधोरेख	-11.0268
▁अनौपचार	-11.0268
▁अस्मिताय	-11.0268
▁आमआमटी	-11.0268
▁आश्विन	-11.0268
▁इव्हीएम	-11.0268
▁इस्लामाबाद	-11.0268
▁कॅपीटल्स	-11.0268
▁कॅबिनेट	-11.0268
▁कॉन्ङ्करंसिंगा	-11.0268
▁कॉरीडोर	-11.0268
▁गैरवापर	-11.0268
▁ङ्कोंड्यां	-11.0268
▁चवकशे	-11.0268
▁चिकित्स	-11.0268
▁टर्मिनल	-11.0268
▁निरिक्षक	-11.0268
▁न्युझिलँडा	-11.0268
▁ऩंचामत	-11.0268
▁परगटायल	-11.0268
▁पिंपळा	-11.0268
▁प्रामाणिक	-11.0268
▁बुध्दीमत्तेच	-11.0268
▁ब्रेस्तारा	-11.0268
▁भविष्य	-11.0268
▁मंगळूर	-11.0268
▁महंमद	-11.0268
▁म्हामंडळा	-11.0268
▁यशस्वी	-11.0268
▁युक्तीवाद	-11.0268
▁राळयपाल	-11.0268
▁राष्ट्नपती	-11.0268
▁वाठांरा	-11.0268
▁शिगम्या	-11.0268
▁शौर्य	-11.0268
▁समपदस्त	-11.0268
▁स्ङ्कोट	-11.0268
▁स्वायत्त	-11.0268
▁आनमल्ल्मा	-11.0268
▁कायदेशीर	-11.0268
▁कुडकुड	-11.0268
▁घुंवळे	-11.0268
▁तज्ज्ञ	-11.0268
▁निरिक्षण	-11.0268
▁लखनौ	-11.0268
▁सहानुभूती	-11.0268
▁सुचोवणे	-11.0268
▁सुयऺ	-11.0268
D	-11.0268
व्र्ह	-11.0268
▁आमसभे	-11.0268
▁इंजिन	-11.0268
▁उद्येग	-11.0268
▁टॅस्ट	-11.0268
▁भुगतान	-11.0268
▁रसरशीत	-11.0268
▁व्हिव्हिप	-11.0268
▁सळसळ	-11.0268
▁स्लिपी	-11.0268
▁ंत्रालया	-11.0268
▁एप्रील	-11.0268
▁समुद्र	-11.0268
▁उर्बे	-11.0269
▁मडगाव	-11.0269
▁मावज्या	-11.0269
▁वैयक्ती	-11.0269
▁हरियाणा	-11.0269
▁मालदीव	-11.0269
▁वाांगरे	-11.0269
▁्नलब	-11.0269
▁डॉ्नटर	-11.0269
▁तालु्नयात	-11.0269
▁परिपत्रक	-11.0269
▁पिडेस्त	-11.0269
▁अबकारी	-11.0269
▁कादंबरी	-11.0269
श्रेश्ठ	-11.0269
▁गाडयो	-11.0269
▁म्हयनो	-11.0269
▁सोलापूर	-11.0269
tur	-11.0269
▁उलैलो	-11.0269
▁निपक्षपाती	-11.0269
▁सिथार	-11.0269
▁अऴें	-11.0269
ठ्ठ	-11.0269
▁सुवलध	-11.0269
▁आंतोन	-11.0269
▁पियेव	-11.0269
▁मोन्यांनी	-11.0269
▁काचाबूल	-11.0269
▁चेडवा	-11.0269
▁निलंब	-11.0269
▁बिबि	-11.0269
▁सूचोवण	-11.0269
▁टेस्ट	-11.0269
▁म्हापश्या	-11.0269
▁मोर्चा	-11.0269
▁सांसप	-11.0269
ार्सेलो	-11.0269
▁सखाराम	-11.0269
▁प्रत्यु	-11.0269
▁अङ्कवा	-11.0269
▁साडेसात	-11.0269
▁आमोगा	-11.0269
▁पापया	-11.0269
▁घडयतले	-11.027
▁उर्जे	-11.027
▁बडबड	-11.027
▁येराद	-11.027
▁विजेचे	-11.027
▁द्वि	-11.027
▁व्हेलो	-11.027
▁फस्क	-11.027
▁ललित	-11.027
▁शिकोवपाच	-11.027
▁उंचाये	-11.0271
▁पातळ्ळ	-11.0271
▁आयदना	-11.0271
▁दाबोळ	-11.0271
▁आरंभ	-11.0271
▁ळेतकाया	-11.0271
▁कोणतरी	-11.0271
▁निर्धार	-11.0272
▁लान्	-11.0272
▁वलद्म	-11.0272
▁14	-11.0272
दंबर	-11.0272
▁वेवस्थापक	-11.0272
▁24	-11.0272
▁धांवडय	-11.0272
▁व्हिजा	-11.0272
▁शिंप	-11.0273
▁189	-11.0273
▁दुख्ख	-11.0273
▁17	-11.0273
▁एफए	-11.0273
▁सल्ला	-11.0273
▁नागरिकत्व	-11.0273
▁उद्योग	-11.0273
▁सोर्ती	-11.0273
▁आयकलें	-11.0274
वलंबी	-11.0274
▁आपोवणे	-11.0274
▁काडटले	-11.0275
▁ऩांगड	-11.0275
▁दुखवट	-11.0275
▁बैं	-11.0275
▁मार्टिन	-11.0276
▁ओडिसा	-11.0276
▁आगमन	-11.0276
परिक्षण	-11.0277
▁उबारलां	-11.0277
▁रेलवे	-11.0277
▁चांद्र	-11.0277
वलळीॊ	-11.0277
▁गंध	-11.0277
▁धक्क	-11.0277
▁हमाल	-11.0277
▁म्हटले	-11.0278
▁केंंद्र	-11.0278
▁कायावळी	-11.0278
▁व्यै	-11.0279
▁गांधीनगर	-11.0279
▁आल्वार	-11.0279
▁व्हेल्या	-11.0279
▁केदो	-11.028
▁महेश	-11.0281
▁विलीन	-11.0282
▁ददतना	-11.0282
त्रिम	-11.0282
▁उपाशी	-11.0282
▁बांदिल	-11.0283
▁कपात	-11.0283
▁अखंड	-11.0283
▁सादूर	-11.0283
▁ताकद	-11.0285
▁कृष	-11.0285
▁बुद्द	-11.0286
▁सोबित	-11.0287
▁वंदन	-11.0287
▁हदस	-11.0287
▁कॅप्	-11.0288
धवेशन	-11.0288
▁अख्ख	-11.0288
▁हाडिल्ली	-11.0289
▁कापणी	-11.0289
▁एपाचेर	-11.0289
▁प्रमुख	-11.029
▁हत्या	-11.029
▁चंद्रयान	-11.0291
▁राजपक्ष	-11.0292
▁ऩयफ	-11.0292
▁थापट	-11.0292
▁आर्विल्ल्या	-11.0294
▁चपट	-11.0295
▁मिटर	-11.0296
▁भनम	-11.0296
याष्ट्रऩती	-11.0296
▁पंचावन	-11.0296
▁हारयल	-11.0296
▁आमोज	-11.0297
▁शिकूक	-11.0297
▁रगत	-11.0299
▁मुखावेल	-11.03
▁प्रक्रीय	-11.03
▁र्ॊ	-11.03
▁तुजेकडेन	-11.0303
▁गणित	-11.0303
▁लायल्यात	-11.0304
▁उलोवंक	-11.0307
▁कटक	-11.0308
▁रडटा	-11.0311
▁वेचणूकेखातीर	-11.0312
▁इंडस	-11.0315
ऩती	-11.0321
ग्रेस	-11.0321
▁खावपाक	-11.0322
▁चॅनलाचेर	-11.0323
ोशणा	-11.0324
▁गरजेची	-11.0324
▁ट्रंक	-11.0326
▁रणजी	-11.0328
▁तासां	-11.0329
▁भानार	-11.0335
▁हॉला	-11.0338
▁पोरण	-11.034
▁अंश	-11.0341
▁सरल्यात	-11.0343
▁व्हाव	-11.0348
▁मळाचेर	-11.0358
▁खाटी	-11.0358
▁बसपाच्य	-11.0361
▁पूरव	-11.0363
▁साधतल	-11.0367
▁मार्गाचेर	-11.0367
▁काकु	-11.0375
▁आपणाल	-11.0382
▁सेमीङ्कायनलीं	-11.0382
बंध	-11.0387
▁देल	-11.0387
▁अजुनू	-11.0422
ंजू	-11.0425
नधन	-11.0426
▁तपश	-11.0432
▁आवतर	-11.0432
▁पातळाव	-11.0437
रोवर	-11.0442
▁दशकां	-11.0451
▁रविश	-11.0453
▁काजू	-11.0455
रुद्र	-11.0466
▁व्यंकट	-11.0466
▁घडयले	-11.0467
▁तुमगे	-11.0481
▁वैैै	-11.05
▁आपोव	-11.0529
▁न्हाव	-11.0536
वस्त्रा	-11.0571
▁हैदराबादेंत	-11.0594
▁खेळामाळेतल	-11.0606
▁भियत	-11.0607
▁चळवळीच	-11.0624
▁पुसता	-11.0656
▁आंकड	-11.0681
▁पावयल	-11.069
▁वाडोव	-11.0695
सारखो	-11.0728
▁सभावा	-11.0744
▁विद्य	-11.0761
▁पेटोव	-11.0763
▁हुंवाराच	-11.0775
▁बरयता	-11.0785
ुषण	-11.0795
णावळ	-11.0804
ग्रह	-11.0811
ीएनए	-11.082
्ष	-11.0827
▁मुस्लिमां	-11.0843
▁गाराण	-11.0851
▁शकतल	-11.0853
▁खांड	-11.0884
▁पाकिस्तानातल्या	-11.0887
▁सुदारपा	-11.0889
▁लंडनात	-11.0913
▁उखलू	-11.0922
ुद्द	-11.0922
▁कार्यक्रम	-11.0928
▁वसु	-11.0933
▁वस्तूंच	-11.0936
▁परिसंवादा	-11.0944
▁उंड	-11.0954
▁आपआपल	-11.0955
लाभा	-11.0968
ण्याचे	-11.097
▁जनतेच	-11.0999
▁लोकतांत्र	-11.1009
दोश	-11.1016
▁सत्तेचाळ	-11.1044
▁नाचूं	-11.108
धान्य	-11.1105
जॅन	-11.1109
▁कर्मचाऱ्या	-11.1134
▁प्राधिकरण	-11.1135
▁आपआपल्य	-11.1181
▁कश्मीरांत	-11.1218
▁पावोव	-11.1221
शिष्ट	-11.1224
ायलाम	-11.1266
▁घडणुकां	-11.1294
▁धांवड्यांच	-11.1309
ीसीआय	-11.1326
▁खासदारां	-11.1326
ांत्रीक	-11.1336
कूड	-11.1337
ब्ब	-11.1341
▁निष्	-11.1345
फाफ	-11.1375
▁षटक	-11.1391
▁ुळाव्य	-11.1425
ङ्कुस	-11.1455
ालकृष्ण	-11.1461
राझ	-11.1483
▁पडिल्ल	-11.1487
▁ए्नस	-11.1502
▁येवपाचे	-11.1504
शिश्ट	-11.1535
▁मंजु	-11.1587
र्पण	-11.1613
▁पोतये	-11.1622
▁लेगलेगळ	-11.1631
▁स्मारकाचे	-11.164
▁म्हन्या	-11.1667
संख्य	-11.1676
तदारसंघातल्या	-11.1678
▁भांत्र	-11.1679
▁पेटिल्ल	-11.1684
▁चकचक	-11.1696
दायी	-11.1711
▁सामके	-11.1714
▁म्हामत	-11.1729
▁साखळ	-11.1745
▁उत्तरप्रदेशातल	-11.1757
▁ताज्य	-11.1771
▁समर्थ	-11.1783
▁शेनवार	-11.1796
▁आभच	-11.1816
▁हारीच	-11.1816
संबंधी	-11.1841
मुख्यमंत्री	-11.1841
प्रभाण	-11.1842
सुविधा	-11.1842
▁पुर्विल्ल	-11.1843
सामान्य	-11.1847
शिक्ष	-11.1852
वर्सा	-11.1855
▁पारदर्शक	-11.1858
प्रती	-11.1876
▁कुशळ	-11.1882
ड्यावेल्या	-11.1885
▁गृह	-11.1886
▁मुखेऱ	-11.189
▁विधान	-11.1894
▁पावड्या	-11.1908
▁सहकाय	-11.1917
▁आधुन	-11.1923
▁आयकना	-11.1924
▁संग्र	-11.1925
ंदाजी	-11.1927
द्योग	-11.1931
▁फूडार	-11.1933
▁ग्रँड	-11.1935
▁फांटभू	-11.1935
▁इंग्रज	-11.1935
▁कॉरपोरेशन	-11.1935
▁कोमांदांती	-11.1935
▁तंत्रगिज्ञान	-11.1935
▁पोटवेंचणूक	-11.1935
▁प्राध्यापक	-11.1935
K	-11.1935
मंगळसूत्र	-11.1935
▁199	-11.1935
▁आंथुणा	-11.1935
▁आकाशवाणिच्य	-11.1935
▁उमळशीक	-11.1935
▁ऑक्टोबर	-11.1935
▁किलोमिटर	-11.1935
▁कुडचडें	-11.1935
▁गव्हर्नर	-11.1935
▁ग्लोब	-11.1935
▁ङ्केब्रुवारी	-11.1935
▁चचत्रपटा	-11.1935
▁जनार्दन	-11.1935
▁जीओव्ही	-11.1935
▁टीआरएस	-11.1935
▁डिपिआयआयटी	-11.1935
▁ताकतिकेच	-11.1935
▁तॊत्रर्गन्मा	-11.1935
▁दयोगशाळ	-11.1935
▁दौऱ्या	-11.1935
▁ऩुयस्काय	-11.1935
▁पिस्तोल	-11.1935
▁प्रमोगळाऱा	-11.1935
▁बीएसएनएल	-11.1935
▁बेगीबेगीन	-11.1935
▁भुऱाव्म	-11.1935
▁भॊत्रारमा	-11.1935
▁मनरिजवण	-11.1935
▁मनोरंज	-11.1935
▁महोञ्च्सव	-11.1935
▁मिनेझीस	-11.1935
▁म्हाड्डोळ	-11.1935
▁रहाणे	-11.1935
▁लिमीटेड	-11.1935
▁वचनबध्द	-11.1935
▁वाहिन्यां	-11.1935
▁विटेबाब	-11.1935
▁विधींडळ	-11.1935
▁वेपाऱ्यां	-11.1935
▁वोग्गी	-11.1935
▁व्यवहार	-11.1935
▁शस्त्रास्त्र	-11.1935
▁सूवाळ्या	-11.1935
▁स्थापणुक	-11.1935
▁इंग्लँड	-11.1935
▁जाळवणदार	-11.1935
▁दृष्ट	-11.1935
▁नाविन्य	-11.1935
▁ऩालोलऩा	-11.1935
▁पुतळ्या	-11.1935
▁बहरीना	-11.1935
▁भगतङसं	-11.1935
▁भॊत्रत्रभॊडऱ	-11.1935
▁युएई	-11.1935
▁वसाहती	-11.1935
▁शेर्कुल	-11.1935
▁साबरमती	-11.1935
▁ार्गदर्शन	-11.1935
बरीमाला	-11.1935
▁उभेद	-11.1935
▁जनावरां	-11.1935
▁निर्विकार	-11.1935
▁पैरीकारा	-11.1935
▁प्रयागराज	-11.1935
▁म्िामती	-11.1935
▁लोकतंत्र	-11.1935
▁सरोगसी	-11.1935
▁स्वतः	-11.1935
▁स्वरुप	-11.1935
T	-11.1935
▁तहकू	-11.1935
▁त्रेप्पन	-11.1935
▁दिर्घ	-11.1935
▁राष्ट्रसंघा	-11.1935
▁शिरशिर	-11.1935
▁श्लोक	-11.1935
▁संतोष	-11.1935
▁सार्दिन	-11.1935
▁हटकिल	-11.1935
▁न्युरो	-11.1935
▁यात्रेकरु	-11.1935
▁वाॊगरे	-11.1935
▁विपरीत	-11.1935
▁श्माभा	-11.1935
▁सभ्यता	-11.1935
▁समजिकायेच	-11.1935
▁पोसको	-11.1935
▁मॉन्स	-11.1935
▁रणनिती	-11.1935
▁उमाबाय	-11.1935
▁कारगील	-11.1935
▁तात्पुरत	-11.1935
▁फेगीन	-11.1935
▁लळषण	-11.1935
▁बाकिच्या	-11.1935
▁मिडिया	-11.1935
▁इंडीज	-11.1935
▁करिनासतना	-11.1935
▁किशोर	-11.1935
▁सामुह	-11.1935
▁न्यायाऱया	-11.1935
▁पुरस्कृ	-11.1935
▁भुख्मभंत्र्मान	-11.1935
▁गर्दे	-11.1935
▁पिसोळयां	-11.1935
▁मुदतीच	-11.1935
▁वर्तमान	-11.1935
▁धोयण	-11.1935
▁भमााद	-11.1935
▁अवस्था	-11.1935
▁हत्येच	-11.1935
▁मनीसजाती	-11.1935
▁मळबांत	-11.1935
▁समुहा	-11.1935
▁तुर्की	-11.1935
▁मुळावो	-11.1935
▁सुलतान	-11.1935
▁धडपड	-11.1935
वधानसभ	-11.1935
▁मेळटल्यो	-11.1935
▁पद्धती	-11.1935
भंगा	-11.1935
▁उभारपा	-11.1935
▁मंगेश	-11.1935
▁भविश्य	-11.1935
▁राजभवना	-11.1935
▁इटालीच	-11.1935
▁ए्नया	-11.1935
▁सवलती	-11.1935
▁लवंड	-11.1935
▁वेलंगा	-11.1936
▁कयतरो	-11.1936
▁तिकेट	-11.1936
▁आयएसए	-11.1936
▁वास्तवता	-11.1936
▁कोटवड	-11.1936
▁तियात्र	-11.1936
▁चिरप्यां	-11.1936
▁निरोगी	-11.1936
▁अविस्वास	-11.1936
▁संवेदन	-11.1936
▁जजल्ह	-11.1936
▁विडये	-11.1936
▁जैव	-11.1936
▁प्रळास	-11.1936
▁उभारण	-11.1936
▁सभेचे	-11.1936
▁कामाालऱ	-11.1936
▁मानसिक	-11.1936
▁सुशील	-11.1936
▁सिल्व	-11.1936
▁कपडे	-11.1936
▁जेजू	-11.1936
▁भाटीकार	-11.1936
▁कणकणी	-11.1936
▁सिंगापूर	-11.1936
▁घुसमट	-11.1936
▁सांसद	-11.1936
▁ङ्क्रांन्सिस	-11.1936
▁झुजाऱ्यां	-11.1936
▁प्रक्रीम	-11.1937
▁शक्तीकांत	-11.1937
▁थारायिल्ल्य	-11.1937
▁कुशल	-11.1937
▁अनधवेशन	-11.1937
आयआयटी	-11.1937
▁काश्या	-11.1937
▁दादलो	-11.1937
▁कैला	-11.1937
▁जिल्होधिकाऱ्या	-11.1937
▁दवल्ला	-11.1937
▁रुपांतर	-11.1937
▁बुरद	-11.1937
▁विवेक	-11.1937
▁व्हेली	-11.1937
▁अन्नपूर्ण	-11.1938
▁दोषी	-11.1938
▁आमोणक	-11.1938
▁कल्माण	-11.1938
▁पगार	-11.1938
▁घुस्प	-11.1938
▁नाट्य	-11.1938
▁प्रतिनिधि	-11.1938
▁शंबर	-11.1939
▁जैन	-11.1939
▁निगम	-11.1939
▁शंकू	-11.1939
फयोफ	-11.1939
▁ङ्केर्नां	-11.1939
▁सुचयला	-11.1939
▁ट्रॅक	-11.1939
▁मेळयलो	-11.1939
▁रमण	-11.1939
▁185	-11.1939
▁ङ्कारीक	-11.194
▁चव्हा	-11.194
▁येवजिता	-11.194
▁सामनो	-11.194
▁स्पेस	-11.194
▁ळुब	-11.1941
▁डायवर	-11.1941
▁ठाकुर	-11.1941
▁कोलीड	-11.1942
▁कबलातींचेर	-11.1942
▁बांकार	-11.1942
▁ऩध्दत	-11.1942
▁लवादा	-11.1942
▁आताभेयेन	-11.1943
▁बेनीन	-11.1943
▁सेरेना	-11.1943
▁जिल्यांत	-11.1943
विशेष	-11.1943
▁चिंता	-11.1943
▁आदमी	-11.1944
▁जापसालदारके	-11.1944
▁म्हापशा	-11.1944
▁पोरूं	-11.1944
▁कार्यवाह	-11.1944
▁इंडो	-11.1944
्रिकर	-11.1944
▁कागिरी	-11.1944
▁आडमेळ	-11.1945
▁म्हजेसरी	-11.1945
▁विचित्र	-11.1945
▁हनु	-11.1945
▁बियर	-11.1946
संतोश	-11.1946
▁करीना	-11.1946
▁लक्षाधीश	-11.1946
▁दुसन्या	-11.1947
▁दवल्लो	-11.1947
▁आधुनिक	-11.1947
▁याचिकादार	-11.1948
भांत्रमाांन	-11.1948
▁परीक्षा	-11.1948
ॅम्प	-11.1949
▁तुवाल	-11.195
झर्व	-11.195
▁गुन्यावकार	-11.1951
▁बाबडो	-11.1952
▁अर्थवेवस्थेक	-11.1952
▁सूटाव	-11.1952
▁तरेतरेच	-11.1952
ीटीव्ह	-11.1952
▁होलम	-11.1953
▁टॅन	-11.1953
▁मूर्त	-11.1955
▁लुटल	-11.1955
▁कलाकरांक	-11.1955
▁नोव	-11.1955
▁खेऱ	-11.1956
▁मुद्र	-11.1956
▁तुंब	-11.1957
▁सर्वसा	-11.1957
▁दिपकाव	-11.1958
▁ेळटा	-11.1959
▁दियात	-11.1959
▁डॅश	-11.1959
▁दुबयत	-11.196
▁स्पेन	-11.1961
▁गुल्ल	-11.1961
▁दवरिल्लो	-11.1961
▁भोंवडेकारा	-11.1961
▁उडयता	-11.1961
निसबळ	-11.1961
▁भेऱटा	-11.1962
▁दूसर	-11.1964
▁लागतली	-11.1965
▁समस्येचे	-11.1969
▁खोशे	-11.1969
▁क्षमा	-11.197
▁मोग्म	-11.1971
▁वेतलो	-11.1972
▁पयज	-11.1979
ोरिया	-11.198
▁हजाय	-11.1982
ी्नस	-11.1986
▁भल्लेल	-11.1988
▁फुडारपण	-11.199
▁गयय	-11.1997
ेंकय्	-11.2
▁रोकाां	-11.2003
▁ाहळ	-11.2007
▁थाप	-11.2012
ऩूत	-11.2012
▁युके	-11.2015
▁महत्व	-11.2017
▁घेतील्ल	-11.2019
▁पयल्य	-11.2019
यनाट	-11.2022
ॅन्ड	-11.2042
▁उमथ	-11.2044
े्नट	-11.2044
▁म्हाविद्यालय	-11.2047
▁अर्थमंत्रालया	-11.2058
▁देडशे	-11.2061
▁समुदाय	-11.2071
▁घांट	-11.2073
▁घरमंत्रालया	-11.2086
▁झुंज	-11.2092
ऩीए	-11.21
▁वाडयल	-11.21
रेखा	-11.21
शियल	-11.2104
▁जांका	-11.2111
▁वगडा	-11.2112
नासले	-11.215
सारक्यो	-11.2168
▁चकचकता	-11.218
▁राश्ट्र	-11.2199
▁बाटल्यां	-11.2199
▁वाडयिल्ल	-11.2217
नवाला	-11.2225
राई	-11.2228
▁आंखपा	-11.2235
▁ओनला	-11.2235
▁रोकांच	-11.2241
▁समजीकायेच	-11.228
▁कलेच	-11.2283
ायेद	-11.2299
▁अपुर्बायेच	-11.2301
घघया	-11.2302
त्रत्र	-11.2305
▁दासभट	-11.2318
रसेल	-11.2353
▁एकादल	-11.2402
▁भोवमता	-11.2461
▁मारिल्ले	-11.247
▁उडोवपा	-11.2501
▁अपेक्ष	-11.258
▁अज्	-11.2585
▁थांबल	-11.2601
दोष	-11.262
्हाद	-11.2658
शरद	-11.2662
▁डल्म	-11.2665
▁वाजोव	-11.2677
▁येल्ल	-11.2754
▁करप्यां	-11.2763
ळ्ळी	-11.2772
▁काडु	-11.2804
▁खटल	-11.2871
ाघेल	-11.2883
▁हुवा	-11.2895
▁मागिल्ल	-11.2916
▁मळावेल	-11.292
नाशिल्लें	-11.2922
▁हुपू	-11.2934
▁सोपयल	-11.2935
परळी	-11.2961
▁आडकू	-11.2963
▁उलैत	-11.299
▁पळेल्ले	-11.3016
यूब	-11.3064
पेल्यान	-11.3097
▁स्वातंत्र	-11.3125
▁एकमेका	-11.3133
▁संकु	-11.3136
बियां	-11.3143
▁आचारसंहित	-11.3156
▁हालयल	-11.3236
▁बरयिल्ल	-11.3302
▁राण्या	-11.3324
धिकाऱ्यां	-11.3406
▁खेळामाळे	-11.3468
▁व्य्नत	-11.3479
▁सोंपोव	-11.3537
▁अविल्ल	-11.3542
▁तात्	-11.3544
नाशिल्लो	-11.3622
▁प्रकरणातल	-11.3626
चालिक	-11.3676
▁तंत्रगिन्या	-11.368
▁पांवडया	-11.3693
▁नव्म	-11.3744
▁पिकिल्ल	-11.3757
▁नौदळाच्य	-11.3761
▁राजांगणा	-11.3778
भॊत्री	-11.3785
▁संस्कृ	-11.3801
शास्त्रज्ञ	-11.3839
वावुरप	-11.384
संपर्क	-11.3841
क्षेत्रा	-11.3841
म्हण	-11.3842
म्हाका	-11.3843
उपरांत	-11.3843
सुख	-11.3844
सचिव	-11.3844
शक्ती	-11.3846
नाशिल्ल्यो	-11.3853
भोवतणी	-11.3873
▁अेरीक	-11.3876
▁भंडऱ	-11.3894
मत्त	-11.3901
भागाचे	-11.3903
▁प्लास्ट	-11.3915
▁मुद्या	-11.3921
▁म्हारग	-11.3928
▁गाड्या	-11.393
▁नेमिल्ल	-11.3933
▁डब्ल	-11.3935
C	-11.3935
▁इले्नट	-11.3935
▁इंडस्ट्रीज	-11.3935
▁पाण्टया	-11.3935
▁फ्रान्स	-11.3935
▁मॉस्क	-11.3935
▁म्हत्त्वाच	-11.3935
▁श्रद्धा	-11.3935
,201	-11.3935
g	-11.3935
िष्णू	-11.3935
ोल्युशन	-11.3935
▁अङभने	-11.3935
▁अङ्कगानीस्तान	-11.3935
▁अधिमान्य	-11.3935
▁अपुरबाये	-11.3935
▁अलाहाबाद	-11.3935
▁आंदोलकां	-11.3935
▁आंवडेता	-11.3935
▁आखाड्यांत	-11.3935
▁आबेरतुर	-11.3935
▁आशळल्रे	-11.3935
▁इंटरनेट	-11.3935
▁उझबेकिस्तान	-11.3935
▁ऑयल	-11.3935
▁कन्याकुमारी	-11.3935
▁कुलकर्णी	-11.3935
▁गांबिया	-11.3935
▁गोपाळदाद	-11.3935
▁घुसखोरी	-11.3935
▁चंपारन	-11.3935
▁झगझग	-11.3935
▁डीआरडीओ	-11.3935
▁दस्तावेज	-11.3935
▁दहशदवाद	-11.3935
▁देऊळ	-11.3935
▁देशभ्नती	-11.3935
▁नवरात्रां	-11.3935
▁निरीक्षर	-11.3935
▁निवासस्थाना	-11.3935
▁ऩांलड्मा	-11.3935
▁पडबिंब	-11.3935
▁परीस्थिती	-11.3935
▁पाऊसकार	-11.3935
▁पूरस्कार	-11.3935
▁प्राणवायू	-11.3935
▁प्रिानमंत्	-11.3935
▁फांतोटेर	-11.3935
▁बंडवालो	-11.3935
▁ब्रे्िनसट	-11.3935
▁भुंयकांप	-11.3935
▁भैदाना	-11.3935
▁मडगवा	-11.3935
▁मिरवणुक	-11.3935
▁मुश्टीयोद्धा	-11.3935
▁मुस्तायक	-11.3935
▁म्युजीयम	-11.3935
▁म्हानिरिक्षक	-11.3935
▁यजमानक	-11.3935
▁यवतमाळ	-11.3935
▁याश्ट्रभान्मताम	-11.3935
▁रग्जभफगा	-11.3935
▁रऺणा	-11.3935
▁राफूपती	-11.3935
▁लाभाथ्र्यांक	-11.3935
▁लुधियाना	-11.3935
▁वधेयक	-11.3935
▁वाराणासी	-11.3935
▁विदर्भ	-11.3935
▁वैज्ञानीक	-11.3935
▁श्रीनिवास	-11.3935
▁संपदाङ्क	-11.3935
▁सुलाळ्मा	-11.3935
▁सौंदर्य	-11.3935
▁हाँगकाँग	-11.3935
▁होचमयोपेथी	-11.3935
▁अभिषेक	-11.3935
▁आपरोजगार	-11.3935
▁ऑपरे	-11.3935
▁कर्मच्याऱ्यां	-11.3935
▁कोडहड	-11.3935
▁खाद्यान्न	-11.3935
▁गैरसमज	-11.3935
▁घोंटेर	-11.3935
▁तत्त्व	-11.3935
▁तळागळा	-11.3935
▁दुरदर्श	-11.3935
▁प्रङ्कुल्ल	-11.3935
▁बळग्यार	-11.3935
▁बाकीबाब	-11.3935
▁ब्रदर्स	-11.3935
▁ब्रॉडब	-11.3935
▁महालेखा	-11.3935
▁मुस्लीम	-11.3935
▁राबीत्या	-11.3935
▁लाॊगडी	-11.3935
▁विडंबन	-11.3935
▁शळऺण	-11.3935
▁सैैैैम	-11.3935
▁आमळल्ल्मा	-11.3935
▁इतमामान	-11.3935
▁कफरात	-11.3935
▁गडबड	-11.3935
▁चो्नसी	-11.3935
▁प्रायोग	-11.3935
▁फक्कत	-11.3935
▁महिऱा	-11.3935
▁मार्केट	-11.3935
▁वेळापत्रक	-11.3935
▁वॉरियर	-11.3935
▁साक्षरता	-11.3935
▁Sa	-11.3935
▁ककतरेळ	-11.3935
▁कवायती	-11.3935
▁निमंत्र	-11.3935
▁भत्त्यां	-11.3935
▁सत्याग्रह	-11.3935
▁सव्वीस	-11.3935
▁सश्नत	-11.3935
▁ब्युरो	-11.3935
▁xi	-11.3935
▁आतानासि	-11.3935
▁क्रुझ	-11.3935
▁गार्फ	-11.3935
▁दुतावास	-11.3935
▁नोयडा	-11.3935
▁न्हवरे	-11.3935
▁बुडकुल्या	-11.3935
▁उघडून	-11.3935
▁भोशीभ	-11.3935
▁शळक्षण	-11.3935
▁उपासमारी	-11.3935
▁व्लादी	-11.3935
▁शिंयाळ	-11.3935
▁गैरहज	-11.3935
▁ज्योतिश	-11.3935
▁दादरा	-11.3935
▁बिकानेर	-11.3935
▁म्हुर्त	-11.3935
▁आगुस्त	-11.3935
▁उपस्थीत	-11.3935
▁धिटाये	-11.3935
▁उत्साह	-11.3935
▁लढयतल	-11.3935
▁स्पर्श	-11.3935
वॉर्टर	-11.3935
▁इलॅ्नट्र	-11.3935
▁लग्नादिसा	-11.3935
▁प्रतिश्ठेच	-11.3935
▁म्हाभाग	-11.3935
▁इस्लाम	-11.3935
▁कुडके	-11.3935
▁खबरापत्रा	-11.3935
▁म्हाभायी	-11.3935
▁दत्तूभट	-11.3935
▁जागरुक	-11.3935
▁म्हाभॊडऱा	-11.3935
▁रामनमीच	-11.3935
निसर्ग	-11.3935
▁एकात्मत	-11.3935
▁नुतन	-11.3935
▁लीजभंत्र	-11.3935
मांत्रणा	-11.3935
▁निरक्षर	-11.3935
▁्नयु	-11.3935
▁वल्लभ	-11.3935
▁ध्वनी	-11.3935
▁वास्तवतेच	-11.3935
▁पयशांच	-11.3935
▁बुध्दी	-11.3935
एचओच	-11.3935
▁उजलाड	-11.3935
▁लँड	-11.3936
▁जैतीवंत	-11.3936
▁परीशद	-11.3936
▁दीसपट्ट	-11.3936
▁गडगड	-11.3936
▁कारखान	-11.3936
▁डब्ल्यू	-11.3936
▁फेकामद	-11.3936
▁वध्मा	-11.3936
▁प्रविण	-11.3936
▁सड्यार	-11.3936
▁आस्वासन	-11.3936
▁बाकीची	-11.3936
▁निर्णाय	-11.3936
▁शिश्यवृत्	-11.3936
▁पसरकार	-11.3936
▁तस्करी	-11.3936
▁भेऱटरे	-11.3936
▁सत्त्यात्तर	-11.3936
▁विक्रेत्यां	-11.3936
▁कांपाल	-11.3936
▁ंडळाच	-11.3936
▁प्रवचन	-11.3936
▁कदंब	-11.3936
▁रेषे	-11.3936
▁कवळेंच	-11.3936
▁साळगांवकार	-11.3936
▁गुलाम	-11.3936
▁ऩेंट	-11.3936
▁मिशेल	-11.3936
▁हांगासल्ल्या	-11.3936
▁वटयां	-11.3937
▁किताब	-11.3937
▁लक्ष्मणराव	-11.3937
▁वलळम	-11.3937
▁पनेळ	-11.3937
▁व्याकरण	-11.3937
▁मोसम	-11.3937
▁कागदपत्रा	-11.3937
▁ऋहायती	-11.3937
▁फाजाय	-11.3937
▁रगलो	-11.3937
▁सर्वांगी	-11.3937
▁व्यक्तीचित्र	-11.3937
▁मध्यस्ती	-11.3937
▁लाठायाॊन	-11.3937
▁रिजिज	-11.3937
▁तें्नया	-11.3937
▁उपभो	-11.3938
▁2009	-11.3938
▁धावंड्य	-11.3938
▁पिकावळी	-11.3938
▁पियू	-11.3938
▁म्ि	-11.3938
▁हुयेल	-11.3938
▁लाॊट	-11.3938
▁कन्नड	-11.3938
▁सक्षम	-11.3938
ुकुम	-11.3938
▁फूडारपणा	-11.3938
▁फसि	-11.3938
▁तेरेझ	-11.3938
▁अवतार	-11.3938
▁दैव	-11.3938
▁सार्थक	-11.3938
▁ओणम	-11.3938
्िनस	-11.3938
▁कायभम	-11.3938
▁म्हायते	-11.3938
▁ङ्कोगाच	-11.3938
▁प्रतिबंद	-11.3938
▁फायद	-11.3939
er	-11.3939
st	-11.3939
▁गुरूदास	-11.3939
▁समित्यां	-11.3939
▁वाजेलो	-11.3939
▁रांगो	-11.3939
ाांगऱे	-11.3939
▁व्यसन	-11.3939
▁आयोऩ	-11.3939
▁र्चना	-11.394
▁ऩंगड	-11.394
▁शेनरी	-11.394
न्द्र	-11.394
▁इस्पि	-11.394
▁पाताळ	-11.394
▁रसिकां	-11.394
▁मुल्यांकन	-11.3941
ोगाद	-11.3941
▁लाांट	-11.3941
▁तातूंन	-11.3941
▁सांख्य	-11.3941
▁कितलोसो	-11.3941
ॉम्ब	-11.3941
▁प्रसाय	-11.3941
▁विकासकामा	-11.3942
टलइ	-11.3942
▁माथ्यांत	-11.3942
▁जर्मन	-11.3942
▁माजर	-11.3942
▁पुनवे	-11.3943
▁हिसपा	-11.3943
▁भेऱऱा	-11.3943
▁फुलता	-11.3943
▁यमाक	-11.3943
▁वेर्ण	-11.3943
▁जिल्लोधिकाऱ्या	-11.3943
▁धोनी	-11.3943
ुंबय	-11.3943
▁सिंधी	-11.3944
▁परेड	-11.3944
▁घोंस	-11.3944
▁प्राथ	-11.3944
▁केसरबा	-11.3945
▁पुरोवपा	-11.3945
▁बसोवपाच	-11.3945
▁घराघरां	-11.3945
▁उबाल्ल	-11.3945
▁जनयर	-11.3945
▁उद्दी	-11.3945
क्कम	-11.3946
▁वभज	-11.3946
▁व्याप्त	-11.3946
▁आडमेळीं	-11.3947
▁लखदा	-11.3947
▁रट्टा	-11.3948
णखण	-11.3948
▁थाल्ले	-11.3948
▁एकाद्या	-11.3948
▁खंडपिठ	-11.3948
म्हण्टकूच	-11.3949
▁शास्त्री	-11.3949
▁दोहा	-11.395
▁शरण	-11.395
▁भल्ला	-11.395
शवरा	-11.3953
▁परमी	-11.3953
▁मेळयिल्ले	-11.3953
▁कोर्टा	-11.3954
▁तंबा	-11.3955
▁बाजू	-11.3955
▁उडैल	-11.3959
▁सपणां	-11.3961
▁पोसव	-11.3961
▁ळकता	-11.3962
▁रक्ताच	-11.3965
▁पेपर	-11.3965
ावचोन्हय	-11.3967
▁शिंगा	-11.397
▁चळवळींत	-11.3972
▁संफं	-11.3973
▁दाखयल्ल	-11.3975
▁पुडव	-11.3975
यलइ	-11.3977
▁वलजेच	-11.3979
▁मुद्द्यां	-11.3979
्रक्रक	-11.3982
▁तसले	-11.3984
▁कणस	-11.3984
▁जीणेच	-11.3987
▁मत्वाच	-11.3995
▁तसे	-11.3996
▁आपणायल	-11.3997
▁दिसभरा	-11.3999
▁सुव्यवस्थ	-11.4001
मेट्रीक	-11.4001
सकुळये	-11.4009
ॅरीस	-11.4012
▁करतऱ	-11.4014
रांदपाच	-11.4022
हुनी	-11.4025
▁रांदच	-11.4033
वलांद	-11.4042
▁धाकट	-11.4051
प्रयाग	-11.4064
▁दऱाच	-11.4078
▁सुमनाकडे	-11.4111
▁ननश्	-11.4127
पक्षपात	-11.4137
शास्त्र	-11.4156
▁सुचयले	-11.4168
▁ओगी	-11.4282
ट्रीक	-11.4293
रुणा	-11.4299
▁निर्भय	-11.4305
▁फाटीफुडे	-11.4309
▁आभच्म	-11.4341
▁उबारिल्ल	-11.4343
▁वळखीच	-11.4408
स्रोत	-11.4417
ेल्थ	-11.4427
▁ऑस्ट्रेलिय	-11.4439
▁चौहा	-11.45
एनएस	-11.452
ग्रेट	-11.4524
▁आर्विल्ल	-11.4547
पध्दती	-11.4693
कांक्ष	-11.4719
बॉडी	-11.4785
ािंन	-11.4787
याष्ट्र	-11.4828
▁उचेल	-11.4853
▁फोडू	-11.4856
▁नांवांच	-11.4884
शिल्ड	-11.4927
टीका	-11.4951
▁डिस्	-11.506
▁हालोव	-11.5076
लिख	-11.5116
▁पायाभ	-11.5324
मसलत	-11.5401
▁प्रचारसभे	-11.5432
▁ंचाच	-11.5448
मस्टॅक	-11.5555
ाटभूये	-11.5556
▁मिनटा	-11.5574
ाकडल्मा	-11.5642
र्शल	-11.5687
ृत्ती	-11.5818
▁दाखोव	-11.5853
ांमदले	-11.5946
▁व्यवस्थ	-11.5981
▁गोरवा	-11.5985
आयआर	-11.5986
▁स्थाप	-11.6164
▁ङ्कायनल	-11.6189
▁शुक्रार	-11.6227
्रागां	-11.6291
▁अर्थव्यवस्थ	-11.6294
ङ्कायनलीत	-11.631
वेगळे	-11.6319
डटकच	-11.6334
माध्यम	-11.6337
उद्देश	-11.634
निरीक्षक	-11.634
लागसार	-11.6341
मु्नत	-11.6341
सुंदर	-11.6342
जागृताय	-11.6342
लश्कर	-11.6342
मागीर	-11.6343
कुंभ	-11.6344
विकास	-11.6345
▁ांच्म	-11.6365
▁दिव्यांच	-11.6381
▁अभ्यासक्र	-11.6394
▁प्रक्रि	-11.6403
▁आशिल्ल	-11.6406
वस्थेत	-11.6409
▁क्रिके	-11.641
▁युरोप	-11.6421
▁अभियांत्र	-11.6426
ांटभुये	-11.6429
ेळ्ळ्या	-11.6429
प्रणालीच	-11.643
ांगणांत	-11.643
▁जिल्लोधिका	-11.6431
त्येका	-11.6432
▁रॉयल	-11.6434
▁काँग्र	-11.6434
▁भुख्मभंत्र	-11.6435
▁absurd	-11.6435
▁सॉफ्ट	-11.6435
ॅ्नचर	-11.6435
▁हॉस्पि	-11.6435
भौमत	-11.6435
▁असोसिएशना	-11.6435
▁आयसलँडा	-11.6435
▁कायाऽवळी	-11.6435
▁क्रेडाय	-11.6435
▁नवरात्रोत्सव	-11.6435
▁पतधोरण	-11.6435
▁प्लॅटङ्को	-11.6435
▁प्लॉगींग	-11.6435
▁बाऊवाशेफ	-11.6435
▁मंगोलीया	-11.6435
▁मोजाम्बीका	-11.6435
▁वावूरप	-11.6435
▁शिपयार्डा	-11.6435
▁स्पुटनिक	-11.6435
,197	-11.6435
N	-11.6435
w	-11.6435
नैसर्ग	-11.6435
़ड़त	-11.6435
ेंटिलेटर	-11.6435
ौैैै	-11.6435
’	-11.6435
▁ंतवणूक	-11.6435
▁अंडरपास	-11.6435
▁अधिसूचोवण	-11.6435
▁अर्जेंटिना	-11.6435
▁आणीबाणी	-11.6435
▁आयस्फ्रूट	-11.6435
▁आशळल्री	-11.6435
▁आशिर्वाद	-11.6435
▁आश्रयघरां	-11.6435
▁इस्त्रायल	-11.6435
▁इुर्फीं	-11.6435
▁उत्सर्जन	-11.6435
▁एजंसी	-11.6435
▁कंट्रोल	-11.6435
▁कथासाहित्या	-11.6435
▁कर्तारपूर	-11.6435
▁काठमांडू	-11.6435
▁किण्ण	-11.6435
▁कुडचड्या	-11.6435
▁कुरूबावल	-11.6435
▁कॉरिडोर	-11.6435
▁कोलकत्त्आ	-11.6435
▁गर्वनर	-11.6435
▁ग्राभस्थां	-11.6435
▁घडामोडी	-11.6435
▁घुसखोरां	-11.6435
▁जोकोविक	-11.6435
▁झिळमिळ	-11.6435
▁टॅ्ननोलोज	-11.6435
▁टोकियो	-11.6435
▁तत्परत	-11.6435
▁तालिबान	-11.6435
▁दमातदेग	-11.6435
▁दुरूथती	-11.6435
▁दृश्टीको	-11.6435
▁ननमंत्रण	-11.6435
▁नागालँड	-11.6435
▁निरीक्षण	-11.6435
▁नुस्त्या	-11.6435
▁नौदला	-11.6435
▁न्युयॉर्क	-11.6435
▁पररऴदे	-11.6435
▁पाझरता	-11.6435
▁पुश्प	-11.6435
▁पॅट्रोलिय	-11.6435
▁पेनोरमा	-11.6435
▁प्रतिज्ञापत्रा	-11.6435
▁प्रत्यार्पण	-11.6435
▁फुतफुतल	-11.6435
▁फ्ल्यू	-11.6435
▁बायोभटीण	-11.6435
▁बेंगलोर	-11.6435
▁बेरोजगार	-11.6435
▁बेल्जियमा	-11.6435
▁बोपण्णा	-11.6435
▁बोलिविया	-11.6435
▁भंबत्रभडऱा	-11.6435
▁भहाभायी	-11.6435
▁भुराखत	-11.6435
▁भूरगी	-11.6435
▁मडवळणी	-11.6435
▁मल्लिकार्ज	-11.6435
▁माटोळी	-11.6435
▁मुजाहिद्द	-11.6435
▁म्शाभागा	-11.6435
▁म्हाराश्ट्रा	-11.6435
▁युनायटेड	-11.6435
▁रळीन्द्रबाबाां	-11.6435
▁रुग्णवाहिका	-11.6435
▁लाळीनीकयण	-11.6435
▁लॅबोरेटरी	-11.6435
▁लेलस्थे	-11.6435
▁वार्तालाप	-11.6435
▁विनायकबाब	-11.6435
▁विश्वविद्यालया	-11.6435
▁विसुदाद	-11.6435
▁वॊभेरना	-11.6435
▁व्हिएतनाम	-11.6435
▁संकेतथळ	-11.6435
▁सप्ताह	-11.6435
▁सबलीकरणा	-11.6435
▁सभ्यते	-11.6435
▁समपदस्थ	-11.6435
▁सलभती	-11.6435
▁सिड्रेला	-11.6435
▁सुत्रधारां	-11.6435
▁सुविधे	-11.6435
▁सोंड्यार	-11.6435
▁स्लोवानिया	-11.6435
▁स्वच्छाग्रही	-11.6435
▁हस्तक्षेप	-11.6435
▁हॅलीकॉप्टर	-11.6435
▁िुरस्कार	-11.6435
-19	-11.6435
▁1510	-11.6435
▁अङ्कगाण	-11.6435
▁अद्भूत	-11.6435
▁आत्विश्वास	-11.6435
▁आमुलेद	-11.6435
▁इष्टागत	-11.6435
▁उचंबळ	-11.6435
▁उदद्ेग	-11.6435
▁काट्टालो	-11.6435
▁कुश्ठरोग	-11.6435
▁कृतज्ञताय	-11.6435
▁गाझियाबाद	-11.6435
▁गुंतागुंतीच	-11.6435
▁चर्चासत्रां	-11.6435
▁डिझायन	-11.6435
▁दासूभट	-11.6435
▁नेगेदटव्ह	-11.6435
▁ऩाउस्क	-11.6435
▁पुड्डुचेरी	-11.6435
▁पुर्नवस	-11.6435
▁बौद्ध	-11.6435
▁ब्राझील	-11.6435
▁भ्रश्टाचार	-11.6435
▁महोङसवा	-11.6435
▁महोम्मद	-11.6435
▁मुज्गाच	-11.6435
▁मुहूर्त	-11.6435
▁म्हासंघा	-11.6435
▁वयनीबाय	-11.6435
▁वस्तुसंग्रहालय	-11.6435
▁विशाणु	-11.6435
▁सुन्दर	-11.6435
दृश्टी	-11.6435
▁अॅन्टी	-11.6435
▁आपाभट	-11.6435
▁कठोरपण	-11.6435
▁कल्पक	-11.6435
▁ङतयाक	-11.6435
▁टक्क्म	-11.6435
▁धाांलगड	-11.6435
▁पत्तो	-11.6435
▁बेळगांव	-11.6435
▁रशिद	-11.6435
▁सांपळया	-11.6435
▁सामर्थ्य	-11.6435
▁सोसायटी	-11.6435
▁आंगापांगा	-11.6435
▁वायंगणक	-11.6435
▁श्रवरोध	-11.6435
▁संघर्श	-11.6435
▁अनुसुच	-11.6435
▁अस्पष्ट	-11.6435
▁उद्गारल	-11.6435
▁ऑलिंप	-11.6435
▁गाडेकार	-11.6435
▁प्रभयण	-11.6435
▁राजदुतां	-11.6435
▁रॉड्रिग्	-11.6435
ांदकाभ	-11.6435
▁फडफड	-11.6435
▁भजगती	-11.6435
▁लाठायाॊि	-11.6435
▁एनसीपी	-11.6435
▁कटीबद्	-11.6435
▁कॅडिल	-11.6435
▁प्रस्नोत्तराच	-11.6435
▁शांतिकाय	-11.6435
▁अंजना	-11.6435
▁चरित्र	-11.6435
▁ऩालण्मा	-11.6435
▁शिताडो	-11.6435
▁शिल्पक	-11.6435
▁सक्रिय	-11.6435
▁सांभाळ	-11.6435
▁absurdis	-11.6435
▁आयएएस	-11.6435
▁ओदिशा	-11.6435
▁काकूयट	-11.6435
▁सिडनींत	-11.6435
▁क्लासी	-11.6435
▁ऩायदळ	-11.6435
▁वॊचार	-11.6435
▁सणसण	-11.6435
▁स्टोअर	-11.6435
▁छापखान	-11.6435
▁नाबार्ड	-11.6435
▁बाज्ज्म	-11.6435
▁बारीकसाणे	-11.6435
▁मेळ्ळया	-11.6435
▁सीतारम	-11.6435
▁अधिकारिणी	-11.6435
▁कार्यकारिणी	-11.6435
▁हुंदीर	-11.6435
▁कांश्या	-11.6435
▁गायतोंड	-11.6435
▁द्रळास	-11.6435
▁नामांकना	-11.6435
▁मसुद	-11.6435
▁म्शत्ल	-11.6435
▁ठेवी	-11.6435
▁ओडिपी	-11.6435
▁म्हत्लाच	-11.6435
▁सुस्कार	-11.6435
▁हुस्क्या	-11.6435
थापणूक	-11.6435
▁गहइ	-11.6435
▁श्वेत	-11.6435
मळल्रो	-11.6435
▁बऱ्यो	-11.6435
▁उपरास	-11.6435
▁ङ्कुगड	-11.6435
▁महाभारत	-11.6435
▁राबोवपा	-11.6435
उपरान्त	-11.6435
▁ऩणजे	-11.6435
▁सोलापुर	-11.6435
▁स्वप्न	-11.6435
ड्रिग	-11.6435
▁जनहित	-11.6435
▁घांसून	-11.6435
▁मलनिस	-11.6435
▁घडोवं	-11.6435
▁ध्वज	-11.6435
▁बंधु	-11.6435
▁अरयश्ट	-11.6435
▁बिल्डर	-11.6435
▁परथून	-11.6435
▁मशिन	-11.6435
▁मटक्या	-11.6435
▁खारवड	-11.6435
▁मधुकरा	-11.6435
▁मागयल्यात	-11.6435
▁शिकागो	-11.6435
इसीआय	-11.6435
▁ड्रग	-11.6436
▁ऋषी	-11.6436
▁ऩाॊल	-11.6436
▁तोखेत	-11.6436
▁श्रेय	-11.6436
▁दिसपट्ट	-11.6436
▁वरोध	-11.6436
▁पांगरू	-11.6436
▁पॅट्र	-11.6436
▁इरेक्	-11.6436
▁लॅब	-11.6436
▁हळशीक	-11.6436
▁स्तनां	-11.6436
▁शेतकाऱ्यां	-11.6436
▁एकदोन	-11.6436
ब्ध	-11.6436
डिओ	-11.6436
▁गंगाग्रामा	-11.6436
▁ककतल्म	-11.6436
▁साऊद	-11.6436
▁मधु	-11.6436
▁पुरुम	-11.6436
▁कोळशाच	-11.6436
▁एटीए	-11.6436
▁कपिल	-11.6436
▁कवळून	-11.6436
▁महाबलीप	-11.6436
▁तथ्य	-11.6436
▁न्हवयाच	-11.6436
ंगणवाडी	-11.6436
▁ट्रेड	-11.6436
▁ल्शा	-11.6436
▁हॉटम्	-11.6436
▁नॉर्वेच	-11.6436
▁कपड्या	-11.6436
▁देऴ	-11.6436
▁ङ्काट्यां	-11.6436
▁वरूण	-11.6436
▁चिंबल	-11.6436
▁पुनिया	-11.6436
▁गयंय	-11.6436
▁नमुन्यां	-11.6436
▁तांदळाच	-11.6436
▁राजपथ	-11.6437
▁व्शड	-11.6437
▁भत्लाच	-11.6437
ॊत्रण	-11.6437
▁संयोज	-11.6437
▁इजि	-11.6437
▁गाभो	-11.6437
़्या	-11.6437
▁नाभनेच	-11.6437
▁सगळं	-11.6437
▁अगधका	-11.6437
▁दुखापत	-11.6437
▁मेळील्ले	-11.6437
▁अॊतय	-11.6437
▁चर्ये	-11.6437
▁समंध	-11.6437
▁इत्से	-11.6437
▁भाबड	-11.6437
▁श्यामा	-11.6437
/	-11.9768
R	-12.4672
ऐ	-12.4674
९	-12.4676
,	-12.4677
ॲ	-12.4768
H	-12.4768
Y	-12.4768
[	-12.4768
:	-13.4682
F	-13.4748
ऻ	-13.4749
O	-13.475
X	-13.4751
–	-13.4752
B	-13.4753
P	-13.4754
।	-13.4755
l	-13.4756
”	-13.4757
n	-13.4758
d	-13.4759
*	-13.476
;	-13.4761
ऺ	-13.4762
ऑ	-13.4763
)	-13.4764
ञ	-13.4765
!	-13.4766
ौ	-13.4767
"	-13.4768
%	-13.4768
G	-13.4768
J	-13.4768
L	-13.4768
\	-13.4768
j	-13.4768
k	-13.4768
~	-13.4768
ॆ	-13.4768
॥	-13.4768
에	-13.4768
?	-13.4769
z	-13.4769
