<unk>	0
<s>	0
</s>	0
ां	-0
्य	-1
▁.	-2
▁क	-3
्या	-4
▁,	-5
▁आ	-6
▁स	-7
ें	-8
▁त	-9
▁ह	-10
▁म	-11
▁प	-12
णी	-13
▁व	-14
ार	-15
▁द	-16
▁ज	-17
ों	-18
नी	-19
▁जा	-20
▁)	-21
▁(	-22
र्	-23
▁आनी	-24
▁न	-25
ोंक	-26
▁कोंक	-27
▁कोंकणी	-28
ली	-29
▁भ	-30
्र	-31
ांत	-32
लो	-33
▁1	-34
ाच	-35
▁अ	-36
▁ग	-37
▁दि	-38
ल्	-39
ती	-40
▁उ	-41
स्	-42
ले	-43
▁तां	-44
ाव	-45
ल्या	-46
सा	-47
ता	-48
्ह	-49
लें	-50
▁ह्या	-51
▁र	-52
▁सा	-53
▁भा	-54
ान	-55
▁के	-56
ला	-57
ून	-58
▁हां	-59
▁म्ह	-60
▁सं	-61
ित	-62
▁ख	-63
ची	-64
▁ना	-65
शें	-66
▁ब	-67
▁कर	-68
वा	-69
▁घ	-70
शे	-71
ुर	-72
▁19	-73
हित	-74
▁साहित	-75
ीक	-76
▁फ	-77
ोंय	-78
▁गोंय	-79
कां	-80
क्	-81
मा	-82
च्या	-83
▁वर्	-84
ीं	-85
ेर	-86
का	-87
ेव	-88
ना	-89
▁ला	-90
कार	-91
▁प्र	-92
▁च	-93
▁तांणी	-94
▁य	-95
▁वि	-96
▁ए	-97
क्ष	-98
▁साहित्य	-99
ंक	-100
ेन	-101
िल्	-102
▁2	-103
ोव	-104
ीत	-105
▁श	-106
▁खा	-107
▁लाग	-108
चो	-109
ाय	-110
▁हांणी	-111
पाच	-112
▁वर्सा	-113
स्त	-114
ूण	-115
ेळ	-116
ांव	-117
चें	-118
चे	-119
ाक	-120
▁ते	-121
्यो	-122
▁का	-123
▁पु	-124
त्	-125
▁आस	-126
▁मु	-127
तीर	-128
▁आप	-129
▁सुर	-130
▁उप	-131
▁संस्	-132
▁आद	-133
▁आय	-134
▁वा	-135
▁भास	-136
▁मा	-137
ुन	-138
▁मो	-139
रांत	-140
▁दिव	-141
▁खातीर	-142
▁पय	-143
▁एक	-144
▁जाव	-145
मी	-146
▁दिसा	-147
▁तशें	-148
ांनी	-149
▁कार	-150
ल्यान	-151
▁पुस्त	-152
बर	-153
▁तशेंच	-154
▁उपरांत	-155
19	-156
माण	-157
▁नि	-158
▁अशे	-159
▁मेळ	-160
▁भाशे	-161
▁रा	-162
िक्ष	-163
ंद	-164
्ट	-165
▁दे	-166
▁सर	-167
▁करुन	-168
▁इ	-169
▁तर	-170
▁हे	-171
ंत	-172
वळ	-173
ीस	-174
ोवन	-175
▁पुर	-176
▁पूण	-177
▁ड	-178
तीन	-179
▁18	-180
▁हा	-181
▁हो	-182
ळ्या	-183
▁संस्थ	-184
लीं	-185
ांड	-186
▁पर	-187
▁लो	-188
▁जाय	-189
▁कार्या	-190
टा	-191
,19	-192
▁घेव	-193
▁मान	-194
▁वाव	-195
▁लागून	-196
ल्यो	-197
▁सुरु	-198
गीत	-199
ेंबर	-200
▁हें	-201
▁जाल्	-202
ाल	-203
▁ल	-204
तात	-205
ांय	-206
्री	-207
▁अशें	-208
▁नांव	-209
▁वावर	-210
▁सरकार	-211
▁कार्यावळ	-212
▁आसा	-213
▁केल्	-214
▁म्हूण	-215
टक	-216
दे	-217
शी	-218
▁ध	-219
▁20	-220
▁स्	-221
▁येव	-222
ताय	-223
र्थ	-224
▁कड	-225
्यांत	-226
पा	-227
चार	-228
पाक	-229
र्म	-230
श्ट	-231
▁सग	-232
▁वां	-233
▁केली	-234
▁पुस्तक	-235
ंय	-236
कृ	-237
वे	-238
ास	-239
ध्य	-240
ींत	-241
▁मुख	-242
▁कांय	-243
दर	-244
▁चड	-245
▁बर	-246
▁ले	-247
▁सु	-248
▁त्या	-249
▁जालें	-250
ेल	-251
ावन	-252
▁ति	-253
▁दो	-254
▁पड	-255
▁रि	-256
▁ही	-257
शिल्	-258
ेरेन	-259
▁अका	-260
▁देख	-261
▁जाली	-262
▁मेरेन	-263
▁रितीन	-264
पी	-265
ाप	-266
्रि	-267
▁काळ	-268
▁ताच	-269
▁माग	-270
▁हाड	-271
ळ्यार	-272
▁आदीं	-273
▁केलो	-274
▁प्रमाण	-275
▁म्हळ्यार	-276
यक	-277
ांक	-278
ेंत	-279
▁..	-280
▁घे	-281
▁तु	-282
पाची	-283
▁धर्म	-284
▁नायक	-285
िस	-286
▁मोड	-287
▁शिक्ष	-288
▁तांकां	-289
टो	-290
ठी	-291
वी	-292
ोड	-293
ांच	-294
ूंक	-295
▁फु	-296
▁भार	-297
▁जालो	-298
▁जाल्या	-299
णा	-300
तर	-301
ाद	-302
▁थ	-303
माज	-304
▁इत	-305
,198	-306
पाचो	-307
▁डिस	-308
▁भाश	-309
▁सां	-310
▁वर्स	-311
▁लेगीत	-312
▁डिसेंबर	-313
ंड	-314
ंब	-315
ोज	-316
बार	-317
▁दा	-318
▁रु	-319
देमी	-320
द्या	-321
▁...	-322
▁पाव	-323
▁वेळ	-324
पाचें	-325
▁अध्य	-326
▁अकादेमी	-327
▁अध्यक्ष	-328
▁साहित्या	-329
ंग	-330
की	-331
जी	-332
रा	-333
ाळ	-334
लां	-335
वात	-336
ाची	-337
ारी	-338
▁गे	-339
▁घड	-340
▁ती	-341
▁दु	-342
ांवड	-343
▁लोक	-344
▁पांवड	-345
▁साबार	-346
▁विद्या	-347
▁गोंयांत	-348
पण	-349
ेग	-350
▁3	-351
▁:	-352
यार	-353
▁गो	-354
▁हि	-355
▁194	-356
▁घेत	-357
▁रुप	-358
▁सर्	-359
ाच्या	-360
▁आयोज	-361
▁कडेन	-362
▁निर्	-363
▁म्हण	-364
▁केलें	-365
▁जावंक	-366
▁संस्कृ	-367
▁पुस्तकां	-368
▁विद्यार्थ	-369
र्न	-370
▁15	-371
▁रच	-372
▁उतर	-373
▁काड	-374
▁दिस	-375
▁दोन	-376
▁फुड	-377
▁मार	-378
▁राज	-379
▁स्थ	-380
ांडीस	-381
▁घेवन	-382
▁जायत	-383
▁फर्न	-384
▁आपल्या	-385
▁आयोजीत	-386
▁फर्नांडीस	-387
द्	-388
मन	-389
यर	-390
रे	-391
िह	-392
जवा	-393
त्त	-394
ळें	-395
ाचो	-396
▁पण	-397
जवाड	-398
िहास	-399
▁198	-400
▁तुम	-401
▁मरा	-402
▁हेर	-403
▁आपले	-404
▁क्रि	-405
▁तयार	-406
▁समाज	-407
▁सावन	-408
▁हिंद	-409
▁उजवाड	-410
▁लोकां	-411
▁इतिहास	-412
▁मोडींत	-413
▁निर्माण	-414
गड	-415
मण	-416
ंबय	-417
दीक	-418
▁को	-419
▁ने	-420
▁पळ	-421
▁रो	-422
▁सो	-423
ाचेर	-424
▁193	-425
▁कर्	-426
▁तें	-427
▁दाख	-428
▁विश	-429
▁व्ह	-430
▁जाले	-431
ांच्या	-432
▁आशिल्	-433
▁मराठी	-434
▁मुंबय	-435
▁मुखेल	-436
▁वेळार	-437
▁संस्थे	-438
भा	-439
सो	-440
▁ऑ	-441
तीय	-442
द्र	-443
▁उर	-444
▁डॉ	-445
▁शि	-446
नाटक	-447
शेंत	-448
स्ती	-449
▁कें	-450
▁फाव	-451
▁गोवा	-452
▁तांत	-453
▁पुरु	-454
▁मांड	-455
▁केंद्र	-456
▁धर्मीक	-457
▁परिक्ष	-458
▁भारतीय	-459
▁भाशेंत	-460
▁कर्नाटक	-461
▁जाल्यार	-462
▁तांच्या	-463
▁पांवड्या	-464
टी	-465
लय	-466
वर	-467
षो	-468
िय	-469
तना	-470
त्न	-471
सार	-472
▁16	-473
▁वळ	-474
त्तम	-475
ाचें	-476
▁दुस	-477
षोत्तम	-478
्यांनी	-479
▁तांची	-480
▁पयलें	-481
▁मागणी	-482
▁मान्य	-483
▁कार्यावळी	-484
▁पुरुषोत्तम	-485
बा	-486
िप	-487
▁4	-488
▁5	-489
काश	-490
त्र	-491
त्व	-492
र्श	-493
▁ता	-494
▁मळ	-495
ाराय	-496
ेचें	-497
▁अशी	-498
▁आसप	-499
▁कवी	-500
▁वेग	-501
लादीक	-502
▁दिता	-503
▁दिवन	-504
▁पणजी	-505
▁मार्	-506
▁यत्न	-507
▁रोमी	-508
▁घडोवन	-509
▁देखून	-510
▁गोंयची	-511
▁प्रचार	-512
▁उजवाडाक	-513
▁परिक्षा	-514
▁मोलादीक	-515
▁संस्कृताय	-516
ळी	-517
▁?	-518
टात	-519
ाचे	-520
ूंत	-521
▁भर	-522
▁मन	-523
▁ये	-524
वाणी	-525
्यान	-526
▁200	-527
▁201	-528
▁उलो	-529
▁थंय	-530
▁दीस	-531
▁राव	-532
ांचेर	-533
ारायण	-534
▁आकाश	-535
▁जाता	-536
▁जावन	-537
▁दिली	-538
▁देशी	-539
▁पयलो	-540
▁तांचो	-541
▁भाशीक	-542
▁वांटो	-543
▁संगीत	-544
▁स्थाप	-545
▁नारायण	-546
▁आकाशवाणी	-547
of	-548
▁!	-549
र्ज	-550
वाज	-551
▁of	-552
▁जी	-553
▁फा	-554
▁सम	-555
र्बा	-556
▁पाद	-557
▁बरय	-558
▁बाय	-559
▁मोग	-560
▁लिप	-561
,1986	-562
्यांक	-563
▁आवाज	-564
▁ताचे	-565
▁दिलो	-566
▁नाटक	-567
▁पडटा	-568
▁फावो	-569
▁येवज	-570
▁व्हड	-571
▁आसपाव	-572
▁उर्बा	-573
▁पुराय	-574
▁हिंदू	-575
▁तांचें	-576
▁पाद्री	-577
▁वर्सां	-578
▁सरकारी	-579
▁सुरवात	-580
▁हांकां	-581
▁गोंयकार	-582
▁तांतूंत	-583
▁गोंयच्या	-584
▁भाशेच्या	-585
▁साहित्यीक	-586
कड	-587
णे	-588
था	-589
वि	-590
िन	-591
ोग	-592
द्ध	-593
यली	-594
िती	-595
▁जि	-596
▁जे	-597
▁तो	-598
▁बस	-599
▁बी	-600
दर्श	-601
▁196	-602
▁कथा	-603
▁दवर	-604
▁मुळ	-605
▁वेव	-606
▁शिक	-607
▁शें	-608
▁आदार	-609
▁गेले	-610
▁नामन	-611
▁प्रभ	-612
▁विशय	-613
ल्यांत	-614
▁दिश्ट	-615
▁मुखार	-616
▁लागले	-617
▁शेंकड	-618
▁हांची	-619
▁हांचे	-620
ांतल्या	-621
▁तुमकां	-622
▁नांवान	-623
▁म्हत्व	-624
▁सरकारान	-625
▁पुस्तकांत	-626
20	-627
कच	-628
ूच	-629
ेश	-630
गस्	-631
णीक	-632
बंद	-633
मेल	-634
ारा	-635
ाली	-636
▁अभ	-637
▁आम	-638
▁उद	-639
▁यु	-640
▁वर	-641
▁से	-642
ंत्र	-643
गस्ट	-644
ताले	-645
पणान	-646
मेलन	-647
व्या	-648
ेकार	-649
▁191	-650
▁195	-651
▁एका	-652
▁जल्	-653
▁नात	-654
▁परि	-655
▁राम	-656
▁सार	-657
ाव्या	-658
▁अर्थ	-659
▁आसात	-660
▁खाशे	-661
▁तरणा	-662
▁तरेन	-663
▁नेमा	-664
▁भायर	-665
▁भाशा	-666
▁रचून	-667
▁सांग	-668
▁सादर	-669
▁ऑगस्ट	-670
▁तांचे	-671
▁नामने	-672
▁येवंक	-673
▁वांगड	-674
▁संबंद	-675
▁सर्ती	-676
िल्ल्या	-677
▁काळांत	-678
▁केल्लो	-679
▁नाशिल्	-680
▁भाशेची	-681
▁भाशेचो	-682
▁संमेलन	-683
▁स्थापन	-684
▁क्रिस्ती	-685
▁शिक्षणीक	-686
▁संस्थेचे	-687
▁पांवड्यार	-688
▁साहित्याक	-689
▁विद्यार्थ्यांनी	-690
-1	-691
th	-692
दल	-693
री	-694
ष्	-695
ुव	-696
ूळ	-697
ेब	-698
ोक	-699
णें	-700
दान	-701
द्य	-702
मां	-703
माद	-704
यलो	-705
वेक	-706
▁10	-707
▁23	-708
▁अश	-709
टकां	-710
वसार	-711
विता	-712
ायती	-713
ुनूच	-714
ेब्र	-715
ोव्ह	-716
्यां	-717
्रीय	-718
▁जाण	-719
▁जून	-720
▁जोड	-721
▁तेच	-722
▁नास	-723
▁नोक	-724
▁पुण	-725
▁फ्र	-726
▁बदल	-727
▁मात	-728
▁मूळ	-729
▁वळख	-730
▁शाळ	-731
स्कार	-732
िल्ली	-733
िल्ले	-734
ुवारी	-735
▁आपली	-736
▁उलोव	-737
▁करपा	-738
▁खाला	-739
▁दिल्	-740
▁युवा	-741
▁सेवा	-742
िल्लें	-743
▁उतरां	-744
▁कविता	-745
▁तरणाट	-746
▁नोव्ह	-747
▁फामाद	-748
▁फेब्र	-749
▁मार्च	-750
▁सुवात	-751
▁हांचो	-752
▁जाल्यो	-753
▁जाल्लो	-754
▁दिश्टी	-755
▁नाटकां	-756
▁प्रभाव	-757
▁संवसार	-758
▁सुरवेक	-759
▁हांचें	-760
▁म्हायती	-761
▁पुरस्कार	-762
▁नोव्हेंबर	-763
▁फेब्रुवारी	-764
▁शेंकड्यांत	-765
ंथ	-766
न्	-767
पो	-768
रळ	-769
ळे	-770
ाट	-771
ीर	-772
the	-773
ंडळ	-774
चीन	-775
चेर	-776
तकच	-777
तां	-778
दरग	-779
भाग	-780
ल्ह	-781
ष्ट	-782
स्थ	-783
ांद	-784
ालव	-785
▁25	-786
▁मे	-787
▁वच	-788
,196	-789
▁187	-790
▁the	-791
▁असो	-792
▁इना	-793
▁खंड	-794
▁घाल	-795
▁न्ह	-796
▁बरो	-797
▁भोव	-798
▁राख	-799
▁ल्ह	-800
▁वयर	-801
▁वाठ	-802
▁आसलो	-803
▁उदरग	-804
▁उरले	-805
▁कारण	-806
▁केरळ	-807
▁गेल्	-808
▁पांच	-809
▁पालव	-810
▁भारत	-811
▁मंडळ	-812
▁मळार	-813
▁मेळ्	-814
▁म्हय	-815
▁सारक	-816
स्तांव	-817
▁कोचीन	-818
▁घेतलो	-819
▁जायते	-820
▁मांडो	-821
▁रुपान	-822
▁ल्हान	-823
▁विभाग	-824
▁गोंयचे	-825
▁लागलें	-826
▁शिक्षण	-827
▁संस्था	-828
िल्ल्यान	-829
▁कडल्यान	-830
▁देखुनूच	-831
▁भाशेचें	-832
▁मान्यताय	-833
▁क्रिस्तांव	-834
▁साहित्यांत	-835
खा	-836
च्	-837
या	-838
रज	-839
रण	-840
ूय	-841
ठीण	-842
तीक	-843
देश	-844
नेव	-845
न्न	-846
यता	-847
ळीं	-848
▁11	-849
▁14	-850
▁17	-851
▁24	-852
▁आठ	-853
▁की	-854
▁गज	-855
▁चि	-856
▁दर	-857
▁पी	-858
▁वै	-859
क्टो	-860
ण्यो	-861
प्रि	-862
्रंथ	-863
▁189	-864
▁उच्	-865
▁उदय	-866
▁कला	-867
▁खंय	-868
▁गरज	-869
▁पयस	-870
▁योग	-871
▁वाच	-872
,1985	-873
दर्शन	-874
प्रिल	-875
▁आतां	-876
▁आसता	-877
▁आसले	-878
▁कठीण	-879
▁जल्म	-880
▁ताका	-881
▁तेंप	-882
▁दुसर	-883
▁पळोव	-884
▁बांद	-885
▁येता	-886
▁लक्ष	-887
▁वांट	-888
▁वामन	-889
क्टोबर	-890
नेवारी	-891
▁आसलें	-892
▁काडून	-893
▁केलां	-894
▁ग्रंथ	-895
▁दिवपा	-896
▁माध्य	-897
▁वाठार	-898
▁विचार	-899
▁अर्थीक	-900
▁उच्चार	-901
▁	-902
ा	-903
ं	-904
्	-905
क	-906
ी	-907
र	-908
े	-909
त	-910
य	-911
न	-912
ल	-913
स	-914
व	-915
ो	-916
.	-917
प	-918
च	-919
म	-920
ि	-921
ह	-922
ण	-923
द	-924
,	-925
आ	-926
ज	-927
ग	-928
ु	-929
श	-930
ड	-931
ळ	-932
ू	-933
1	-934
)	-935
(	-936
भ	-937
ब	-938
ट	-939
ख	-940
अ	-941
9	-942
उ	-943
थ	-944
2	-945
घ	-946
8	-947
ष	-948
फ	-949
0	-950
5	-951
ध	-952
6	-953
ए	-954
3	-955
4	-956
ठ	-957
7	-958
ृ	-959
इ	-960
ॉ	-961
-	-962
:	-963
ऑ	-964
ै	-965
?	-966
o	-967
!	-968
f	-969
e	-970
h	-971
t	-972
ॅ	-973
झ	-974
ञ	-975
ओ	-976
n	-977
’	-978
d	-979
छ	-980
ौ	-981
a	-982
i	-983
l	-984
r	-985
ई	-986
%	-987
;	-988
I	-989
L	-990
V	-991
c	-992
p	-993
s	-994
u	-995
v	-996
