{
  "version": "1.0",
  "truncation": null,
  "padding": null,
  "added_tokens": [
    {
      "id": 0,
      "content": "<s>",
      "single_word": false,
      "lstrip": false,
      "rstrip": false,
      "normalized": false,
      "special": true
    },
    {
      "id": 1,
      "content": "<pad>",
      "single_word": false,
      "lstrip": false,
      "rstrip": false,
      "normalized": false,
      "special": true
    },
    {
      "id": 2,
      "content": "</s>",
      "single_word": false,
      "lstrip": false,
      "rstrip": false,
      "normalized": false,
      "special": true
    },
    {
      "id": 3,
      "content": "<unk>",
      "single_word": false,
      "lstrip": false,
      "rstrip": false,
      "normalized": false,
      "special": true
    },
    {
      "id": 4,
      "content": "<mask>",
      "single_word": false,
      "lstrip": false,
      "rstrip": false,
      "normalized": false,
      "special": true
    }
  ],
  "normalizer": {
    "type": "Sequence",
    "normalizers": [
      {
        "type": "NFD"
      },
      {
        "type": "StripAccents"
      }
    ]
  },
  "pre_tokenizer": {
    "type": "Whitespace"
  },
  "post_processor": {
    "type": "TemplateProcessing",
    "single": [
      {
        "SpecialToken": {
          "id": "<s>",
          "type_id": 0
        }
      },
      {
        "Sequence": {
          "id": "A",
          "type_id": 0
        }
      },
      {
        "SpecialToken": {
          "id": "</s>",
          "type_id": 0
        }
      }
    ],
    "pair": [
      {
        "SpecialToken": {
          "id": "<s>",
          "type_id": 0
        }
      },
      {
        "Sequence": {
          "id": "A",
          "type_id": 0
        }
      },
      {
        "SpecialToken": {
          "id": "</s>",
          "type_id": 0
        }
      },
      {
        "SpecialToken": {
          "id": "</s>",
          "type_id": 0
        }
      },
      {
        "Sequence": {
          "id": "B",
          "type_id": 0
        }
      },
      {
        "SpecialToken": {
          "id": "</s>",
          "type_id": 0
        }
      }
    ],
    "special_tokens": {
      "</s>": {
        "id": "</s>",
        "ids": [
          2
        ],
        "tokens": [
          "</s>"
        ]
      },
      "<s>": {
        "id": "<s>",
        "ids": [
          0
        ],
        "tokens": [
          "<s>"
        ]
      }
    }
  },
  "decoder": {
    "type": "BPEDecoder",
    "suffix": "</w>"
  },
  "model": {
    "type": "BPE",
    "dropout": null,
    "unk_token": null,
    "continuing_subword_prefix": null,
    "end_of_word_suffix": null,
    "fuse_unk": false,
    "byte_fallback": false,
    "ignore_merges": false,
    "vocab": {
      "<s>": 0,
      "<pad>": 1,
      "</s>": 2,
      "<unk>": 3,
      "<mask>": 4,
      "!": 5,
      "\"": 6,
      "%": 7,
      "'": 8,
      "(": 9,
      ")": 10,
      "*": 11,
      ",": 12,
      "-": 13,
      ".": 14,
      "/": 15,
      "0": 16,
      "1": 17,
      "2": 18,
      "3": 19,
      "4": 20,
      "5": 21,
      "6": 22,
      "7": 23,
      "8": 24,
      "9": 25,
      ":": 26,
      ";": 27,
      "?": 28,
      "A": 29,
      "B": 30,
      "C": 31,
      "D": 32,
      "E": 33,
      "F": 34,
      "G": 35,
      "H": 36,
      "I": 37,
      "J": 38,
      "K": 39,
      "L": 40,
      "M": 41,
      "N": 42,
      "O": 43,
      "P": 44,
      "R": 45,
      "S": 46,
      "T": 47,
      "V": 48,
      "X": 49,
      "Y": 50,
      "[": 51,
      "\\": 52,
      "a": 53,
      "b": 54,
      "c": 55,
      "d": 56,
      "e": 57,
      "f": 58,
      "g": 59,
      "h": 60,
      "i": 61,
      "j": 62,
      "k": 63,
      "l": 64,
      "m": 65,
      "n": 66,
      "o": 67,
      "p": 68,
      "r": 69,
      "s": 70,
      "t": 71,
      "u": 72,
      "v": 73,
      "w": 74,
      "x": 75,
      "y": 76,
      "z": 77,
      "~": 78,
      "अ": 79,
      "आ": 80,
      "इ": 81,
      "ई": 82,
      "उ": 83,
      "ऊ": 84,
      "ऋ": 85,
      "ए": 86,
      "ऐ": 87,
      "ऑ": 88,
      "ओ": 89,
      "औ": 90,
      "क": 91,
      "ख": 92,
      "ग": 93,
      "घ": 94,
      "ङ": 95,
      "च": 96,
      "छ": 97,
      "ज": 98,
      "झ": 99,
      "ञ": 100,
      "ट": 101,
      "ठ": 102,
      "ड": 103,
      "ढ": 104,
      "ण": 105,
      "त": 106,
      "थ": 107,
      "द": 108,
      "ध": 109,
      "न": 110,
      "प": 111,
      "फ": 112,
      "ब": 113,
      "भ": 114,
      "म": 115,
      "य": 116,
      "र": 117,
      "ल": 118,
      "ळ": 119,
      "व": 120,
      "श": 121,
      "ष": 122,
      "स": 123,
      "ह": 124,
      "ऽ": 125,
      "ॠ": 126,
      "।": 127,
      "॥": 128,
      "०": 129,
      "१": 130,
      "२": 131,
      "३": 132,
      "४": 133,
      "५": 134,
      "६": 135,
      "७": 136,
      "८": 137,
      "९": 138,
      "ॲ": 139,
      "ᄋ": 140,
      "ᅦ": 141,
      "–": 142,
      "‘": 143,
      "’": 144,
      "“": 145,
      "”": 146,
      "लय": 147,
      "कर": 148,
      "तर": 149,
      "पर": 150,
      "आन": 151,
      "चय": 152,
      "मह": 153,
      "तल": 154,
      "दर": 155,
      "सर": 156,
      "कल": 157,
      "लल": 158,
      "तय": 159,
      "हय": 160,
      "वर": 161,
      "यत": 162,
      "चर": 163,
      "अश": 164,
      "आस": 165,
      "सग": 166,
      "आय": 167,
      "सव": 168,
      "तन": 169,
      "कष": 170,
      "मन": 171,
      "मतर": 172,
      "भर": 173,
      "तक": 174,
      "यन": 175,
      "मर": 176,
      "कड": 177,
      "बर": 178,
      "हण": 179,
      "गर": 180,
      "कत": 181,
      "वच": 182,
      "जल": 183,
      "वन": 184,
      "वळ": 185,
      "वप": 186,
      "तत": 187,
      "नय": 188,
      "टर": 189,
      "कय": 190,
      "धन": 191,
      "दश": 192,
      "जय": 193,
      "तच": 194,
      "लक": 195,
      "एक": 196,
      "दस": 197,
      "लग": 198,
      "वय": 199,
      "तण": 200,
      "लयन": 201,
      "नर": 202,
      "मद": 203,
      "खतर": 204,
      "..": 205,
      "मत": 206,
      "पल": 207,
      "पण": 208,
      "ङक": 209,
      "दन": 210,
      "वस": 211,
      "पच": 212,
      "यल": 213,
      "मळ": 214,
      "वड": 215,
      "यच": 216,
      "दल": 217,
      "यर": 218,
      "हर": 219,
      "वश": 220,
      "करय": 221,
      "खल": 222,
      "सगल": 223,
      "णक": 224,
      "वग": 225,
      "करन": 226,
      "महण": 227,
      "परधन": 228,
      "जर": 229,
      "यक": 230,
      "सक": 231,
      "आयज": 232,
      "सत": 233,
      "सन": 234,
      "वल": 235,
      "रज": 236,
      "तलय": 237,
      "वण": 238,
      "आश": 239,
      "पक": 240,
      "शर": 241,
      "टल": 242,
      "वक": 243,
      "शच": 244,
      "वद": 245,
      "कक": 246,
      "वज": 247,
      "षटर": 248,
      "परत": 249,
      "परधनमतर": 250,
      "वह": 251,
      "खर": 252,
      "महळ": 253,
      "वट": 254,
      "लयत": 255,
      "सभ": 256,
      "जतल": 257,
      "पड": 258,
      "वत": 259,
      "गत": 260,
      "धय": 261,
      "मक": 262,
      "रषटर": 263,
      "मज": 264,
      "सथ": 265,
      "हच": 266,
      "पत": 267,
      "गय": 268,
      "सद": 269,
      "गल": 270,
      "मण": 271,
      "कळ": 272,
      "सच": 273,
      "बद": 274,
      "मड": 275,
      "कश": 276,
      "कदर": 277,
      "पन": 278,
      "सल": 279,
      "जलय": 280,
      "घर": 281,
      "पळ": 282,
      "कडन": 283,
      "जत": 284,
      "गड": 285,
      "कन": 286,
      "हव": 287,
      "ललय": 288,
      "पय": 289,
      "करयवळ": 290,
      "नव": 291,
      "मखल": 292,
      "टन": 293,
      "भरत": 294,
      "खळ": 295,
      "धर": 296,
      "कम": 297,
      "ळय": 298,
      "तशच": 299,
      "आप": 300,
      "सरकर": 301,
      "शन": 302,
      "अर": 303,
      "जन": 304,
      "घतल": 305,
      "मल": 306,
      "ङकड": 307,
      "कषण": 308,
      "लगन": 309,
      "थर": 310,
      "करप": 311,
      "आशलल": 312,
      "वळर": 313,
      "चल": 314,
      "दळ": 315,
      "सप": 316,
      "दलल": 317,
      "ककण": 318,
      "आसत": 319,
      "नत": 320,
      "शत": 321,
      "टक": 322,
      "तज": 323,
      "रजय": 324,
      "नच": 325,
      "उद": 326,
      "कलय": 327,
      "करतल": 328,
      "वपच": 329,
      "कथ": 330,
      "मच": 331,
      "उपरत": 332,
      "अध": 333,
      "तचय": 334,
      "महत": 335,
      "वचणक": 336,
      "सह": 337,
      "उलय": 338,
      "घड": 339,
      "वठ": 340,
      "पकष": 341,
      "नम": 342,
      "आर": 343,
      "जलयर": 344,
      "उप": 345,
      "रत": 346,
      "महयत": 347,
      "भट": 348,
      "आयल": 349,
      "परय": 350,
      "धयकष": 351,
      "अशय": 352,
      "सदर": 353,
      "दत": 354,
      "अस": 355,
      "गन": 356,
      "हजर": 357,
      "भरतय": 358,
      "आत": 359,
      "उत": 360,
      "गण": 361,
      "सवत": 362,
      "बल": 363,
      "कच": 364,
      "नरदर": 365,
      "करण": 366,
      "आड": 367,
      "पयल": 368,
      "सम": 369,
      "जण": 370,
      "आपलय": 371,
      "भतर": 372,
      "आपल": 373,
      "आम": 374,
      "सब": 375,
      "जलल": 376,
      "परश": 377,
      "सतर": 378,
      "कतय": 379,
      "वरव": 380,
      "पट": 381,
      "यचय": 382,
      "हचय": 383,
      "सय": 384,
      "करक": 385,
      "सट": 386,
      "महक": 387,
      "वगड": 388,
      "चड": 389,
      "करच": 390,
      "...": 391,
      "गव": 392,
      "दख": 393,
      "उल": 394,
      "पद": 395,
      "करत": 396,
      "शक": 397,
      "भयर": 398,
      "हड": 399,
      "ङकट": 400,
      "बसक": 401,
      "घल": 402,
      "करपच": 403,
      "हक": 404,
      "णय": 405,
      "नन": 406,
      "यवज": 407,
      "दव": 408,
      "बयल": 409,
      "सड": 410,
      "हत": 411,
      "सघ": 412,
      "मरन": 413,
      "बस": 414,
      "वरस": 415,
      "दलय": 416,
      "नक": 417,
      "कदरय": 418,
      "भग": 419,
      "मखर": 420,
      "महणन": 421,
      "शण": 422,
      "नयय": 423,
      "रल": 424,
      "वहड": 425,
      "कलल": 426,
      "ङकडर": 427,
      "लगल": 428,
      "लयक": 429,
      "अरथ": 430,
      "बय": 431,
      "दवर": 432,
      "वपक": 433,
      "पव": 434,
      "रषटरय": 435,
      "खतय": 436,
      "दय": 437,
      "खय": 438,
      "फट": 439,
      "भज": 440,
      "परस": 441,
      "पस": 442,
      "फड": 443,
      "उकत": 444,
      "भय": 445,
      "अधयकष": 446,
      "नल": 447,
      "मडळ": 448,
      "हग": 449,
      "परमण": 450,
      "कण": 451,
      "दसर": 452,
      "सरक": 453,
      "चच": 454,
      "खबर": 455,
      "दम": 456,
      "पतर": 457,
      "नहय": 458,
      "रन": 459,
      "शट": 460,
      "मखलमतर": 461,
      "भव": 462,
      "जड": 463,
      "ससथ": 464,
      "जग": 465,
      "समज": 466,
      "तयर": 467,
      "सरकरन": 468,
      "पवल": 469,
      "वसथ": 470,
      "उर": 471,
      "परदश": 472,
      "वदय": 473,
      "बब": 474,
      "चरच": 475,
      "तळ": 476,
      "महज": 477,
      "सगळ": 478,
      "करपक": 479,
      "सतन": 480,
      "कट": 481,
      "नश": 482,
      "खड": 483,
      "घवन": 484,
      "मग": 485,
      "मय": 486,
      "दनय": 487,
      "दग": 488,
      "लगत": 489,
      "सवन": 490,
      "नगर": 491,
      "जललय": 492,
      "मट": 493,
      "वध": 494,
      "सज": 495,
      "जम": 496,
      "वचर": 497,
      "यतल": 498,
      "षट": 499,
      "भलयक": 500,
      "णच": 501,
      "आसतल": 502,
      "सरत": 503,
      "पगड": 504,
      "सरकष": 505,
      "उलयतल": 506,
      "नट": 507,
      "वगवग": 508,
      "ववर": 509,
      "तड": 510,
      "वहर": 511,
      "दवप": 512,
      "कस": 513,
      "जवन": 514,
      "सगर": 515,
      "तलयन": 516,
      "लयच": 517,
      "पवड": 518,
      "शळ": 519,
      "शल": 520,
      "समर": 521,
      "परधनमतरयन": 522,
      "यव": 523,
      "जवप": 524,
      "गरज": 525,
      "बड": 526,
      "सवळ": 527,
      "सहतय": 528,
      "हल": 529,
      "वपर": 530,
      "थय": 531,
      "नदर": 532,
      "करम": 533,
      "भरग": 534,
      "दललत": 535,
      "....": 536,
      "लख": 537,
      "बळ": 538,
      "आद": 539,
      "उकतय": 540,
      "आज": 541,
      "तरण": 542,
      "खस": 543,
      "पलस": 544,
      "कगर": 545,
      "घट": 546,
      "नस": 547,
      "आदर": 548,
      "मजगत": 549,
      "उदर": 550,
      "रव": 551,
      "रषटरपत": 552,
      "बरबर": 553,
      "आशललय": 554,
      "अधकर": 555,
      "कद": 556,
      "रय": 557,
      "कललय": 558,
      "डय": 559,
      "यतन": 560,
      "बध": 561,
      "नह": 562,
      "यवजण": 563,
      "गयत": 564,
      "लकक": 565,
      "वगवगळय": 566,
      "वदश": 567,
      "परण": 568,
      "टत": 569,
      "भवन": 570,
      "दतल": 571,
      "मधय": 572,
      "जयत": 573,
      "रण": 574,
      "तनन": 575,
      "उकतवण": 576,
      "पचय": 577,
      "दरशन": 578,
      "ततर": 579,
      "सस": 580,
      "ङकर": 581,
      "दक": 582,
      "अळ": 583,
      "खत": 584,
      "जव": 585,
      "उमद": 586,
      "शय": 587,
      "उततर": 588,
      "लकसभ": 589,
      "नमण": 590,
      "भत": 591,
      "महळयर": 592,
      "ठय": 593,
      "बग": 594,
      "वहन": 595,
      "हम": 596,
      "हस": 597,
      "हतत": 598,
      "मरग": 599,
      "वचन": 600,
      "सकळ": 601,
      "बसकत": 602,
      "तजय": 603,
      "बक": 604,
      "डर": 605,
      "जवच": 606,
      "ञन": 607,
      "पवस": 608,
      "शकषण": 609,
      "मतदर": 610,
      "अमर": 611,
      "आपण": 612,
      "परकल": 613,
      "यचर": 614,
      "वधन": 615,
      "भरतच": 616,
      "धड": 617,
      "वमन": 618,
      "चम": 619,
      "अतर": 620,
      "यग": 621,
      "मळटल": 622,
      "पडल": 623,
      "नड": 624,
      "सचव": 625,
      "--": 626,
      "बदल": 627,
      "सबद": 628,
      "दसत": 629,
      "वठर": 630,
      "एम": 631,
      "रख": 632,
      "वसत": 633,
      "नद": 634,
      "टय": 635,
      "ववसथ": 636,
      "तरक": 637,
      "वधनसभ": 638,
      "इतल": 639,
      "नयक": 640,
      "वठरत": 641,
      "आतक": 642,
      "जमन": 643,
      "रमन": 644,
      "19": 645,
      "तम": 646,
      "लयर": 647,
      "आसपव": 648,
      "तकच": 649,
      "लकन": 650,
      "नमतन": 651,
      "उदरगत": 652,
      "एस": 653,
      "उज": 654,
      "भन": 655,
      "महयन": 656,
      "तश": 657,
      "दरक": 658,
      "चन": 659,
      "शह": 660,
      "वरण": 661,
      "आग": 662,
      "आकश": 663,
      "दवच": 664,
      "आयजत": 665,
      "जवक": 666,
      "रग": 667,
      "रम": 668,
      "सटर": 669,
      "सवसरक": 670,
      "नवय": 671,
      "लन": 672,
      "मरत": 673,
      "पकसतन": 674,
      "सरतत": 675,
      "जप": 676,
      "सबर": 677,
      "सगळय": 678,
      "उकतयल": 679,
      "नथ": 680,
      "उमदवर": 681,
      "पठ": 682,
      "महजय": 683,
      "पणन": 684,
      "ङकलय": 685,
      "बयत": 686,
      "सकल": 687,
      "परभ": 688,
      "मगर": 689,
      "वचच": 690,
      "वटकर": 691,
      "सबध": 692,
      "उतर": 693,
      "मनत": 694,
      "कगरस": 695,
      "गजल": 696,
      "बन": 697,
      "यद": 698,
      "ववहर": 699,
      "मनय": 700,
      "मतदन": 701,
      "कयन": 702,
      "ललयन": 703,
      "भरतन": 704,
      "अरथक": 705,
      "अन": 706,
      "खब": 707,
      "आनक": 708,
      "ततत": 709,
      "परसकर": 710,
      "आतकवद": 711,
      "बट": 712,
      "फर": 713,
      "लड": 714,
      "लव": 715,
      "तरच": 716,
      "दशत": 717,
      "तस": 718,
      "फल": 719,
      "उलयतन": 720,
      "उलवप": 721,
      "सगरह": 722,
      "लकष": 723,
      "नरणय": 724,
      "करयवळत": 725,
      "उददग": 726,
      "नशलल": 727,
      "कवद": 728,
      "आकशवण": 729,
      "गयच": 730,
      "चतर": 731,
      "सश": 732,
      "हन": 733,
      "यतत": 734,
      "यरदर": 735,
      "आठ": 736,
      "आदल": 737,
      "दवपच": 738,
      "सध": 739,
      "तरत": 740,
      "परसन": 741,
      "लकच": 742,
      "पकषच": 743,
      "वधयक": 744,
      "ससद": 745,
      "आसल": 746,
      "मतरलयन": 747,
      "दसच": 748,
      "वकस": 749,
      "आवहन": 750,
      "उड": 751,
      "गध": 752,
      "उदक": 753,
      "कसल": 754,
      "परब": 755,
      "मरण": 756,
      "वदयथर": 757,
      "रमनथ": 758,
      "कतल": 759,
      "सण": 760,
      "लर": 761,
      "परतन": 762,
      "सगलय": 763,
      "उण": 764,
      "गट": 765,
      "कयद": 766,
      "दशच": 767,
      "कलयत": 768,
      "शनय": 769,
      "सळ": 770,
      "तयच": 771,
      "रजयत": 772,
      "खण": 773,
      "गळ": 774,
      "थळ": 775,
      "दवन": 776,
      "पज": 777,
      "पश": 778,
      "सगत": 779,
      "शकर": 780,
      "कळत": 781,
      "दच": 782,
      "भशक": 783,
      "परधनतर": 784,
      "कमर": 785,
      "दकषण": 786,
      "वणक": 787,
      "दसन": 788,
      "घरत": 789,
      "जलयत": 790,
      "रड": 791,
      "नयळ": 792,
      "सथत": 793,
      "उब": 794,
      "चदर": 795,
      "हतन": 796,
      "वरध": 797,
      "समन": 798,
      "अण": 799,
      "एन": 800,
      "फय": 801,
      "मख": 802,
      "सरवत": 803,
      "गयचय": 804,
      "भजप": 805,
      "गम": 806,
      "नमन": 807,
      "सवद": 808,
      "ङकल": 809,
      "बगल": 810,
      "भरतत": 811,
      "नयड": 812,
      "कतयक": 813,
      "रलव": 814,
      "परसर": 815,
      "परमद": 816,
      "सवच": 817,
      "एकठय": 818,
      "महणल": 819,
      "वजञन": 820,
      "आतर": 821,
      "कवड": 822,
      "आयलल": 823,
      "ङकटलय": 824,
      "घलन": 825,
      "बत": 826,
      "भस": 827,
      "शतक": 828,
      "परचर": 829,
      "मळळ": 830,
      "डन": 831,
      "भशन": 832,
      "यण": 833,
      "वटन": 834,
      "आमदर": 835,
      "ङकटभयर": 836,
      "ससक": 837,
      "सधय": 838,
      "परष": 839,
      "रजयपल": 840,
      "वठरन": 841,
      "कमक": 842,
      "ळत": 843,
      "सरवचच": 844,
      "कयच": 845,
      "मळर": 846,
      "नययलयन": 847,
      "अरज": 848,
      "चलक": 849,
      "जवपच": 850,
      "रवल": 851,
      "वरचर": 852,
      "दवळ": 853,
      "परक": 854,
      "आयग": 855,
      "धरण": 856,
      "पवडयर": 857,
      "अभ": 858,
      "अमत": 859,
      "उपर": 860,
      "सलल": 861,
      "सपत": 862,
      "परर": 863,
      "महल": 864,
      "सचलक": 865,
      "महतवच": 866,
      "खन": 867,
      "डच": 868,
      "मस": 869,
      "मगण": 870,
      "वतन": 871,
      "लयल": 872,
      "तनय": 873,
      "वगळ": 874,
      "मजत": 875,
      "आधर": 876,
      "इड": 877,
      "जच": 878,
      "षण": 879,
      "सयत": 880,
      "दसल": 881,
      "जमम": 882,
      "आव": 883,
      "जक": 884,
      "दयत": 885,
      "पप": 886,
      "पदर": 887,
      "चयन": 888,
      "सवध": 889,
      "सवय": 890,
      "कतलय": 891,
      "दशन": 892,
      "कशमर": 893,
      "दड": 894,
      "दद": 895,
      "बच": 896,
      "वतल": 897,
      "तरन": 898,
      "कथसगरह": 899,
      "आकड": 900,
      "जयन": 901,
      "जहर": 902,
      "मठ": 903,
      "रस": 904,
      "करतन": 905,
      "कषक": 906,
      "कडल": 907,
      "कडलयन": 908,
      "ङकवट": 909,
      "करयवळच": 910,
      "मतदरसघ": 911,
      "आवय": 912,
      "ददल": 913,
      "सवसर": 914,
      "वयल": 915,
      "भरतचय": 916,
      "उजवड": 917,
      "अभय": 918,
      "दसय": 919,
      "पलव": 920,
      "गवत": 921,
      "मटर": 922,
      "शकत": 923,
      "आवज": 924,
      "कप": 925,
      "घतलय": 926,
      "ळर": 927,
      "सकय": 928,
      "कनन": 929,
      "पयलय": 930,
      "पतरकर": 931,
      "इत": 932,
      "खप": 933,
      "णव": 934,
      "लम": 935,
      "वयर": 936,
      "परशदत": 937,
      "दसरय": 938,
      "आदश": 939,
      "खसदर": 940,
      "डस": 941,
      "पसन": 942,
      "मजर": 943,
      "वशन": 944,
      "वशय": 945,
      "सबळ": 946,
      "पसतक": 947,
      "उरब": 948,
      "थन": 949,
      "लच": 950,
      "मनस": 951,
      "बरच": 952,
      "करमचर": 953,
      "उन": 954,
      "जटल": 955,
      "परतय": 956,
      "मरल": 957,
      "सचवण": 958,
      "पयलच": 959,
      "सघटन": 960,
      "भजपच": 961,
      "हसतक": 962,
      "घवप": 963,
      "दवक": 964,
      "नसत": 965,
      "करतत": 966,
      "परकष": 967,
      "वचलल": 968,
      "भवड": 969,
      "भसभ": 970,
      "यवन": 971,
      "महरषटर": 972,
      "धरन": 973,
      "आरप": 974,
      "हगसर": 975,
      "उलल": 976,
      "भश": 977,
      "परसद": 978,
      "मडळन": 979,
      "आतररषटरय": 980,
      "अद": 981,
      "अप": 982,
      "गलल": 983,
      "तसर": 984,
      "रखड": 985,
      "परवश": 986,
      "सरकषण": 987,
      "दशचय": 988,
      "घडवन": 989,
      "एल": 990,
      "मलल": 991,
      "रक": 992,
      "रप": 993,
      "आयगन": 994,
      "मतरलय": 995,
      "कयय": 996,
      "दशतलय": 997,
      "नरमण": 998,
      "दनपर": 999,
      "रजक": 1000,
      "दखन": 1001,
      "तरणट": 1002,
      "जञ": 1003,
      "तचर": 1004,
      "दतन": 1005,
      "रपय": 1006,
      "वयवसथ": 1007,
      "अल": 1008,
      "टट": 1009,
      "दखल": 1010,
      "वलय": 1011,
      "वजय": 1012,
      "हचर": 1013,
      "कषय": 1014,
      "पणज": 1015,
      "रषटरधयकष": 1016,
      "इन": 1017,
      "बहर": 1018,
      "रश": 1019,
      "सतत": 1020,
      "महन": 1021,
      "सदच": 1022,
      "खतयच": 1023,
      "घवच": 1024,
      "नकल": 1025,
      "पदन": 1026,
      "महम": 1027,
      "पतळ": 1028,
      "समजक": 1029,
      "परकलप": 1030,
      "चळ": 1031,
      "मबय": 1032,
      "परवण": 1033,
      "ङकव": 1034,
      "वजक": 1035,
      "सपशट": 1036,
      "खतयन": 1037,
      "भसभस": 1038,
      "आमच": 1039,
      "उठ": 1040,
      "धक": 1041,
      "बसल": 1042,
      "मखय": 1043,
      "रच": 1044,
      "वलयन": 1045,
      "सवर": 1046,
      "सपन": 1047,
      "तयन": 1048,
      "रजनथ": 1049,
      "सबधत": 1050,
      "उपय": 1051,
      "वभग": 1052,
      "हसक": 1053,
      "परध": 1054,
      "परसत": 1055,
      "परकरण": 1056,
      "उतपदन": 1057,
      "एङक": 1058,
      "घत": 1059,
      "ततल": 1060,
      "थड": 1061,
      "दज": 1062,
      "दतत": 1063,
      "नवन": 1064,
      "यलल": 1065,
      "समक": 1066,
      "वळख": 1067,
      "सरकरचय": 1068,
      "कसलच": 1069,
      "चक": 1070,
      "यतर": 1071,
      "हद": 1072,
      "उपकर": 1073,
      "परमणत": 1074,
      "चचण": 1075,
      "नदरन": 1076,
      "अमरक": 1077,
      "उट": 1078,
      "धश": 1079,
      "वतत": 1080,
      "सरकरच": 1081,
      "शतकर": 1082,
      "जतर": 1083,
      "जतलय": 1084,
      "वचय": 1085,
      "वयलय": 1086,
      "वडल": 1087,
      "परधनभतर": 1088,
      "कणक": 1089,
      "टवट": 1090,
      "नटन": 1091,
      "पष": 1092,
      "लत": 1093,
      "लहन": 1094,
      "वतर": 1095,
      "शलल": 1096,
      "हदर": 1097,
      "परकर": 1098,
      "मनहर": 1099,
      "थरयल": 1100,
      "नतळ": 1101,
      "गनयन": 1102,
      "उतसव": 1103,
      "आमचय": 1104,
      "घटमट": 1105,
      "अह": 1106,
      "अदम": 1107,
      "उबर": 1108,
      "ङकरन": 1109,
      "जश": 1110,
      "जतत": 1111,
      "तमक": 1112,
      "थयच": 1113,
      "पतन": 1114,
      "मळच": 1115,
      "शरत": 1116,
      "मडगव": 1117,
      "सपतक": 1118,
      "पकषचय": 1119,
      "आमक": 1120,
      "इडय": 1121,
      "कबल": 1122,
      "पटल": 1123,
      "बगर": 1124,
      "भगर": 1125,
      "वकर": 1126,
      "शकष": 1127,
      "चरय": 1128,
      "मनश": 1129,
      "मळट": 1130,
      "पडटल": 1131,
      "गतवणक": 1132,
      "पळवन": 1133,
      "सदरभत": 1134,
      "जगतय": 1135,
      "परसरण": 1136,
      "कपन": 1137,
      "खद": 1138,
      "चलय": 1139,
      "धव": 1140,
      "मप": 1141,
      "रकष": 1142,
      "सरग": 1143,
      "आसतन": 1144,
      "वशयचर": 1145,
      "पडत": 1146,
      "पळत": 1147,
      "ससकत": 1148,
      "ओड": 1149,
      "टचर": 1150,
      "पलक": 1151,
      "सकत": 1152,
      "सयर": 1153,
      "हवर": 1154,
      "परकरय": 1155,
      "परकश": 1156,
      "दरय": 1157,
      "दसचय": 1158,
      "ङकयन": 1159,
      "गणत": 1160,
      "परशकषण": 1161,
      "ससथच": 1162,
      "सवळयत": 1163,
      "वठरतलय": 1164,
      "उचच": 1165,
      "ऑङक": 1166,
      "गज": 1167,
      "तकल": 1168,
      "मश": 1169,
      "रसत": 1170,
      "सकर": 1171,
      "समत": 1172,
      "यतलय": 1173,
      "हवमन": 1174,
      "पदक": 1175,
      "दवरन": 1176,
      "जवपक": 1177,
      "धकर": 1178,
      "नटक": 1179,
      "बज": 1180,
      "सवतर": 1181,
      "नरण": 1182,
      "थरल": 1183,
      "आरग": 1184,
      "थळवय": 1185,
      "आघड": 1186,
      "कव": 1187,
      "घवपच": 1188,
      "णकत": 1189,
      "बसन": 1190,
      "भद": 1191,
      "यलय": 1192,
      "रतन": 1193,
      "ववस": 1194,
      "शसतर": 1195,
      "सख": 1196,
      "हळ": 1197,
      "वसन": 1198,
      "मळन": 1199,
      "महणपच": 1200,
      "परशद": 1201,
      "मडळच": 1202,
      "अजन": 1203,
      "चट": 1204,
      "चव": 1205,
      "तपस": 1206,
      "दवपक": 1207,
      "बजर": 1208,
      "समद": 1209,
      "करवय": 1210,
      "सरव": 1211,
      "मदल": 1212,
      "दललय": 1213,
      "अधकरय": 1214,
      "घडणक": 1215,
      "हडल": 1216,
      "चलल": 1217,
      "टच": 1218,
      "णन": 1219,
      "तप": 1220,
      "दवय": 1221,
      "पवत": 1222,
      "यवक": 1223,
      "हसप": 1224,
      "आयललय": 1225,
      "भरन": 1226,
      "वयकत": 1227,
      "महणट": 1228,
      "आयजन": 1229,
      "कमगर": 1230,
      "नययधश": 1231,
      "वमनतळ": 1232,
      "मनयतय": 1233,
      "अक": 1234,
      "ददर": 1235,
      "लस": 1236,
      "सधन": 1237,
      "तरय": 1238,
      "दळच": 1239,
      "परयटन": 1240,
      "सबदत": 1241,
      "पररकर": 1242,
      "अदक": 1243,
      "आणक": 1244,
      "उपल": 1245,
      "जपन": 1246,
      "भखर": 1247,
      "भमक": 1248,
      "ळन": 1249,
      "हसत": 1250,
      "करड": 1251,
      "परव": 1252,
      "वशच": 1253,
      "वशवस": 1254,
      "सपषट": 1255,
      "उटगर": 1256,
      "धवड": 1257,
      "नसल": 1258,
      "लकर": 1259,
      "शब": 1260,
      "सदशत": 1261,
      "सवतन": 1262,
      "जलम": 1263,
      "आशललयन": 1264,
      "खळटल": 1265,
      "गवकर": 1266,
      "सघट": 1267,
      "यवकर": 1268,
      "कमत": 1269,
      "गजर": 1270,
      "मचय": 1271,
      "यस": 1272,
      "हलल": 1273,
      "परसथत": 1274,
      "सरख": 1275,
      "मतरयन": 1276,
      "एकण": 1277,
      "वलळ": 1278,
      "शरम": 1279,
      "शरपद": 1280,
      "वदयर": 1281,
      "करपचय": 1282,
      "परशसन": 1283,
      "करकट": 1284,
      "शनयतय": 1285,
      "धद": 1286,
      "नध": 1287,
      "मदर": 1288,
      "यवप": 1289,
      "परदरशन": 1290,
      "सनह": 1291,
      "खळत": 1292,
      "पकषन": 1293,
      "उपग": 1294,
      "सडन": 1295,
      "ङकडरपण": 1296,
      "यगदन": 1297,
      "घवपक": 1298,
      "रवत": 1299,
      "जलह": 1300,
      "आशय": 1301,
      "सथन": 1302,
      "पयस": 1303,
      "परणम": 1304,
      "जळ": 1305,
      "लब": 1306,
      "वसव": 1307,
      "वकयय": 1308,
      "शम": 1309,
      "शटक": 1310,
      "सतय": 1311,
      "तलम": 1312,
      "लकचय": 1313,
      "पणजत": 1314,
      "सभपत": 1315,
      "कथच": 1316,
      "उलयल": 1317,
      "वदयरथ": 1318,
      "गच": 1319,
      "जञन": 1320,
      "दह": 1321,
      "बनय": 1322,
      "मगल": 1323,
      "यजमन": 1324,
      "वभ": 1325,
      "हललय": 1326,
      "परभव": 1327,
      "परसरत": 1328,
      ".....": 1329,
      "नवदन": 1330,
      "दळन": 1331,
      "चतरपट": 1332,
      "उपलबध": 1333,
      "कतर": 1334,
      "झड": 1335,
      "ददलय": 1336,
      "मतत": 1337,
      "लज": 1338,
      "परसथ": 1339,
      "यनच": 1340,
      "मरठ": 1341,
      "वचक": 1342,
      "वचणकत": 1343,
      "कयसव": 1344,
      "रजन": 1345,
      "अरण": 1346,
      "टकच": 1347,
      "कलयण": 1348,
      "बयलचय": 1349,
      "अभयस": 1350,
      "हसपटल": 1351,
      "उनत": 1352,
      "कठ": 1353,
      "घय": 1354,
      "घवक": 1355,
      "घशण": 1356,
      "दलयत": 1357,
      "सहय": 1358,
      "सरतच": 1359,
      "वरधन": 1360,
      "कडक": 1361,
      "दसतल": 1362,
      "नरल": 1363,
      "खरच": 1364,
      "वचणकच": 1365,
      "यवजणय": 1366,
      "दवलल": 1367,
      "भगदर": 1368,
      "वहडल": 1369,
      "ससथन": 1370,
      "पगडन": 1371,
      "रवतल": 1372,
      "पचयत": 1373,
      "वदयथरयक": 1374,
      "इगल": 1375,
      "गतच": 1376,
      "तव": 1377,
      "दब": 1378,
      "पटर": 1379,
      "बप": 1380,
      "मतन": 1381,
      "यश": 1382,
      "वम": 1383,
      "षठ": 1384,
      "सचय": 1385,
      "सदन": 1386,
      "टरमप": 1387,
      "वयलयन": 1388,
      "करयकर": 1389,
      "वतवरण": 1390,
      "घरच": 1391,
      "असतत": 1392,
      "खबरकर": 1393,
      "वदयपठ": 1394,
      "मधयम": 1395,
      "सशधन": 1396,
      "उरज": 1397,
      "कभ": 1398,
      "गटत": 1399,
      "झज": 1400,
      "फवट": 1401,
      "बवळ": 1402,
      "भतन": 1403,
      "लवन": 1404,
      "वसर": 1405,
      "कलच": 1406,
      "आयच": 1407,
      "जललयन": 1408,
      "वडत": 1409,
      "पडट": 1410,
      "सथपन": 1411,
      "कननच": 1412,
      "बयलच": 1413,
      "परभण": 1414,
      "कमकज": 1415,
      "अकदम": 1416,
      "खम": 1417,
      "गग": 1418,
      "जगत": 1419,
      "तख": 1420,
      "नवड": 1421,
      "शसत": 1422,
      "सठ": 1423,
      "महवदय": 1424,
      "आयक": 1425,
      "मळक": 1426,
      "उपचर": 1427,
      "नलड": 1428,
      "परदशत": 1429,
      "पवडय": 1430,
      "ङकरयत": 1431,
      "सकयल": 1432,
      "अड": 1433,
      "ऑसटर": 1434,
      "ओपल": 1435,
      "डजटल": 1436,
      "बगन": 1437,
      "भड": 1438,
      "यज": 1439,
      "ळक": 1440,
      "महमत": 1441,
      "सगलयत": 1442,
      "मनच": 1443,
      "नरमल": 1444,
      "मळनड": 1445,
      "यचक": 1446,
      "शरमत": 1447,
      "मचम": 1448,
      "यवजणच": 1449,
      "सहतयक": 1450,
      "अनन": 1451,
      "आगर": 1452,
      "तमळनड": 1453,
      "ळच": 1454,
      "कलपन": 1455,
      "खतरच": 1456,
      "पलवन": 1457,
      "कशळ": 1458,
      "हदरबद": 1459,
      "कचय": 1460,
      "चनल": 1461,
      "नज": 1462,
      "नतन": 1463,
      "फलय": 1464,
      "वष": 1465,
      "दरशक": 1466,
      "मदन": 1467,
      "रजयन": 1468,
      "सभघरत": 1469,
      "गडकर": 1470,
      "करयवळक": 1471,
      "रजयसभ": 1472,
      "ङकडरयन": 1473,
      "बयलक": 1474,
      "भवनत": 1475,
      "ससकतक": 1476,
      "उपरषटर": 1477,
      "उगड": 1478,
      "खशल": 1479,
      "पखतर": 1480,
      "भक": 1481,
      "भष": 1482,
      "भटर": 1483,
      "समल": 1484,
      "तरचय": 1485,
      "परट": 1486,
      "महर": 1487,
      "सरपच": 1488,
      "आयकत": 1489,
      "मनन": 1490,
      "भरतक": 1491,
      "मरच": 1492,
      "कडत": 1493,
      "गरव": 1494,
      "ङककत": 1495,
      "वडकर": 1496,
      "शचत": 1497,
      "पळयत": 1498,
      "सहकरय": 1499,
      "गरजच": 1500,
      "ततरगनयन": 1501,
      "मरगदरशन": 1502,
      "परकलपच": 1503,
      "रजयतलय": 1504,
      "मखयमतर": 1505,
      "बनयद": 1506,
      "तखणय": 1507,
      "खश": 1508,
      "घन": 1509,
      "फव": 1510,
      "फकत": 1511,
      "शवर": 1512,
      "हवय": 1513,
      "तरस": 1514,
      "कषत": 1515,
      "वळकर": 1516,
      "कयर": 1517,
      "दशक": 1518,
      "मळयल": 1519,
      "करयशळ": 1520,
      "सदध": 1521,
      "खळगड": 1522,
      "सरकरक": 1523,
      "महतसव": 1524,
      "मखलमतरयन": 1525,
      "रखडच": 1526,
      "शकषणक": 1527,
      "गवड": 1528,
      "झर": 1529,
      "डड": 1530,
      "यवच": 1531,
      "यगय": 1532,
      "ळलल": 1533,
      "वगर": 1534,
      "वटर": 1535,
      "सपल": 1536,
      "सखळ": 1537,
      "तयत": 1538,
      "आयतर": 1539,
      "एकश": 1540,
      "मदत": 1541,
      "मतमज": 1542,
      "पलसन": 1543,
      "ङकटल": 1544,
      "सनवण": 1545,
      "घरमतर": 1546,
      "रजयच": 1547,
      "वचणकचय": 1548,
      "नययलय": 1549,
      "यवलय": 1550,
      "भरगयक": 1551,
      "उकतयलय": 1552,
      "नमनच": 1553,
      "सवचछ": 1554,
      "18": 1555,
      "20": 1556,
      "खयचय": 1557,
      "गठ": 1558,
      "छतत": 1559,
      "जवडकर": 1560,
      "तग": 1561,
      "भशच": 1562,
      "रवन": 1563,
      "सदश": 1564,
      "परद": 1565,
      "परवस": 1566,
      "दरम": 1567,
      "दशट": 1568,
      "मळवय": 1569,
      "महणयर": 1570,
      "घतलल": 1571,
      "ङकडलय": 1572,
      "दळयत": 1573,
      "पकषय": 1574,
      "पदच": 1575,
      "198": 1576,
      "उनतवण": 1577,
      "कसय": 1578,
      "खजग": 1579,
      "जचय": 1580,
      "दण": 1581,
      "नग": 1582,
      "नपळ": 1583,
      "शठ": 1584,
      "सनय": 1585,
      "करळ": 1586,
      "आयलयत": 1587,
      "कषतर": 1588,
      "मरक": 1589,
      "बरड": 1590,
      "टरक": 1591,
      "लगलल": 1592,
      "वयट": 1593,
      "करपखतर": 1594,
      "जणच": 1595,
      "चडश": 1596,
      "कणच": 1597,
      "सगळयत": 1598,
      "सरकषत": 1599,
      "आदरश": 1600,
      "उददगक": 1601,
      "आण": 1602,
      "आळ": 1603,
      "खच": 1604,
      "घव": 1605,
      "टकक": 1606,
      "थक": 1607,
      "फण": 1608,
      "यतरण": 1609,
      "लवप": 1610,
      "सचर": 1611,
      "हज": 1612,
      "तरजमन": 1613,
      "दरदरशन": 1614,
      "हयत": 1615,
      "वरत": 1616,
      "सगन": 1617,
      "आयट": 1618,
      "भरगय": 1619,
      "यनत": 1620,
      "गरब": 1621,
      "दशभरत": 1622,
      "ङकतर": 1623,
      "वडट": 1624,
      "कथत": 1625,
      "नमणक": 1626,
      "वहडओ": 1627,
      "फटलयन": 1628,
      "तळच": 1629,
      "परतनध": 1630,
      "इतहसक": 1631,
      "तपसण": 1632,
      "उपरषटरपत": 1633,
      "अज": 1634,
      "अत": 1635,
      "आल": 1636,
      "इनस": 1637,
      "उखल": 1638,
      "दपक": 1639,
      "पध": 1640,
      "रगत": 1641,
      "रहल": 1642,
      "महमरग": 1643,
      "दरत": 1644,
      "आयकन": 1645,
      "मनयतत": 1646,
      "जललयत": 1647,
      "नयतरण": 1648,
      "दनश": 1649,
      "जतवत": 1650,
      "बसकक": 1651,
      "सडरल": 1652,
      "खबरकरक": 1653,
      "उरतल": 1654,
      "कगरसच": 1655,
      "नमणय": 1656,
      "आकशवणचय": 1657,
      "अणकर": 1658,
      "अकद": 1659,
      "ईक": 1660,
      "खलल": 1661,
      "जतनय": 1662,
      "दवल": 1663,
      "नशचत": 1664,
      "फत": 1665,
      "भयन": 1666,
      "मशर": 1667,
      "परवर": 1668,
      "दरज": 1669,
      "कलन": 1670,
      "वरसच": 1671,
      "आयलय": 1672,
      "सवधन": 1673,
      "मतरलयच": 1674,
      "तकन": 1675,
      "कडय": 1676,
      "बरय": 1677,
      "बरमक": 1678,
      "गरयक": 1679,
      "एकच": 1680,
      "दसक": 1681,
      "मळवन": 1682,
      "पळन": 1683,
      "चलतल": 1684,
      "शतवद": 1685,
      "महतव": 1686,
      "समधन": 1687,
      "बसकच": 1688,
      "नगरक": 1689,
      "वसतद": 1690,
      "ससदय": 1691,
      "नतळसण": 1692,
      "भखरभतर": 1693,
      "दहशतवद": 1694,
      "आख": 1695,
      "गनय": 1696,
      "घटन": 1697,
      "दगर": 1698,
      "नईक": 1699,
      "भतल": 1700,
      "यजम": 1701,
      "लठ": 1702,
      "शबर": 1703,
      "शजर": 1704,
      "मनक": 1705,
      "कडच": 1706,
      "वचप": 1707,
      "वडवप": 1708,
      "वगळय": 1709,
      "वकश": 1710,
      "पडलल": 1711,
      "जनत": 1712,
      "जडल": 1713,
      "सवळयक": 1714,
      "ततरजञन": 1715,
      "ववसथपन": 1716,
      "पलवम": 1717,
      "तरणटयक": 1718,
      "ववसयक": 1719,
      "वसवस": 1720,
      "अठ": 1721,
      "आकर": 1722,
      "इतलय": 1723,
      "इतस": 1724,
      "कब": 1725,
      "चद": 1726,
      "नवच": 1727,
      "बशलल": 1728,
      "रगन": 1729,
      "वदन": 1730,
      "सपर": 1731,
      "सकष": 1732,
      "सटक": 1733,
      "कषतरत": 1734,
      "मतरमडळ": 1735,
      "वनय": 1736,
      "नरय": 1737,
      "नरदश": 1738,
      "वसतर": 1739,
      "थरतल": 1740,
      "रजयचय": 1741,
      "परशदच": 1742,
      "खडपठ": 1743,
      "पगडच": 1744,
      "कसलय": 1745,
      "वदयथरयन": 1746,
      "अणभव": 1747,
      "अहवल": 1748,
      "ङकयनलत": 1749,
      "शटकवण": 1750,
      "अय": 1751,
      "आमज": 1752,
      "कनर": 1753,
      "जवण": 1754,
      "तमच": 1755,
      "थट": 1756,
      "दध": 1757,
      "दळय": 1758,
      "बपय": 1759,
      "यवपच": 1760,
      "शकन": 1761,
      "परल": 1762,
      "कलकत": 1763,
      "भरलल": 1764,
      "बरक": 1765,
      "गरमण": 1766,
      "वळच": 1767,
      "सचलन": 1768,
      "उपकरम": 1769,
      "पटट": 1770,
      "उलवण": 1771,
      "घलप": 1772,
      "ससथचय": 1773,
      "परदशक": 1774,
      "कटब": 1775,
      "भरगयच": 1776,
      "आदच": 1777,
      "मरगदरशक": 1778,
      "बकचय": 1779,
      "अमरकच": 1780,
      "महयनय": 1781,
      "महयनयत": 1782,
      "नसतमर": 1783,
      "रशटर": 1784,
      "वतरवण": 1785,
      "आजय": 1786,
      "कग": 1787,
      "कपल": 1788,
      "चकर": 1789,
      "झरखड": 1790,
      "ञच": 1791,
      "णचय": 1792,
      "थयचय": 1793,
      "दगय": 1794,
      "रठ": 1795,
      "रतच": 1796,
      "लट": 1797,
      "वकल": 1798,
      "वखद": 1799,
      "सधर": 1800,
      "वरसक": 1801,
      "आयचय": 1802,
      "बरल": 1803,
      "गरम": 1804,
      "पचव": 1805,
      "करनट": 1806,
      "रजगर": 1807,
      "वणजय": 1808,
      "परधनमतरयच": 1809,
      "कळय": 1810,
      "कशमरत": 1811,
      "पळवक": 1812,
      "कमच": 1813,
      "उदय": 1814,
      "अधकत": 1815,
      "आतम": 1816,
      "अरथमतर": 1817,
      "फडर": 1818,
      "लखन": 1819,
      "नदण": 1820,
      "कतलशच": 1821,
      "परसतव": 1822,
      "असल": 1823,
      "उच": 1824,
      "उरल": 1825,
      "एनड": 1826,
      "ओप": 1827,
      "कवल": 1828,
      "गक": 1829,
      "झय": 1830,
      "झगड": 1831,
      "डसबर": 1832,
      "पयन": 1833,
      "भशत": 1834,
      "लह": 1835,
      "हतर": 1836,
      "परशन": 1837,
      "दरसत": 1838,
      "वरसत": 1839,
      "कतच": 1840,
      "दशभर": 1841,
      "मळत": 1842,
      "वशनच": 1843,
      "करनटक": 1844,
      "टनस": 1845,
      "करणच": 1846,
      "समतच": 1847,
      "सतरत": 1848,
      "दखयल": 1849,
      "भवतण": 1850,
      "रवदर": 1851,
      "तरकवर": 1852,
      "परषद": 1853,
      "परषदत": 1854,
      "उनतय": 1855,
      "अहमद": 1856,
      "नरणयक": 1857,
      "ददलयचय": 1858,
      "महवदयलय": 1859,
      "खयच": 1860,
      "तबड": 1861,
      "पनर": 1862,
      "बदर": 1863,
      "भगय": 1864,
      "मध": 1865,
      "सटल": 1866,
      "परथ": 1867,
      "सरळत": 1868,
      "आयष": 1869,
      "मनसत": 1870,
      "वळत": 1871,
      "नरयण": 1872,
      "मदद": 1873,
      "मतश": 1874,
      "मतस": 1875,
      "मतलयन": 1876,
      "ङकन": 1877,
      "हरयण": 1878,
      "वकसत": 1879,
      "सभघर": 1880,
      "पळल": 1881,
      "महतम": 1882,
      "हडन": 1883,
      "वगवगळ": 1884,
      "घटट": 1885,
      "परधनतरयन": 1886,
      "इडयन": 1887,
      "अदमस": 1888,
      "आयकपक": 1889,
      "छततसग": 1890,
      "घतत": 1891,
      "ङकत": 1892,
      "ङकरक": 1893,
      "पथ": 1894,
      "फरन": 1895,
      "बकर": 1896,
      "मथ": 1897,
      "मलक": 1898,
      "मबयत": 1899,
      "रवप": 1900,
      "ळम": 1901,
      "शख": 1902,
      "शकल": 1903,
      "शषट": 1904,
      "सयक": 1905,
      "करर": 1906,
      "तरनट": 1907,
      "परन": 1908,
      "परम": 1909,
      "तयक": 1910,
      "चरक": 1911,
      "अशक": 1912,
      "कयम": 1913,
      "लकसण": 1914,
      "मदयचर": 1915,
      "रजनम": 1916,
      "वटत": 1917,
      "मकळ": 1918,
      "सदय": 1919,
      "सलत": 1920,
      "धरमक": 1921,
      "शनवर": 1922,
      "मलदक": 1923,
      "थरव": 1924,
      "करपचर": 1925,
      "चलत": 1926,
      "महतसवत": 1927,
      "सदरण": 1928,
      "सबत": 1929,
      "सतरमन": 1930,
      "दवरल": 1931,
      "तडलकर": 1932,
      "लकसभच": 1933,
      "जपसल": 1934,
      "पजब": 1935,
      "ङकलम": 1936,
      "अदमसप": 1937,
      "अभन": 1938,
      "इरण": 1939,
      "उलयत": 1940,
      "एनस": 1941,
      "कपड": 1942,
      "कगळ": 1943,
      "जनरल": 1944,
      "नण": 1945,
      "पढ": 1946,
      "पलय": 1947,
      "बयच": 1948,
      "शयच": 1949,
      "शखर": 1950,
      "आसच": 1951,
      "टरप": 1952,
      "करयलय": 1953,
      "वजत": 1954,
      "कळज": 1955,
      "बदध": 1956,
      "बदकम": 1957,
      "कदरन": 1958,
      "ङकडल": 1959,
      "सपट": 1960,
      "घडल": 1961,
      "आपलयक": 1962,
      "सयकय": 1963,
      "सडल": 1964,
      "भजपचय": 1965,
      "फडलय": 1966,
      "भयण": 1967,
      "नगरधयकष": 1968,
      "अधकरयन": 1969,
      "तमचय": 1970,
      "कतलयशच": 1971,
      "कशमरतलय": 1972,
      "चळस": 1973,
      "पषप": 1974,
      "कबलत": 1975,
      "अपकष": 1976,
      "घलल": 1977,
      "तब": 1978,
      "धम": 1979,
      "नलल": 1980,
      "फसक": 1981,
      "बकच": 1982,
      "भवक": 1983,
      "मयन": 1984,
      "लशकर": 1985,
      "ळस": 1986,
      "शभर": 1987,
      "शकड": 1988,
      "सतक": 1989,
      "सपरक": 1990,
      "दरच": 1991,
      "सरच": 1992,
      "सरन": 1993,
      "सरदसय": 1994,
      "यतलयन": 1995,
      "सवल": 1996,
      "वचपच": 1997,
      "कयल": 1998,
      "जयतय": 1999,
      "नरमत": 2000,
      "रजधन": 2001,
      "सभत": 2002,
      "रषटरपतन": 2003,
      "सलम": 2004,
      "धरम": 2005,
      "सहन": 2006,
      "सहकर": 2007,
      "समसय": 2008,
      "वगडच": 2009,
      "पददत": 2010,
      "भजपन": 2011,
      "जगयर": 2012,
      "सवळयन": 2013,
      "हलच": 2014,
      "गयतलय": 2015,
      "मधयमतलयन": 2016,
      "लकसभत": 2017,
      "दवळत": 2018,
      "महरषटरत": 2019,
      "वभगच": 2020,
      "कणकण": 2021,
      "यजमनक": 2022,
      "मतमजण": 2023,
      "अङक": 2024,
      "इनम": 2025,
      "उखलल": 2026,
      "कवस": 2027,
      "गवन": 2028,
      "गवद": 2029,
      "घलक": 2030,
      "डनलड": 2031,
      "धलल": 2032,
      "भल": 2033,
      "रचन": 2034,
      "रदद": 2035,
      "वकत": 2036,
      "ववक": 2037,
      "महटल": 2038,
      "हयवळर": 2039,
      "सगक": 2040,
      "मनल": 2041,
      "गरद": 2042,
      "वचपक": 2043,
      "नयच": 2044,
      "एकद": 2045,
      "नरबध": 2046,
      "यललय": 2047,
      "रजकरण": 2048,
      "वदपकषय": 2049,
      "पडन": 2050,
      "सदप": 2051,
      "मडत": 2052,
      "कदरच": 2053,
      "पनन": 2054,
      "पळवण": 2055,
      "हवई": 2056,
      "मखलपण": 2057,
      "दळचय": 2058,
      "शतकरक": 2059,
      "सबक": 2060,
      "हडप": 2061,
      "नययलयत": 2062,
      "नहयकर": 2063,
      "परदशतलय": 2064,
      "परसनक": 2065,
      "बगलदश": 2066,
      "आयगच": 2067,
      "सवयकर": 2068,
      "उठल": 2069,
      "उटगरचय": 2070,
      "ऑसटरलय": 2071,
      "रठड": 2072,
      "15": 2073,
      "अटक": 2074,
      "आभ": 2075,
      "एच": 2076,
      "एय": 2077,
      "कणय": 2078,
      "गलय": 2079,
      "गटन": 2080,
      "चवकश": 2081,
      "जवत": 2082,
      "नळ": 2083,
      "नतर": 2084,
      "नवर": 2085,
      "बसय": 2086,
      "भगत": 2087,
      "भशण": 2088,
      "मलय": 2089,
      "मठय": 2090,
      "रयन": 2091,
      "रडय": 2092,
      "वहय": 2093,
      "सशल": 2094,
      "परपरक": 2095,
      "दरग": 2096,
      "सवक": 2097,
      "सवम": 2098,
      "मनर": 2099,
      "मतरण": 2100,
      "कडप": 2101,
      "कयतर": 2102,
      "दशर": 2103,
      "जयशकर": 2104,
      "वयकयन": 2105,
      "पणक": 2106,
      "रजकय": 2107,
      "रजसथन": 2108,
      "गयतय": 2109,
      "सदत": 2110,
      "कळच": 2111,
      "मडल": 2112,
      "कशक": 2113,
      "कदरत": 2114,
      "नवयन": 2115,
      "मलम": 2116,
      "उपगर": 2117,
      "जणत": 2118,
      "खतयचय": 2119,
      "समजन": 2120,
      "ववरत": 2121,
      "ससकर": 2122,
      "पवसक": 2123,
      "रखन": 2124,
      "दयतक": 2125,
      "महममद": 2126,
      "वसतदपण": 2127,
      "कवलड": 2128,
      "गभर": 2129,
      "गयक": 2130,
      "घटक": 2131,
      "ङय": 2132,
      "तसच": 2133,
      "नमक": 2134,
      "पशच": 2135,
      "बबल": 2136,
      "मतच": 2137,
      "रतय": 2138,
      "रवच": 2139,
      "ळट": 2140,
      "वलल": 2141,
      "शकषक": 2142,
      "ससरक": 2143,
      "परवन": 2144,
      "आनद": 2145,
      "आनकय": 2146,
      "महगल": 2147,
      "तलन": 2148,
      "तलगण": 2149,
      "अशच": 2150,
      "आयन": 2151,
      "सवतच": 2152,
      "सवळय": 2153,
      "मरगव": 2154,
      "कडलय": 2155,
      "कयदशर": 2156,
      "लगड": 2157,
      "पणच": 2158,
      "पचश": 2159,
      "मळव": 2160,
      "मळलल": 2161,
      "वडय": 2162,
      "सतश": 2163,
      "वललय": 2164,
      "रजव": 2165,
      "वहल": 2166,
      "सभष": 2167,
      "ललयच": 2168,
      "तजवज": 2169,
      "तजकडन": 2170,
      "अधसचवण": 2171,
      "परयवरण": 2172,
      "असलय": 2173,
      "दखवन": 2174,
      "हडपच": 2175,
      "मडळचय": 2176,
      "उरलल": 2177,
      "मगळर": 2178,
      "ववरप": 2179,
      "शळत": 2180,
      "आपणक": 2181,
      "वधनसभत": 2182,
      "उलवपत": 2183,
      "शकरर": 2184,
      "चदरकत": 2185,
      "अभयन": 2186,
      "रपयच": 2187,
      "महनयत": 2188,
      "अथ": 2189,
      "आक": 2190,
      "इकर": 2191,
      "इशट": 2192,
      "एकल": 2193,
      "एकडय": 2194,
      "ऑन": 2195,
      "कवहड": 2196,
      "गवच": 2197,
      "गमत": 2198,
      "घस": 2199,
      "चलयच": 2200,
      "जणक": 2201,
      "झजर": 2202,
      "धवत": 2203,
      "नसतन": 2204,
      "पसट": 2205,
      "पलकच": 2206,
      "भषण": 2207,
      "मतय": 2208,
      "मबयल": 2209,
      "रकक": 2210,
      "रपन": 2211,
      "वढ": 2212,
      "परदर": 2213,
      "चयच": 2214,
      "सरय": 2215,
      "सरश": 2216,
      "कलकर": 2217,
      "आयर": 2218,
      "आयश": 2219,
      "सवसरत": 2220,
      "मनशच": 2221,
      "मरज": 2222,
      "वळन": 2223,
      "एकमक": 2224,
      "लगतल": 2225,
      "लगसर": 2226,
      "वयक": 2227,
      "हरष": 2228,
      "शरन": 2229,
      "परतसद": 2230,
      "सथनक": 2231,
      "गयकर": 2232,
      "कळयच": 2233,
      "बदत": 2234,
      "मडन": 2235,
      "पळयल": 2236,
      "पयश": 2237,
      "करयवळचय": 2238,
      "जनन": 2239,
      "घतललय": 2240,
      "उदकच": 2241,
      "हततल": 2242,
      "दमतच": 2243,
      "मधयमक": 2244,
      "रखण": 2245,
      "भनदस": 2246,
      "परभद": 2247,
      "सशसतर": 2248,
      "बचव": 2249,
      "इतहस": 2250,
      "सघटनन": 2251,
      "सवरज": 2252,
      "परधनय": 2253,
      "सपतकत": 2254,
      "उटगरच": 2255,
      "धवडय": 2256,
      "इगलड": 2257,
      "कशळटय": 2258,
      "मदनचर": 2259,
      "अभनदन": 2260,
      "अच": 2261,
      "आजन": 2262,
      "इमर": 2263,
      "एड": 2264,
      "कवत": 2265,
      "गपत": 2266,
      "जस": 2267,
      "जगर": 2268,
      "जतकच": 2269,
      "दमत": 2270,
      "दखर": 2271,
      "दबळ": 2272,
      "नवळ": 2273,
      "पग": 2274,
      "पवण": 2275,
      "भण": 2276,
      "भलल": 2277,
      "रष": 2278,
      "रवश": 2279,
      "रजर": 2280,
      "लण": 2281,
      "लकड": 2282,
      "लहर": 2283,
      "ळळ": 2284,
      "हसन": 2285,
      "हसल": 2286,
      "वरच": 2287,
      "आसन": 2288,
      "सवदन": 2289,
      "तनत": 2290,
      "ततलय": 2291,
      "नयजन": 2292,
      "कयण": 2293,
      "लकशय": 2294,
      "लगलय": 2295,
      "नरकषक": 2296,
      "मळवप": 2297,
      "वलत": 2298,
      "परधनमतरयचय": 2299,
      "गललय": 2300,
      "कशय": 2301,
      "चलन": 2302,
      "कथन": 2303,
      "अधवशन": 2304,
      "समतन": 2305,
      "जणट": 2306,
      "हडपक": 2307,
      "घलत": 2308,
      "सघच": 2309,
      "नययमरत": 2310,
      "दवरच": 2311,
      "दवरलय": 2312,
      "दमबब": 2313,
      "भवमन": 2314,
      "सजज": 2315,
      "ततरक": 2316,
      "शहद": 2317,
      "रजयपलन": 2318,
      "आयगचय": 2319,
      "दयतच": 2320,
      "परतयकष": 2321,
      "उललख": 2322,
      "गजरत": 2323,
      "कठण": 2324,
      "अडच": 2325,
      "आदलय": 2326,
      "उपरश": 2327,
      "कबर": 2328,
      "खसग": 2329,
      "गस": 2330,
      "गयल": 2331,
      "घलय": 2332,
      "घतर": 2333,
      "चकल": 2334,
      "छनन": 2335,
      "नजर": 2336,
      "पवन": 2337,
      "फटल": 2338,
      "बदन": 2339,
      "यषटर": 2340,
      "ळतक": 2341,
      "शश": 2342,
      "शनर": 2343,
      "शगम": 2344,
      "हट": 2345,
      "हतक": 2346,
      "परकरम": 2347,
      "कललयच": 2348,
      "वरट": 2349,
      "सगच": 2350,
      "मनव": 2351,
      "मतरमडळन": 2352,
      "कडचयन": 2353,
      "जलन": 2354,
      "कयदय": 2355,
      "दशतल": 2356,
      "तचड": 2357,
      "एकम": 2358,
      "लगलग": 2359,
      "वयकयय": 2360,
      "नरकष": 2361,
      "पलच": 2362,
      "वसक": 2363,
      "हरयल": 2364,
      "वगत": 2365,
      "सनत": 2366,
      "आशळलल": 2367,
      "वजञ": 2368,
      "वटट": 2369,
      "कळन": 2370,
      "कळवण": 2371,
      "अरब": 2372,
      "वळरत": 2373,
      "उददज": 2374,
      "अधवश": 2375,
      "पकषक": 2376,
      "चडतचड": 2377,
      "दवरतल": 2378,
      "दयस": 2379,
      "दवपकषय": 2380,
      "समरप": 2381,
      "सहतयत": 2382,
      "उदरगतच": 2383,
      "अधकरयच": 2384,
      "नडड": 2385,
      "सकलप": 2386,
      "खबश": 2387,
      "ससदचय": 2388,
      "गटच": 2389,
      "शतकयन": 2390,
      "सघटनच": 2391,
      "सरगसत": 2392,
      "हललयच": 2393,
      "हसपटलत": 2394,
      "लगलगळम": 2395,
      "16": 2396,
      "आवड": 2397,
      "एप": 2398,
      "कयत": 2399,
      "खयन": 2400,
      "खलयन": 2401,
      "खफय": 2402,
      "गयन": 2403,
      "घतन": 2404,
      "घसम": 2405,
      "ङकय": 2406,
      "जखम": 2407,
      "टवटर": 2408,
      "ठकर": 2409,
      "डट": 2410,
      "डल": 2411,
      "ढवळकर": 2412,
      "णत": 2413,
      "दटट": 2414,
      "धप": 2415,
      "नयन": 2416,
      "नमर": 2417,
      "नशन": 2418,
      "पथन": 2419,
      "भम": 2420,
      "भलय": 2421,
      "मयच": 2422,
      "मसक": 2423,
      "मललय": 2424,
      "यम": 2425,
      "यय": 2426,
      "यदव": 2427,
      "रवक": 2428,
      "लकत": 2429,
      "लहव": 2430,
      "वयन": 2431,
      "शभ": 2432,
      "आसतत": 2433,
      "आसलयर": 2434,
      "मरचय": 2435,
      "बरट": 2436,
      "वनन": 2437,
      "एकवटत": 2438,
      "वयच": 2439,
      "वसतच": 2440,
      "महणत": 2441,
      "महणटल": 2442,
      "सनम": 2443,
      "शरड": 2444,
      "घरचय": 2445,
      "घरकनन": 2446,
      "पळवय": 2447,
      "शनत": 2448,
      "चलच": 2449,
      "रजयमतर": 2450,
      "उदयग": 2451,
      "आरब": 2452,
      "आडखळ": 2453,
      "जणन": 2454,
      "हडक": 2455,
      "शणल": 2456,
      "शणलय": 2457,
      "वहडय": 2458,
      "ङकडरय": 2459,
      "दवरलल": 2460,
      "दमदर": 2461,
      "पतरक": 2462,
      "ससथक": 2463,
      "मगळ": 2464,
      "नगरकक": 2465,
      "मटय": 2466,
      "पवडयवलय": 2467,
      "लखक": 2468,
      "अळम": 2469,
      "बगबग": 2470,
      "धडल": 2471,
      "पडललयन": 2472,
      "194": 2473,
      "दवचल": 2474,
      "सटरट": 2475,
      "उडड": 2476,
      "रसतय": 2477,
      "कपटल": 2478,
      "उनयत": 2479,
      "परतयक": 2480,
      "तरणटयन": 2481,
      "बहरत": 2482,
      "परकरणत": 2483,
      "यससव": 2484,
      "दरदरशनचय": 2485,
      "एनडए": 2486,
      "हरषवरधन": 2487,
      "नशनल": 2488,
      "10": 2489,
      "इज": 2490,
      "कवळकर": 2491,
      "खट": 2492,
      "गवह": 2493,
      "घशत": 2494,
      "ङकरप": 2495,
      "चकच": 2496,
      "चनन": 2497,
      "छप": 2498,
      "तगल": 2499,
      "दकन": 2500,
      "दकषत": 2501,
      "फन": 2502,
      "फळ": 2503,
      "बवट": 2504,
      "भडर": 2505,
      "मटन": 2506,
      "लळ": 2507,
      "लष": 2508,
      "शकक": 2509,
      "सयन": 2510,
      "सदल": 2511,
      "समनय": 2512,
      "लयतल": 2513,
      "वरग": 2514,
      "आयकक": 2515,
      "वपकषय": 2516,
      "ततव": 2517,
      "वयपर": 2518,
      "पलन": 2519,
      "वसयक": 2520,
      "वशयक": 2521,
      "वशवजत": 2522,
      "खलतर": 2523,
      "जरस": 2524,
      "सततर": 2525,
      "शरलक": 2526,
      "वदळ": 2527,
      "पडच": 2528,
      "सथगत": 2529,
      "मडय": 2530,
      "मडटल": 2531,
      "कदरचय": 2532,
      "कदरशसत": 2533,
      "पळय": 2534,
      "टनक": 2535,
      "खळच": 2536,
      "मलजण": 2537,
      "दळक": 2538,
      "तजञ": 2539,
      "उदद": 2540,
      "भटयल": 2541,
      "आयललयन": 2542,
      "सवततर": 2543,
      "सतरन": 2544,
      "दखनच": 2545,
      "घलपच": 2546,
      "यवजणक": 2547,
      "अरथववसथ": 2548,
      "पवतल": 2549,
      "समजतलय": 2550,
      "परदशच": 2551,
      "दगबर": 2552,
      "वचरत": 2553,
      "यवजणखल": 2554,
      "वसतव": 2555,
      "वधनसभचय": 2556,
      "सकलपन": 2557,
      "भरततलय": 2558,
      "उपररषटरपत": 2559,
      "सललगर": 2560,
      "सचवणय": 2561,
      "तसरय": 2562,
      "परधनभतरमन": 2563,
      "शसतरजञ": 2564,
      "सहयग": 2565,
      "आयरवद": 2566,
      "अवन": 2567,
      "इलल": 2568,
      "इलन": 2569,
      "उभर": 2570,
      "ओठ": 2571,
      "कशर": 2572,
      "खतत": 2573,
      "ङकरम": 2574,
      "जखल": 2575,
      "झजतल": 2576,
      "टपप": 2577,
      "डक": 2578,
      "ढय": 2579,
      "णस": 2580,
      "दतर": 2581,
      "पवप": 2582,
      "पलयन": 2583,
      "फग": 2584,
      "फस": 2585,
      "फतर": 2586,
      "भह": 2587,
      "भटन": 2588,
      "भजन": 2589,
      "मझ": 2590,
      "मब": 2591,
      "मकत": 2592,
      "मवश": 2593,
      "रट": 2594,
      "रब": 2595,
      "रतचय": 2596,
      "शव": 2597,
      "हवश": 2598,
      "करकर": 2599,
      "पररण": 2600,
      "महणक": 2601,
      "महपश": 2602,
      "सरवक": 2603,
      "कलचय": 2604,
      "आसपवत": 2605,
      "मरय": 2606,
      "गरड": 2607,
      "नयट": 2608,
      "नयदर": 2609,
      "जयषठ": 2610,
      "महणच": 2611,
      "महणटकच": 2612,
      "परतबध": 2613,
      "पडपच": 2614,
      "थरत": 2615,
      "रजयक": 2616,
      "उदत": 2617,
      "आरखड": 2618,
      "परयग": 2619,
      "असय": 2620,
      "बलन": 2621,
      "सयकत": 2622,
      "सटव": 2623,
      "घलच": 2624,
      "रलवन": 2625,
      "दवरपच": 2626,
      "दयळ": 2627,
      "फटलय": 2628,
      "जडप": 2629,
      "उरमतर": 2630,
      "तडक": 2631,
      "बडमटन": 2632,
      "हलत": 2633,
      "आदरत": 2634,
      "आशललयच": 2635,
      "नहद": 2636,
      "उततरखड": 2637,
      "अतरकष": 2638,
      "अतरगत": 2639,
      "एमस": 2640,
      "वधनसभच": 2641,
      "तरतद": 2642,
      "ददलन": 2643,
      "लचणक": 2644,
      "बजरत": 2645,
      "सरवकषण": 2646,
      "सयकयन": 2647,
      "अतय": 2648,
      "अखल": 2649,
      "अटल": 2650,
      "उचलय": 2651,
      "ओल": 2652,
      "कशच": 2653,
      "घषण": 2654,
      "चकन": 2655,
      "जतन": 2656,
      "जळय": 2657,
      "तदर": 2658,
      "ततन": 2659,
      "तसत": 2660,
      "तमय": 2661,
      "दट": 2662,
      "दष": 2663,
      "दमन": 2664,
      "धत": 2665,
      "धवन": 2666,
      "नष": 2667,
      "ननर": 2668,
      "नवह": 2669,
      "पजय": 2670,
      "फक": 2671,
      "फलल": 2672,
      "बह": 2673,
      "भखय": 2674,
      "रशय": 2675,
      "लढ": 2676,
      "वलग": 2677,
      "शचय": 2678,
      "हब": 2679,
      "हलक": 2680,
      "करसत": 2681,
      "करतलय": 2682,
      "तरकत": 2683,
      "परसग": 2684,
      "तलच": 2685,
      "सरल": 2686,
      "सरवपकषय": 2687,
      "हयच": 2688,
      "आसक": 2689,
      "सगण": 2690,
      "सगलल": 2691,
      "आयनत": 2692,
      "मनशक": 2693,
      "तकय": 2694,
      "बरसतर": 2695,
      "गरय": 2696,
      "कयक": 2697,
      "धनम": 2698,
      "जयशठ": 2699,
      "नरग": 2700,
      "वसट": 2701,
      "हरच": 2702,
      "महणटत": 2703,
      "सनक": 2704,
      "पडलयत": 2705,
      "सथळ": 2706,
      "मडर": 2707,
      "सलन": 2708,
      "घरन": 2709,
      "अरद": 2710,
      "थरलय": 2711,
      "रजयतल": 2712,
      "महतवचय": 2713,
      "सघन": 2714,
      "नययलयच": 2715,
      "भजपक": 2716,
      "फडल": 2717,
      "समजकय": 2718,
      "तयरच": 2719,
      "उरललय": 2720,
      "कसमत": 2721,
      "शलत": 2722,
      "पलसटक": 2723,
      "उदरग": 2724,
      "बधवर": 2725,
      "ङकरस": 2726,
      "टयब": 2727,
      "पकसतनच": 2728,
      "पकसतनन": 2729,
      "अरजच": 2730,
      "मतदरसघन": 2731,
      "पसतकत": 2732,
      "करमचरयक": 2733,
      "लसकरण": 2734,
      "नवदनत": 2735,
      "परसथतच": 2736,
      "समलन": 2737,
      "पधदतन": 2738,
      "इतलयत": 2739,
      "अमल": 2740,
      "अकसमत": 2741,
      "आचर": 2742,
      "एफ": 2743,
      "एकत": 2744,
      "ऑग": 2745,
      "ऑनट": 2746,
      "गणक": 2747,
      "जए": 2748,
      "डयर": 2749,
      "णणव": 2750,
      "तट": 2751,
      "थयल": 2752,
      "दवत": 2753,
      "नकर": 2754,
      "नदळ": 2755,
      "पटन": 2756,
      "मम": 2757,
      "मशन": 2758,
      "रथ": 2759,
      "रद": 2760,
      "रगल": 2761,
      "सतच": 2762,
      "सकरय": 2763,
      "हवच": 2764,
      "करणक": 2765,
      "सरनय": 2766,
      "ललम": 2767,
      "यतकच": 2768,
      "आसमत": 2769,
      "सगतल": 2770,
      "सवगत": 2771,
      "कषट": 2772,
      "मनसबळ": 2773,
      "बरटन": 2774,
      "गरसत": 2775,
      "ततम": 2776,
      "नयम": 2777,
      "कयसवन": 2778,
      "दशमजगत": 2779,
      "लगच": 2780,
      "लगलयत": 2781,
      "नरमन": 2782,
      "मळतल": 2783,
      "यरदरक": 2784,
      "करयक": 2785,
      "करयलयन": 2786,
      "करयलयत": 2787,
      "महणलयर": 2788,
      "रजगणत": 2789,
      "परतभ": 2790,
      "खरद": 2791,
      "सथल": 2792,
      "सथपणक": 2793,
      "कळख": 2794,
      "बदच": 2795,
      "बदलल": 2796,
      "गडय": 2797,
      "जनक": 2798,
      "जनवर": 2799,
      "कथकर": 2800,
      "महतसवच": 2801,
      "आतमरन": 2802,
      "गणच": 2803,
      "आमगर": 2804,
      "पटत": 2805,
      "पटवचणक": 2806,
      "सटट": 2807,
      "करतमक": 2808,
      "ननभतन": 2809,
      "वरसचय": 2810,
      "ङकडरयच": 2811,
      "खयसत": 2812,
      "फटयच": 2813,
      "चचणय": 2814,
      "जडपलवन": 2815,
      "नशललयन": 2816,
      "नगरकत": 2817,
      "तडर": 2818,
      "दवपखतर": 2819,
      "शळन": 2820,
      "हललयत": 2821,
      "खतमन": 2822,
      "लकसभचय": 2823,
      "हततम": 2824,
      "पवसच": 2825,
      "अतरळ": 2826,
      "193": 2827,
      "196": 2828,
      "उदरगतचय": 2829,
      "कयनक": 2830,
      "कयनच": 2831,
      "आतकवदयक": 2832,
      "फरससक": 2833,
      "परसनचर": 2834,
      "ससदच": 2835,
      "वदयथरय": 2836,
      "आवयन": 2837,
      "मतदरसघत": 2838,
      "उजवडक": 2839,
      "शकतत": 2840,
      "जञनच": 2841,
      "इनभ": 2842,
      "अमरकचय": 2843,
      "कबलतचर": 2844,
      "मशमत": 2845,
      "ववसय": 2846,
      "समदध": 2847,
      "अधकरयक": 2848,
      "परसथतत": 2849,
      "भषतल": 2850,
      "नरयळ": 2851,
      "खडपठन": 2852,
      "करनटकत": 2853,
      "उनतयल": 2854,
      "अहमदबद": 2855,
      "फरनडस": 2856,
      "ऑनलयन": 2857,
      "लकडवन": 2858,
      "अकर": 2859,
      "अपर": 2860,
      "अखर": 2861,
      "आमर": 2862,
      "इटर": 2863,
      "इमरत": 2864,
      "इसपत": 2865,
      "उफ": 2866,
      "एकय": 2867,
      "चललय": 2868,
      "झलड": 2869,
      "तजर": 2870,
      "थम": 2871,
      "पतक": 2872,
      "पयक": 2873,
      "पसत": 2874,
      "बण": 2875,
      "बकन": 2876,
      "भऊ": 2877,
      "यदस": 2878,
      "रयक": 2879,
      "रमच": 2880,
      "ळलर": 2881,
      "वकड": 2882,
      "ववध": 2883,
      "वकरम": 2884,
      "शद": 2885,
      "शजय": 2886,
      "शवय": 2887,
      "ससय": 2888,
      "हतच": 2889,
      "हटल": 2890,
      "लयलल": 2891,
      "तरख": 2892,
      "परच": 2893,
      "महसचलक": 2894,
      "दरसचर": 2895,
      "सरवस": 2896,
      "कललयन": 2897,
      "आयस": 2898,
      "भरगयचय": 2899,
      "तकतकन": 2900,
      "कडपच": 2901,
      "गरण": 2902,
      "गरन": 2903,
      "वचत": 2904,
      "वपचय": 2905,
      "एकदम": 2906,
      "लगक": 2907,
      "पणयत": 2908,
      "हरश": 2909,
      "करयकतर": 2910,
      "करनच": 2911,
      "पकच": 2912,
      "परधनमतरय": 2913,
      "पडप": 2914,
      "मजतन": 2915,
      "बदवळ": 2916,
      "कनङकरन": 2917,
      "धरक": 2918,
      "शतकरच": 2919,
      "कथचय": 2920,
      "सदरभ": 2921,
      "भतररमन": 2922,
      "सबदन": 2923,
      "सटशन": 2924,
      "वगडयच": 2925,
      "चडच": 2926,
      "दखवप": 2927,
      "उलवन": 2928,
      "हडलल": 2929,
      "ङकटबल": 2930,
      "बसयल": 2931,
      "भगच": 2932,
      "दवरप": 2933,
      "कणण": 2934,
      "ससथपक": 2935,
      "तळस": 2936,
      "सगळयक": 2937,
      "नशललय": 2938,
      "मगक": 2939,
      "समरक": 2940,
      "......": 2941,
      "आदवस": 2942,
      "परणल": 2943,
      "उमदन": 2944,
      "बगळर": 2945,
      "वरणन": 2946,
      "बयतम": 2947,
      "उतरन": 2948,
      "सधयच": 2949,
      "उडयल": 2950,
      "बगलत": 2951,
      "यणवळ": 2952,
      "दवळच": 2953,
      "सवसरतल": 2954,
      "घतलयत": 2955,
      "सततआ": 2956,
      "उठन": 2957,
      "वमनतळचर": 2958,
      "परशसनन": 2959,
      "खबरकरकडन": 2960,
      "हदरबदत": 2961,
      "उगडस": 2962,
      "1986": 2963,
      "अजनय": 2964,
      "ओपतल": 2965,
      "शषटमडळ": 2966,
      "ववकनद": 2967,
      "परवनग": 2968,
      "ऑगसट": 2969,
      "आपत": 2970,
      "उसर": 2971,
      "उमळ": 2972,
      "एकलच": 2973,
      "ओपन": 2974,
      "कसन": 2975,
      "गह": 2976,
      "गदन": 2977,
      "गगय": 2978,
      "गळय": 2979,
      "गमच": 2980,
      "चपवत": 2981,
      "जख": 2982,
      "जवय": 2983,
      "जखन": 2984,
      "झजत": 2985,
      "टप": 2986,
      "टचय": 2987,
      "डत": 2988,
      "णकर": 2989,
      "थकय": 2990,
      "दयक": 2991,
      "नचय": 2992,
      "नकतच": 2993,
      "पलल": 2994,
      "पलकन": 2995,
      "बसत": 2996,
      "बकयदशर": 2997,
      "भमन": 2998,
      "भकत": 2999,
      "भयल": 3000,
      "भटक": 3001,
      "यवपक": 3002,
      "रकच": 3003,
      "रङकल": 3004,
      "लकषण": 3005,
      "लरय": 3006,
      "लळन": 3007,
      "वव": 3008,
      "वचरच": 3009,
      "शलक": 3010,
      "शललय": 3011,
      "षक": 3012,
      "षय": 3013,
      "सष": 3014,
      "सखय": 3015,
      "सपरध": 3016,
      "हवस": 3017,
      "परपर": 3018,
      "परगत": 3019,
      "दरन": 3020,
      "सरतचय": 3021,
      "तयग": 3022,
      "तनश": 3023,
      "मतरमडळच": 3024,
      "बरग": 3025,
      "हणय": 3026,
      "जलहयत": 3027,
      "दसभर": 3028,
      "वयखयन": 3029,
      "नरदन": 3030,
      "मदनर": 3031,
      "ङकङक": 3032,
      "दनदयळ": 3033,
      "मळचर": 3034,
      "मळळय": 3035,
      "खलचय": 3036,
      "वजच": 3037,
      "वहकल": 3038,
      "वटप": 3039,
      "पडड": 3040,
      "पडटत": 3041,
      "धयय": 3042,
      "सथर": 3043,
      "सदळ": 3044,
      "सदतल": 3045,
      "कळजत": 3046,
      "पळयतल": 3047,
      "कमलर": 3048,
      "लगनच": 3049,
      "दललतलय": 3050,
      "कथक": 3051,
      "भटत": 3052,
      "सवततरय": 3053,
      "करणन": 3054,
      "भतरमन": 3055,
      "सयब": 3056,
      "शकप": 3057,
      "बसकन": 3058,
      "घलतल": 3059,
      "ननक": 3060,
      "हतळ": 3061,
      "शणन": 3062,
      "पवलय": 3063,
      "फटभयर": 3064,
      "नलर": 3065,
      "खबरदर": 3066,
      "पतरकत": 3067,
      "पतरकरक": 3068,
      "तळश": 3069,
      "तळमळ": 3070,
      "वधमडळ": 3071,
      "पगडक": 3072,
      "कसळ": 3073,
      "भरगयन": 3074,
      "रवलल": 3075,
      "नहवर": 3076,
      "बगळ": 3077,
      "ववसथत": 3078,
      "रमश": 3079,
      "उमदवरच": 3080,
      "कगरसचय": 3081,
      "खणभर": 3082,
      "आमदरच": 3083,
      "ससकतय": 3084,
      "परषततम": 3085,
      "मसटक": 3086,
      "इडनश": 3087,
      "मतरलयचय": 3088,
      "वतरयतल": 3089,
      "सकतच": 3090,
      "हवरच": 3091,
      "दरयदग": 3092,
      "धकरयन": 3093,
      "चटणस": 3094,
      "समदयक": 3095,
      "सघटणन": 3096,
      "अरणचल": 3097,
      "यचकचर": 3098,
      "गनयव": 3099,
      "सपटबर": 3100,
      "शभरभ": 3101,
      "अङकगण": 3102,
      "लषकर": 3103,
      "जएसट": 3104,
      "ur": 3105,
      "एश": 3106,
      "कदल": 3107,
      "चत": 3108,
      "चतन": 3109,
      "चनच": 3110,
      "चपव": 3111,
      "जज": 3112,
      "डचय": 3113,
      "तमर": 3114,
      "तवटन": 3115,
      "थत": 3116,
      "पवपच": 3117,
      "बटर": 3118,
      "बधन": 3119,
      "बलक": 3120,
      "बवल": 3121,
      "भळ": 3122,
      "भयत": 3123,
      "मपर": 3124,
      "ममल": 3125,
      "रयल": 3126,
      "रकन": 3127,
      "रनत": 3128,
      "रवपच": 3129,
      "रहत": 3130,
      "रडर": 3131,
      "वख": 3132,
      "वघ": 3133,
      "ससर": 3134,
      "सटन": 3135,
      "हवळर": 3136,
      "हपप": 3137,
      "करमक": 3138,
      "परज": 3139,
      "परळ": 3140,
      "परचय": 3141,
      "परदळ": 3142,
      "सरज": 3143,
      "सरचटणस": 3144,
      "वरसन": 3145,
      "यततर": 3146,
      "आसम": 3147,
      "आयकर": 3148,
      "मनयल": 3149,
      "मनतलय": 3150,
      "बरकर": 3151,
      "बरयलय": 3152,
      "वनद": 3153,
      "नयझलड": 3154,
      "धनक": 3155,
      "दसभट": 3156,
      "नरद": 3157,
      "नरगत": 3158,
      "खतरचय": 3159,
      "पलट": 3160,
      "ङकळ": 3161,
      "पचवय": 3162,
      "पचवस": 3163,
      "मळप": 3164,
      "वडन": 3165,
      "यचम": 3166,
      "दलन": 3167,
      "वशण": 3168,
      "वशचय": 3169,
      "वलन": 3170,
      "रजज": 3171,
      "शरय": 3172,
      "वजन": 3173,
      "पडललय": 3174,
      "हचम": 3175,
      "कशत": 3176,
      "पळटत": 3177,
      "कनत": 3178,
      "कननय": 3179,
      "खळक": 3180,
      "जनल": 3181,
      "मलद": 3182,
      "मलमतत": 3183,
      "ङकडय": 3184,
      "चललयत": 3185,
      "सपतकच": 3186,
      "शतकरन": 3187,
      "रजयवरधन": 3188,
      "सहत": 3189,
      "घडय": 3190,
      "उपसथत": 3191,
      "महयतपरमण": 3192,
      "भटयलय": 3193,
      "परयटक": 3194,
      "परयपणन": 3195,
      "गणन": 3196,
      "वगडयन": 3197,
      "गवचय": 3198,
      "पदचर": 3199,
      "दयज": 3200,
      "पतरत": 3201,
      "नहयच": 3202,
      "महजकडन": 3203,
      "सगळयच": 3204,
      "बळग": 3205,
      "घटळ": 3206,
      "यवजणचय": 3207,
      "हमचल": 3208,
      "धडच": 3209,
      "महयनळय": 3210,
      "चननय": 3211,
      "पकसतनक": 3212,
      "रडक": 3213,
      "ङकलदज": 3214,
      "शतकय": 3215,
      "आमदरन": 3216,
      "सवसरतलय": 3217,
      "खसदरन": 3218,
      "नरणयच": 3219,
      "सखयन": 3220,
      "सघटणच": 3221,
      "वषयचर": 3222,
      "खशलय": 3223,
      "खयचयय": 3224,
      "पधदत": 3225,
      "सवधनक": 3226,
      "सकषम": 3227,
      "करनटकतलय": 3228,
      "जपसलदरक": 3229,
      "यषटरम": 3230,
      "एकमकक": 3231,
      "उडडण": 3232,
      "सषम": 3233,
      "ii": 3234,
      "असच": 3235,
      "आब": 3236,
      "आमळ": 3237,
      "आवत": 3238,
      "आदळ": 3239,
      "आङकरक": 3240,
      "इर": 3241,
      "इतलयन": 3242,
      "उनम": 3243,
      "एखद": 3244,
      "कऊ": 3245,
      "कतक": 3246,
      "कटर": 3247,
      "कयतन": 3248,
      "गवक": 3249,
      "घम": 3250,
      "घष": 3251,
      "जबब": 3252,
      "णम": 3253,
      "तकर": 3254,
      "तबयत": 3255,
      "थच": 3256,
      "थलल": 3257,
      "दयन": 3258,
      "ददस": 3259,
      "नदन": 3260,
      "नमळ": 3261,
      "पए": 3262,
      "पयच": 3263,
      "पखर": 3264,
      "पतयत": 3265,
      "फगर": 3266,
      "मवज": 3267,
      "यटयब": 3268,
      "लप": 3269,
      "लश": 3270,
      "लवच": 3271,
      "लमय": 3272,
      "शशट": 3273,
      "सइ": 3274,
      "सफ": 3275,
      "समतर": 3276,
      "सधरण": 3277,
      "सदशन": 3278,
      "हतण": 3279,
      "हकक": 3280,
      "१२": 3281,
      "१५": 3282,
      "करतकच": 3283,
      "परटल": 3284,
      "सरम": 3285,
      "सरकय": 3286,
      "कलम": 3287,
      "यतच": 3288,
      "चरन": 3289,
      "सगतन": 3290,
      "तकत": 3291,
      "कडपक": 3292,
      "बरयल": 3293,
      "जलनच": 3294,
      "ततवग": 3295,
      "टरसट": 3296,
      "मदच": 3297,
      "ङकनस": 3298,
      "दलच": 3299,
      "यरपय": 3300,
      "महणसर": 3301,
      "सनल": 3302,
      "रजश": 3303,
      "रजदत": 3304,
      "पकळ": 3305,
      "शरनगर": 3306,
      "वजपय": 3307,
      "वहळ": 3308,
      "वहनक": 3309,
      "रषटरचय": 3310,
      "गलदज": 3311,
      "कळळ": 3312,
      "कळस": 3313,
      "बदबद": 3314,
      "कशट": 3315,
      "पननस": 3316,
      "पयलयच": 3317,
      "अरर": 3318,
      "जनसन": 3319,
      "मलरय": 3320,
      "चलतलय": 3321,
      "अधध": 3322,
      "आरट": 3323,
      "आरड": 3324,
      "भटयतल": 3325,
      "जणव": 3326,
      "पददतन": 3327,
      "हडट": 3328,
      "हडलय": 3329,
      "वहडलय": 3330,
      "परमणपतर": 3331,
      "बबक": 3332,
      "चरचत": 3333,
      "जललयच": 3334,
      "सजवळ": 3335,
      "तडन": 3336,
      "सहतयच": 3337,
      "परणत": 3338,
      "धडन": 3339,
      "वठरतल": 3340,
      "महयनयचय": 3341,
      "पकसतनचय": 3342,
      "सकलत": 3343,
      "फलच": 3344,
      "वधयकक": 3345,
      "मरणचर": 3346,
      "परषदच": 3347,
      "सपतवध": 3348,
      "मतदरसघच": 3349,
      "परकषपण": 3350,
      "महरषटरतलय": 3351,
      "हगसरलय": 3352,
      "भशचय": 3353,
      "परवशक": 3354,
      "थरयललय": 3355,
      "ङकरनडस": 3356,
      "मडगवचय": 3357,
      "कपनन": 3358,
      "चवलल": 3359,
      "आशयई": 3360,
      "वभगत": 3361,
      "रजयसभत": 3362,
      "परदषण": 3363,
      "1985": 3364,
      "आळबद": 3365,
      "लठयन": 3366,
      "अठठ": 3367,
      "जपसलदर": 3368,
      "अदमसपतरकत": 3369,
      "सवदनशल": 3370,
      "कबरर": 3371,
      "वजञनक": 3372,
      "घसमट": 3373,
      "ऑनटबर": 3374,
      "आपतकलन": 3375,
      "बगळरत": 3376,
      "14": 3377,
      "अधर": 3378,
      "अनत": 3379,
      "अपरब": 3380,
      "आझ": 3381,
      "इफ": 3382,
      "इटल": 3383,
      "इशकल": 3384,
      "ईन": 3385,
      "उडय": 3386,
      "एपरल": 3387,
      "ऑनरमन": 3388,
      "ओम": 3389,
      "कमद": 3390,
      "कजर": 3391,
      "कमडर": 3392,
      "खरज": 3393,
      "खदय": 3394,
      "जमत": 3395,
      "झक": 3396,
      "झट": 3397,
      "टसट": 3398,
      "थपन": 3399,
      "धण": 3400,
      "धकल": 3401,
      "नकत": 3402,
      "नगड": 3403,
      "नशक": 3404,
      "नतयन": 3405,
      "फवक": 3406,
      "बमसटक": 3407,
      "भख": 3408,
      "भवच": 3409,
      "भयक": 3410,
      "भधम": 3411,
      "यकडन": 3412,
      "यवळर": 3413,
      "यडयर": 3414,
      "रकड": 3415,
      "रगर": 3416,
      "लमत": 3417,
      "लनच": 3418,
      "वदर": 3419,
      "वयनत": 3420,
      "शतत": 3421,
      "शणक": 3422,
      "शङकरस": 3423,
      "सनरय": 3424,
      "सकरतमक": 3425,
      "हजय": 3426,
      "१०": 3427,
      "१४": 3428,
      "करतर": 3429,
      "करचय": 3430,
      "करडर": 3431,
      "परदन": 3432,
      "परपत": 3433,
      "महमद": 3434,
      "महरत": 3435,
      "तलक": 3436,
      "दरयत": 3437,
      "सरनययधश": 3438,
      "वरन": 3439,
      "वरषट": 3440,
      "चरश": 3441,
      "आयप": 3442,
      "सवण": 3443,
      "मनयन": 3444,
      "मनतत": 3445,
      "मनधन": 3446,
      "मनसक": 3447,
      "मरतल": 3448,
      "बरस": 3449,
      "बरवर": 3450,
      "बरयच": 3451,
      "बरकस": 3452,
      "जलच": 3453,
      "वपखतर": 3454,
      "नयर": 3455,
      "नयमक": 3456,
      "टरनक": 3457,
      "जयच": 3458,
      "तचम": 3459,
      "एकक": 3460,
      "दसतत": 3461,
      "मदलय": 3462,
      "वसल": 3463,
      "वडक": 3464,
      "वडच": 3465,
      "वलद": 3466,
      "वटक": 3467,
      "पडण": 3468,
      "वततय": 3469,
      "रषटरक": 3470,
      "गलब": 3471,
      "कळर": 3472,
      "सचन": 3473,
      "बदक": 3474,
      "बदखण": 3475,
      "कशन": 3476,
      "पळवपच": 3477,
      "नवकलपन": 3478,
      "मखलम": 3479,
      "थरयलल": 3480,
      "अधकषक": 3481,
      "सहज": 3482,
      "घडवपच": 3483,
      "आरकषण": 3484,
      "उपधयय": 3485,
      "भटकर": 3486,
      "हजरन": 3487,
      "सवतचर": 3488,
      "करणत": 3489,
      "पदवदन": 3490,
      "ङकटलयन": 3491,
      "दवदर": 3492,
      "बयलन": 3493,
      "सडत": 3494,
      "पवलल": 3495,
      "फटयक": 3496,
      "परसधद": 3497,
      "पसतकच": 3498,
      "समजवद": 3499,
      "चरचक": 3500,
      "षटकन": 3501,
      "ववरक": 3502,
      "ववरच": 3503,
      "वहरक": 3504,
      "शळक": 3505,
      "सवळयच": 3506,
      "लखकन": 3507,
      "आदतय": 3508,
      "कदब": 3509,
      "रयडर": 3510,
      "भवनक": 3511,
      "मधयमच": 3512,
      "ततरजञनच": 3513,
      "अतरकत": 3514,
      "वठरच": 3515,
      "लकषत": 3516,
      "लकषमण": 3517,
      "आकशवणच": 3518,
      "रमनथन": 3519,
      "परतनधक": 3520,
      "रडड": 3521,
      "अभयत": 3522,
      "कतलयशयच": 3523,
      "अपघत": 3524,
      "चळवळ": 3525,
      "परकरणच": 3526,
      "यतरणच": 3527,
      "शतकरचय": 3528,
      "कणकच": 3529,
      "परकरयत": 3530,
      "उबरतल": 3531,
      "सकतसथळ": 3532,
      "ङकयनलच": 3533,
      "परशदचय": 3534,
      "धवडयच": 3535,
      "पटरलय": 3536,
      "चनलचर": 3537,
      "अकदमच": 3538,
      "रशटरय": 3539,
      "छततसगढ": 3540,
      "ङकतडर": 3541,
      "दखरख": 3542,
      "भलयकच": 3543,
      "कपटलस": 3544,
      "उददजक": 3545,
      "ननरळ": 3546,
      "यदसतक": 3547,
      "कनङकरनसग": 3548,
      "गदनह": 3549,
      "यडयरपप": 3550,
      "ab": 3551,
      "of": 3552,
      "th": 3553,
      "अव": 3554,
      "असथ": 3555,
      "अजत": 3556,
      "अजपन": 3557,
      "आध": 3558,
      "आह": 3559,
      "आयत": 3560,
      "आपयलय": 3561,
      "इसतर": 3562,
      "इबड": 3563,
      "उतक": 3564,
      "उचल": 3565,
      "ऊय": 3566,
      "कमन": 3567,
      "कहल": 3568,
      "खदर": 3569,
      "गद": 3570,
      "गखल": 3571,
      "चकत": 3572,
      "चलयल": 3573,
      "जतक": 3574,
      "झल": 3575,
      "णवस": 3576,
      "तखतर": 3577,
      "तदळ": 3578,
      "दप": 3579,
      "धवर": 3580,
      "धनय": 3581,
      "धलक": 3582,
      "नपल": 3583,
      "नवल": 3584,
      "नवक": 3585,
      "नसट": 3586,
      "पम": 3587,
      "पसर": 3588,
      "पतच": 3589,
      "पयर": 3590,
      "फद": 3591,
      "फटन": 3592,
      "बयर": 3593,
      "बजन": 3594,
      "बसप": 3595,
      "बमय": 3596,
      "मव": 3597,
      "मगन": 3598,
      "मशण": 3599,
      "मधव": 3600,
      "यथ": 3601,
      "यमन": 3602,
      "रर": 3603,
      "रळ": 3604,
      "रमत": 3605,
      "रदन": 3606,
      "रहन": 3607,
      "ळण": 3608,
      "वयत": 3609,
      "वपरत": 3610,
      "वबसय": 3611,
      "शड": 3612,
      "शलय": 3613,
      "शकय": 3614,
      "सई": 3615,
      "सषट": 3616,
      "सआरप": 3617,
      "हइ": 3618,
      "१८": 3619,
      "२०": 3620,
      "लयचय": 3621,
      "करपरट": 3622,
      "परसव": 3623,
      "परवत": 3624,
      "परकरच": 3625,
      "परदकषण": 3626,
      "आसप": 3627,
      "आसतलय": 3628,
      "आसनल": 3629,
      "सवग": 3630,
      "तनग": 3631,
      "मनयत": 3632,
      "मतरय": 3633,
      "भरटर": 3634,
      "भरषट": 3635,
      "मरगन": 3636,
      "कडट": 3637,
      "कडटल": 3638,
      "बरवन": 3639,
      "बरयलल": 3640,
      "वनत": 3641,
      "ततआ": 3642,
      "वयकय": 3643,
      "वयसन": 3644,
      "पणचय": 3645,
      "वसकळत": 3646,
      "वडलल": 3647,
      "दललयन": 3648,
      "वशव": 3649,
      "जरज": 3650,
      "सकन": 3651,
      "सतलय": 3652,
      "सनमन": 3653,
      "वहक": 3654,
      "खरय": 3655,
      "सभय": 3656,
      "पडक": 3657,
      "गयतल": 3658,
      "गयबब": 3659,
      "कदरचर": 3660,
      "पनशन": 3661,
      "सलळ": 3662,
      "घरण": 3663,
      "गडयन": 3664,
      "नवतत": 3665,
      "कमल": 3666,
      "मलच": 3667,
      "मलन": 3668,
      "थरय": 3669,
      "दळत": 3670,
      "नतलयन": 3671,
      "नचम": 3672,
      "उददश": 3673,
      "कलयर": 3674,
      "सहभग": 3675,
      "उपधयकष": 3676,
      "सदरय": 3677,
      "समध": 3678,
      "समप": 3679,
      "सटटय": 3680,
      "चडन": 3681,
      "दखयतल": 3682,
      "उलवक": 3683,
      "सडयर": 3684,
      "भगयन": 3685,
      "अरथवयवसथ": 3686,
      "दवरपक": 3687,
      "दवरलयत": 3688,
      "फटय": 3689,
      "फटयन": 3690,
      "जडन": 3691,
      "समजच": 3692,
      "समजत": 3693,
      "बबड": 3694,
      "तळसच": 3695,
      "मगच": 3696,
      "मयकल": 3697,
      "नगरकच": 3698,
      "सजचय": 3699,
      "ववरतत": 3700,
      "जवनक": 3701,
      "पवडयच": 3702,
      "आजगवकर": 3703,
      "तरणटय": 3704,
      "घटत": 3705,
      "यवजणत": 3706,
      "यवजणयच": 3707,
      "भवनशवर": 3708,
      "खतखत": 3709,
      "हततलयन": 3710,
      "अतरनत": 3711,
      "आठश": 3712,
      "वदयथरयच": 3713,
      "उणव": 3714,
      "कयदयत": 3715,
      "चदरशखर": 3716,
      "नमनचय": 3717,
      "दवळन": 3718,
      "अभयनच": 3719,
      "उपरतच": 3720,
      "वगळच": 3721,
      "ददलम": 3722,
      "अभयसकर": 3723,
      "कपनय": 3724,
      "भवडर": 3725,
      "परसदध": 3726,
      "वलयध": 3727,
      "इनसन": 3728,
      "रशयच": 3729,
      "सततआधर": 3730,
      "वभगचय": 3731,
      "एङकस": 3732,
      "पषपन": 3733,
      "परकशत": 3734,
      "ङकयनल": 3735,
      "हळच": 3736,
      "सरवतरक": 3737,
      "कमगरक": 3738,
      "वमनतळर": 3739,
      "सघटण": 3740,
      "वभगन": 3741,
      "कयसवल": 3742,
      "दबव": 3743,
      "बपयन": 3744,
      "भडरन": 3745,
      "वषय": 3746,
      "नययलयचय": 3747,
      "200": 3748,
      "नपळच": 3749,
      "कषतरतलय": 3750,
      "सडरलन": 3751,
      "अकदमन": 3752,
      "परवरतन": 3753,
      "आजयक": 3754,
      "उदयगत": 3755,
      "लहवच": 3756,
      "पढव": 3757,
      "नतरकय": 3758,
      "अधवशनत": 3759,
      "गवहट": 3760,
      "जळयवरव": 3761,
      "हलकपटर": 3762,
      "नगरकतव": 3763,
      "अङकगणसतन": 3764,
      "ममलदर": 3765,
      "12": 3766,
      "अट": 3767,
      "अजप": 3768,
      "आपय": 3769,
      "आवशयक": 3770,
      "इधन": 3771,
      "इजन": 3772,
      "एर": 3773,
      "ओडन": 3774,
      "कसर": 3775,
      "ककष": 3776,
      "कवश": 3777,
      "खवक": 3778,
      "गएल": 3779,
      "ङकरय": 3780,
      "ङकयद": 3781,
      "चलयक": 3782,
      "चकमक": 3783,
      "छय": 3784,
      "जतच": 3785,
      "झळ": 3786,
      "टकर": 3787,
      "डब": 3788,
      "डळ": 3789,
      "डलर": 3790,
      "थडय": 3791,
      "नतय": 3792,
      "नबर": 3793,
      "नहर": 3794,
      "नजक": 3795,
      "पकर": 3796,
      "पधर": 3797,
      "फटर": 3798,
      "फमद": 3799,
      "भतच": 3800,
      "भनत": 3801,
      "मष": 3802,
      "मसटर": 3803,
      "मसलम": 3804,
      "रघ": 3805,
      "रकत": 3806,
      "रवपक": 3807,
      "रकडच": 3808,
      "लघ": 3809,
      "शबन": 3810,
      "शकयल": 3811,
      "सतल": 3812,
      "सयल": 3813,
      "ससत": 3814,
      "सखर": 3815,
      "हतय": 3816,
      "हमद": 3817,
      "हमल": 3818,
      "हवटन": 3819,
      "ॠय": 3820,
      "१७": 3821,
      "करयच": 3822,
      "करळत": 3823,
      "परकषण": 3824,
      "आनर": 3825,
      "आनलम": 3826,
      "महतर": 3827,
      "महकय": 3828,
      "सरतल": 3829,
      "सरदर": 3830,
      "सरतन": 3831,
      "कलगन": 3832,
      "कलकरक": 3833,
      "वरक": 3834,
      "वरम": 3835,
      "सगपर": 3836,
      "आयलयर": 3837,
      "सवस": 3838,
      "सवतक": 3839,
      "कषम": 3840,
      "मनयतल": 3841,
      "भरक": 3842,
      "तकडन": 3843,
      "यनट": 3844,
      "मरमर": 3845,
      "कडलल": 3846,
      "गरग": 3847,
      "गरत": 3848,
      "जलमत": 3849,
      "ततपरत": 3850,
      "नययर": 3851,
      "नयजचय": 3852,
      "जयर": 3853,
      "जयल": 3854,
      "लकमद": 3855,
      "लकजण": 3856,
      "लकमरन": 3857,
      "लगतत": 3858,
      "मतम": 3859,
      "मतलय": 3860,
      "ङकक": 3861,
      "ङकचर": 3862,
      "दनपवल": 3863,
      "मळपच": 3864,
      "मळटत": 3865,
      "वडवपक": 3866,
      "हरक": 3867,
      "हरकत": 3868,
      "वशक": 3869,
      "सकशट": 3870,
      "रजसथ": 3871,
      "शरवसतव": 3872,
      "वकसच": 3873,
      "शचम": 3874,
      "षटरय": 3875,
      "परतप": 3876,
      "परतसहन": 3877,
      "मजन": 3878,
      "सदक": 3879,
      "सदपच": 3880,
      "कळचय": 3881,
      "सचत": 3882,
      "मडव": 3883,
      "गडयच": 3884,
      "कनङकर": 3885,
      "खळचय": 3886,
      "धरत": 3887,
      "धरकक": 3888,
      "मलखतत": 3889,
      "ङकडणवस": 3890,
      "चलप": 3891,
      "वचणकखतर": 3892,
      "उलयतलय": 3893,
      "घडट": 3894,
      "घडयल": 3895,
      "पकषपत": 3896,
      "उपट": 3897,
      "परयय": 3898,
      "हजरत": 3899,
      "आतमनर": 3900,
      "करणचय": 3901,
      "समधद": 3902,
      "सयबर": 3903,
      "सटडय": 3904,
      "शकवण": 3905,
      "हडटल": 3906,
      "घलनच": 3907,
      "सघतलयन": 3908,
      "पवतर": 3909,
      "पववप": 3910,
      "फटयचय": 3911,
      "भयलय": 3912,
      "अधयकषत": 3913,
      "उरच": 3914,
      "परदशण": 3915,
      "बबतत": 3916,
      "महजयन": 3917,
      "नशध": 3918,
      "खडत": 3919,
      "जललयतलय": 3920,
      "नटस": 3921,
      "बळक": 3922,
      "आदरच": 3923,
      "कदयक": 3924,
      "नहदल": 3925,
      "नहवल": 3926,
      "भवनच": 3927,
      "खतमच": 3928,
      "पवसन": 3929,
      "पवसचय": 3930,
      "शकषणच": 3931,
      "मतदरक": 3932,
      "अमरकत": 3933,
      "परकलपक": 3934,
      "अतरल": 3935,
      "सबदच": 3936,
      "इतलच": 3937,
      "चनचय": 3938,
      "आगवण": 3939,
      "उमदवरक": 3940,
      "मतदनच": 3941,
      "अनतनग": 3942,
      "आतकवदक": 3943,
      "लडख": 3944,
      "लवकरक": 3945,
      "सधद": 3946,
      "परचरसभ": 3947,
      "सधयचय": 3948,
      "दडक": 3949,
      "सवसरभर": 3950,
      "आवजन": 3951,
      "डसझ": 3952,
      "ततलच": 3953,
      "समकच": 3954,
      "हवरक": 3955,
      "चवथय": 3956,
      "बजरपठ": 3957,
      "दवयग": 3958,
      "सदनद": 3959,
      "वदयपठचय": 3960,
      "परतनधतव": 3961,
      "दरजदर": 3962,
      "गरयकक": 3963,
      "वगळयवगळय": 3964,
      "चदगड": 3965,
      "कलकतत": 3966,
      "चकरवदळ": 3967,
      "सधरत": 3968,
      "दशभरतलय": 3969,
      "मथयर": 3970,
      "अचकत": 3971,
      "ङकरपट": 3972,
      "आझद": 3973,
      "इफङक": 3974,
      "सनरयजरस": 3975,
      "आयपएल": 3976,
      "पटरलयम": 3977,
      "सआरपएङक": 3978,
      "भरषटचर": 3979,
      "सटटयट": 3980,
      "कनङकरसग": 3981,
      "an": 3982,
      "it": 3983,
      "अब": 3984,
      "अबदल": 3985,
      "अवसर": 3986,
      "आई": 3987,
      "इवह": 3988,
      "उतन": 3989,
      "उजल": 3990,
      "उकतल": 3991,
      "ऑल": 3992,
      "कढ": 3993,
      "ककर": 3994,
      "कवळ": 3995,
      "कसत": 3996,
      "गलयत": 3997,
      "गदय": 3998,
      "घटर": 3999,
      "चब": 4000,
      "जट": 4001,
      "टड": 4002,
      "ठल": 4003,
      "डझ": 4004,
      "डद": 4005,
      "डकर": 4006,
      "डयच": 4007,
      "डरय": 4008,
      "तगर": 4009,
      "थब": 4010,
      "थल": 4011,
      "धवशन": 4012,
      "नभ": 4013,
      "नटर": 4014,
      "नवस": 4015,
      "नशण": 4016,
      "पवर": 4017,
      "पकत": 4018,
      "पतत": 4019,
      "पनय": 4020,
      "पवक": 4021,
      "पपन": 4022,
      "पएस": 4023,
      "पचरक": 4024,
      "फसत": 4025,
      "फरत": 4026,
      "बव": 4027,
      "बनर": 4028,
      "बशललय": 4029,
      "भखम": 4030,
      "मवन": 4031,
      "ममत": 4032,
      "मगत": 4033,
      "मसतर": 4034,
      "यए": 4035,
      "यकत": 4036,
      "यजन": 4037,
      "यमरज": 4038,
      "रझ": 4039,
      "रसर": 4040,
      "रळय": 4041,
      "लटल": 4042,
      "लवक": 4043,
      "लठय": 4044,
      "ळकम": 4045,
      "शग": 4046,
      "शज": 4047,
      "शसन": 4048,
      "शबक": 4049,
      "शदध": 4050,
      "ससरग": 4051,
      "हतचय": 4052,
      "हतयच": 4053,
      "१३": 4054,
      "१६": 4055,
      "परतल": 4056,
      "परतक": 4057,
      "परसक": 4058,
      "परवडट": 4059,
      "चयर": 4060,
      "महजर": 4061,
      "महमरच": 4062,
      "दरर": 4063,
      "सरप": 4064,
      "सरगर": 4065,
      "कलमटर": 4066,
      "तयण": 4067,
      "वरवय": 4068,
      "चरचच": 4069,
      "आसमच": 4070,
      "सगलयक": 4071,
      "कषपण": 4072,
      "मनतल": 4073,
      "भरय": 4074,
      "मरम": 4075,
      "मरयद": 4076,
      "मरवणक": 4077,
      "गरथ": 4078,
      "गरवक": 4079,
      "वळपरमण": 4080,
      "तततल": 4081,
      "ततवच": 4082,
      "नयजत": 4083,
      "जयक": 4084,
      "लकपल": 4085,
      "दसम": 4086,
      "वयवसयक": 4087,
      "नरच": 4088,
      "नरकषण": 4089,
      "पलतड": 4090,
      "दनक": 4091,
      "मळपक": 4092,
      "वडलय": 4093,
      "वडयल": 4094,
      "वडटल": 4095,
      "दलप": 4096,
      "यरत": 4097,
      "हरवन": 4098,
      "वशणच": 4099,
      "करयकरत": 4100,
      "वगग": 4101,
      "वगच": 4102,
      "महणर": 4103,
      "सनटय": 4104,
      "वलशल": 4105,
      "रजवट": 4106,
      "रजनन": 4107,
      "पकक": 4108,
      "शरतल": 4109,
      "शरशर": 4110,
      "शररम": 4111,
      "खरल": 4112,
      "वटय": 4113,
      "वटस": 4114,
      "पडलय": 4115,
      "मकळक": 4116,
      "हचकडन": 4117,
      "कळव": 4118,
      "बदद": 4119,
      "मडपच": 4120,
      "कदरक": 4121,
      "घरतल": 4122,
      "पळग": 4123,
      "पळतल": 4124,
      "पळवप": 4125,
      "पयष": 4126,
      "भरततल": 4127,
      "धरणक": 4128,
      "चलवप": 4129,
      "दळयन": 4130,
      "दललच": 4131,
      "नतश": 4132,
      "घडवप": 4133,
      "आरम": 4134,
      "उपस": 4135,
      "उतसवच": 4136,
      "कचच": 4137,
      "आडच": 4138,
      "सबधन": 4139,
      "पटटल": 4140,
      "सटत": 4141,
      "उलन": 4142,
      "पदध": 4143,
      "शकतल": 4144,
      "हडललय": 4145,
      "दवगर": 4146,
      "मरनचय": 4147,
      "रलन": 4148,
      "रलवच": 4149,
      "पवलयत": 4150,
      "दयसन": 4151,
      "हगचय": 4152,
      "जडलय": 4153,
      "परदशन": 4154,
      "बबळ": 4155,
      "बबलयन": 4156,
      "सगळच": 4157,
      "सगळयन": 4158,
      "मयदय": 4159,
      "वचरक": 4160,
      "वहरत": 4161,
      "गरजचर": 4162,
      "बडय": 4163,
      "बडखर": 4164,
      "सहतयचय": 4165,
      "भरगपण": 4166,
      "कगरसन": 4167,
      "ततरच": 4168,
      "बगबगन": 4169,
      "अमरकन": 4170,
      "वमनच": 4171,
      "सबदचय": 4172,
      "रखप": 4173,
      "जमनर": 4174,
      "199": 4175,
      "भनमतम": 4176,
      "आकशवणक": 4177,
      "पठन": 4178,
      "तरचळस": 4179,
      "कयदयच": 4180,
      "थळर": 4181,
      "थळव": 4182,
      "परचरक": 4183,
      "आयगकडन": 4184,
      "रसतयच": 4185,
      "ददलर": 4186,
      "अभयतरक": 4187,
      "पतरकरकडन": 4188,
      "मजरत": 4189,
      "परतयकषक": 4190,
      "भशतल": 4191,
      "रपयचय": 4192,
      "वयवसथपन": 4193,
      "इनसटटयट": 4194,
      "सवरधन": 4195,
      "कपनयन": 4196,
      "आसतनच": 4197,
      "ओडश": 4198,
      "चवथ": 4199,
      "सरवतक": 4200,
      "चललल": 4201,
      "दवयच": 4202,
      "जपनचय": 4203,
      "लकरपण": 4204,
      "सतयपल": 4205,
      "बपयक": 4206,
      "सचयल": 4207,
      "वदयपठत": 4208,
      "नलडमय": 4209,
      "भडवल": 4210,
      "कशळतय": 4211,
      "भषतलय": 4212,
      "समलनच": 4213,
      "सवचछत": 4214,
      "गठयत": 4215,
      "दळयतलयन": 4216,
      "कषतरतल": 4217,
      "भरगयचर": 4218,
      "उखललयत": 4219,
      "दवललय": 4220,
      "आखलयत": 4221,
      "गनयवकर": 4222,
      "बदधबळ": 4223,
      "बसयतल": 4224,
      "पशचम": 4225,
      "तलनयतलय": 4226,
      "गपतहर": 4227,
      "उपरशललय": 4228,
      "चकलट": 4229,
      "नजरन": 4230,
      "शशवत": 4231,
      "अधवशनक": 4232,
      "टवटरचर": 4233,
      "आरबआयन": 4234,
      "चननयत": 4235,
      "इलनटरनक": 4236,
      "नवहबर": 4237,
      "उदरगतत": 4238,
      "अखरक": 4239,
      "इटरनट": 4240,
      "दयनद": 4241,
      "पखरयल": 4242,
      "आतमनरभर": 4243,
      "17": 4244,
      "25": 4245,
      "50": 4246,
      "ad": 4247,
      "ra": 4248,
      "अगर": 4249,
      "अवसथ": 4250,
      "अवकश": 4251,
      "आतय": 4252,
      "आवट": 4253,
      "आगत": 4254,
      "आगन": 4255,
      "आगण": 4256,
      "आधनक": 4257,
      "इल": 4258,
      "इबर": 4259,
      "उणय": 4260,
      "कज": 4261,
      "कह": 4262,
      "ककड": 4263,
      "कपण": 4264,
      "खक": 4265,
      "खवच": 4266,
      "गचय": 4267,
      "गलयर": 4268,
      "घवळ": 4269,
      "चवर": 4270,
      "चखल": 4271,
      "जओ": 4272,
      "जद": 4273,
      "जभ": 4274,
      "जवर": 4275,
      "जसत": 4276,
      "जपत": 4277,
      "टयन": 4278,
      "डकय": 4279,
      "डलम": 4280,
      "ततय": 4281,
      "ददलल": 4282,
      "ददव": 4283,
      "दषट": 4284,
      "दबयत": 4285,
      "धपल": 4286,
      "नमल": 4287,
      "पपर": 4288,
      "पसक": 4289,
      "पटक": 4290,
      "बसव": 4291,
      "भचय": 4292,
      "भतक": 4293,
      "भवत": 4294,
      "भगल": 4295,
      "मतक": 4296,
      "मसल": 4297,
      "मथय": 4298,
      "ययल": 4299,
      "रध": 4300,
      "रफ": 4301,
      "रगण": 4302,
      "रयचय": 4303,
      "लचय": 4304,
      "लवपक": 4305,
      "लडर": 4306,
      "वलक": 4307,
      "वतरण": 4308,
      "शवट": 4309,
      "शवसन": 4310,
      "ससग": 4311,
      "सजय": 4312,
      "सफट": 4313,
      "हमत": 4314,
      "लयट": 4315,
      "लयलय": 4316,
      "करस": 4317,
      "करयन": 4318,
      "परवड": 4319,
      "परवह": 4320,
      "परनत": 4321,
      "परशत": 4322,
      "परकरत": 4323,
      "परगतच": 4324,
      "चयय": 4325,
      "महजन": 4326,
      "महकच": 4327,
      "महरग": 4328,
      "तलगणत": 4329,
      "दरलकष": 4330,
      "सरण": 4331,
      "सरळ": 4332,
      "सरलल": 4333,
      "ललत": 4334,
      "तयवळर": 4335,
      "आयकल": 4336,
      "आयसल": 4337,
      "आयआयट": 4338,
      "सवसतर": 4339,
      "तननच": 4340,
      "मनज": 4341,
      "मनकत": 4342,
      "भरपच": 4343,
      "भरललय": 4344,
      "कडचय": 4345,
      "गरच": 4346,
      "वचल": 4347,
      "जलद": 4348,
      "जलर": 4349,
      "जलहय": 4350,
      "वनस": 4351,
      "दशवसयक": 4352,
      "तचपर": 4353,
      "एकलयन": 4354,
      "लगणक": 4355,
      "वयपक": 4356,
      "पणजच": 4357,
      "ङकस": 4358,
      "दनम": 4359,
      "मळवपक": 4360,
      "वडवपच": 4361,
      "हरत": 4362,
      "वशश": 4363,
      "सगलमत": 4364,
      "महणज": 4365,
      "सकट": 4366,
      "सततय": 4367,
      "रजकमर": 4368,
      "आशच": 4369,
      "आशवन": 4370,
      "शरतलय": 4371,
      "शचलय": 4372,
      "वदच": 4373,
      "परतगल": 4374,
      "परतसपरध": 4375,
      "वहग": 4376,
      "वहनय": 4377,
      "वहवत": 4378,
      "वहनच": 4379,
      "पडरग": 4380,
      "रषटरवद": 4381,
      "सथनन": 4382,
      "हचवरवय": 4383,
      "सदयक": 4384,
      "मडक": 4385,
      "सललय": 4386,
      "पळळ": 4387,
      "पयपलयन": 4388,
      "करयवळन": 4389,
      "खळतल": 4390,
      "धरल": 4391,
      "आपतत": 4392,
      "अरवद": 4393,
      "मलर": 4394,
      "थरथर": 4395,
      "ककणत": 4396,
      "नचट": 4397,
      "उदतय": 4398,
      "कलयच": 4399,
      "सहस": 4400,
      "सहमत": 4401,
      "घडन": 4402,
      "वठठल": 4403,
      "आतभयन": 4404,
      "उतपदक": 4405,
      "उतकषट": 4406,
      "सवतखतर": 4407,
      "बलसत": 4408,
      "कचबल": 4409,
      "समकर": 4410,
      "समङकयनलत": 4411,
      "जललम": 4412,
      "परशसक": 4413,
      "पटवन": 4414,
      "पटयल": 4415,
      "चडत": 4416,
      "गवगरय": 4417,
      "ननध": 4418,
      "दवचय": 4419,
      "सडचर": 4420,
      "सडपच": 4421,
      "हतभर": 4422,
      "सघत": 4423,
      "बसतल": 4424,
      "दलयर": 4425,
      "ङकडरयचय": 4426,
      "अरथसकलप": 4427,
      "पववपच": 4428,
      "खतयक": 4429,
      "परसपर": 4430,
      "भयणच": 4431,
      "हगच": 4432,
      "चचतर": 4433,
      "रनथ": 4434,
      "जडण": 4435,
      "उरमतन": 4436,
      "बबत": 4437,
      "नशब": 4438,
      "नगरपलक": 4439,
      "पगडमद": 4440,
      "सरकषच": 4441,
      "तडत": 4442,
      "वहरन": 4443,
      "पवडयचर": 4444,
      "समरट": 4445,
      "यवलयन": 4446,
      "गरजचय": 4447,
      "बडत": 4448,
      "वपरक": 4449,
      "नदरक": 4450,
      "बळर": 4451,
      "बधदम": 4452,
      "बधदबळ": 4453,
      "नहदलल": 4454,
      "वदशतलय": 4455,
      "मधयपरदश": 4456,
      "उकतवणच": 4457,
      "ससधन": 4458,
      "शयळ": 4459,
      "बकग": 4460,
      "सचवलयत": 4461,
      "वठरक": 4462,
      "वरणस": 4463,
      "उमदवरन": 4464,
      "सकलन": 4465,
      "सबधच": 4466,
      "बनवरध": 4467,
      "फरक": 4468,
      "लडनत": 4469,
      "सगरहलय": 4470,
      "यरदरच": 4471,
      "आठव": 4472,
      "सधतल": 4473,
      "वधयकचर": 4474,
      "ससदत": 4475,
      "वरधत": 4476,
      "रलवचय": 4477,
      "इडज": 4478,
      "बचळस": 4479,
      "आवयक": 4480,
      "आवजत": 4481,
      "सबळन": 4482,
      "सघटनचय": 4483,
      "अदज": 4484,
      "थडयच": 4485,
      "लहनपण": 4486,
      "जशठ": 4487,
      "भगरच": 4488,
      "मनशचय": 4489,
      "चलयचय": 4490,
      "रकषमतर": 4491,
      "कवटर": 4492,
      "जपनच": 4493,
      "सघटणचय": 4494,
      "गजरतत": 4495,
      "एकणसठ": 4496,
      "वदयरथयन": 4497,
      "यजमनर": 4498,
      "सहययक": 4499,
      "इगलश": 4500,
      "करयकरमक": 4501,
      "अडज": 4502,
      "अडवण": 4503,
      "चनलवरव": 4504,
      "समलनत": 4505,
      "महरगय": 4506,
      "मतमजणच": 4507,
      "खयचयच": 4508,
      "भखरभतरमन": 4509,
      "भतलल": 4510,
      "अठर": 4511,
      "कगद": 4512,
      "झरखडत": 4513,
      "थयचयन": 4514,
      "फडरपण": 4515,
      "उचचर": 4516,
      "महवदयलयचय": 4517,
      "ङकनचर": 4518,
      "सभघरन": 4519,
      "मकळपणन": 4520,
      "अदमसपतरक": 4521,
      "एनसपरस": 4522,
      "नहयकरल": 4523,
      "आभदय": 4524,
      "इमरतच": 4525,
      "रवशकर": 4526,
      "रजरव": 4527,
      "उपरशटर": 4528,
      "मलजणम": 4529,
      "अवनश": 4530,
      "टपपयन": 4531,
      "मरयदत": 4532,
      "हततमयक": 4533,
      "जबबदर": 4534,
      "घसमटमर": 4535,
      "इशकलत": 4536,
      "रयडरस": 4537,
      "उतकशट": 4538,
      "कषपणसतर": 4539,
      "23": 4540,
      "अङ": 4541,
      "अकष": 4542,
      "अजय": 4543,
      "अकश": 4544,
      "अतस": 4545,
      "अचक": 4546,
      "आच": 4547,
      "आवर": 4548,
      "आगणत": 4549,
      "आमतरण": 4550,
      "आवहनक": 4551,
      "इस": 4552,
      "इगर": 4553,
      "इललय": 4554,
      "इसलम": 4555,
      "उनय": 4556,
      "उलयन": 4557,
      "उपरस": 4558,
      "एट": 4559,
      "एमक": 4560,
      "एअर": 4561,
      "कपत": 4562,
      "कसच": 4563,
      "कटक": 4564,
      "कदय": 4565,
      "खतल": 4566,
      "खयत": 4567,
      "खतन": 4568,
      "खवट": 4569,
      "गहलत": 4570,
      "चनत": 4571,
      "चथय": 4572,
      "चतरण": 4573,
      "छत": 4574,
      "छतर": 4575,
      "जगन": 4576,
      "झग": 4577,
      "झरत": 4578,
      "टयक": 4579,
      "ठम": 4580,
      "तदन": 4581,
      "तसल": 4582,
      "थबल": 4583,
      "थडच": 4584,
      "दतय": 4585,
      "दलयन": 4586,
      "दवसथ": 4587,
      "दगणत": 4588,
      "धवय": 4589,
      "धवल": 4590,
      "नतल": 4591,
      "नकष": 4592,
      "नकरय": 4593,
      "नमज": 4594,
      "नजलयर": 4595,
      "नदळच": 4596,
      "नदळचय": 4597,
      "पख": 4598,
      "पपय": 4599,
      "पशत": 4600,
      "फच": 4601,
      "फटक": 4602,
      "फबरवर": 4603,
      "बथ": 4604,
      "बम": 4605,
      "बकत": 4606,
      "बएस": 4607,
      "भई": 4608,
      "भच": 4609,
      "भब": 4610,
      "भनर": 4611,
      "भयच": 4612,
      "भवण": 4613,
      "मजय": 4614,
      "मसत": 4615,
      "मशट": 4616,
      "मतयच": 4617,
      "यवत": 4618,
      "यदय": 4619,
      "यतरच": 4620,
      "रकय": 4621,
      "रसक": 4622,
      "रपड": 4623,
      "रगय": 4624,
      "लध": 4625,
      "लवर": 4626,
      "लमट": 4627,
      "ळकत": 4628,
      "वतक": 4629,
      "वतच": 4630,
      "वतलय": 4631,
      "शयन": 4632,
      "शमल": 4633,
      "षटक": 4634,
      "सए": 4635,
      "सपण": 4636,
      "सङकट": 4637,
      "सदशच": 4638,
      "सदसय": 4639,
      "हध": 4640,
      "करबवल": 4641,
      "तरसद": 4642,
      "परग": 4643,
      "परयन": 4644,
      "परशर": 4645,
      "परसय": 4646,
      "परमख": 4647,
      "परपतरक": 4648,
      "महद": 4649,
      "महमर": 4650,
      "महसचव": 4651,
      "महमरचय": 4652,
      "महसघन": 4653,
      "तलर": 4654,
      "दरघ": 4655,
      "सरखय": 4656,
      "ललकषण": 4657,
      "हयप": 4658,
      "हयस": 4659,
      "वरय": 4660,
      "चरचल": 4661,
      "सगप": 4662,
      "सगणक": 4663,
      "आयचयन": 4664,
      "सवश": 4665,
      "सववसथ": 4666,
      "सवहयप": 4667,
      "तनच": 4668,
      "कषमत": 4669,
      "मनझ": 4670,
      "मनरज": 4671,
      "मनवत": 4672,
      "मनशन": 4673,
      "भरच": 4674,
      "भरव": 4675,
      "भरतल": 4676,
      "तकट": 4677,
      "मरलल": 4678,
      "कडचड": 4679,
      "बरवप": 4680,
      "बरपक": 4681,
      "बरनस": 4682,
      "बरनसट": 4683,
      "गरभ": 4684,
      "ततस": 4685,
      "तततलय": 4686,
      "ततवचर": 4687,
      "तततलयन": 4688,
      "नयब": 4689,
      "कयकडन": 4690,
      "लकसखय": 4691,
      "एकचर": 4692,
      "एकमत": 4693,
      "लगप": 4694,
      "लगवड": 4695,
      "वयथ": 4696,
      "नरमद": 4697,
      "नरमळ": 4698,
      "नरवकर": 4699,
      "पलम": 4700,
      "पलचय": 4701,
      "पलसच": 4702,
      "ङकम": 4703,
      "ङककट": 4704,
      "वसतक": 4705,
      "वसतरत": 4706,
      "वडवन": 4707,
      "यरपयन": 4708,
      "खललय": 4709,
      "करनवल": 4710,
      "करनसतन": 4711,
      "सततयन": 4712,
      "सनशट": 4713,
      "सनवणक": 4714,
      "तलयत": 4715,
      "वणत": 4716,
      "आशळलर": 4717,
      "शरण": 4718,
      "शरचय": 4719,
      "शरकत": 4720,
      "शररक": 4721,
      "ककम": 4722,
      "परतकरय": 4723,
      "परतषठ": 4724,
      "वहज": 4725,
      "वहवह": 4726,
      "सभच": 4727,
      "सभघरच": 4728,
      "पडव": 4729,
      "गलड": 4730,
      "कळकर": 4731,
      "कशलय": 4732,
      "सलतन": 4733,
      "पळयतत": 4734,
      "कडनच": 4735,
      "करयवळचर": 4736,
      "आपयल": 4737,
      "आपवण": 4738,
      "मलजणच": 4739,
      "लगनक": 4740,
      "चलथ": 4741,
      "सपतल": 4742,
      "सपयल": 4743,
      "दललचय": 4744,
      "ककणच": 4745,
      "शतदरग": 4746,
      "नचमत": 4747,
      "कथतल": 4748,
      "अधवशनच": 4749,
      "घडलन": 4750,
      "नमतत": 4751,
      "नमसकर": 4752,
      "आरवललय": 4753,
      "उपकरण": 4754,
      "उपकरच": 4755,
      "भटचय": 4756,
      "गणचय": 4757,
      "गणवतत": 4758,
      "बलच": 4759,
      "बलदन": 4760,
      "आडव": 4761,
      "आडमळ": 4762,
      "जणचय": 4763,
      "आमय": 4764,
      "सबआय": 4765,
      "परशदक": 4766,
      "पटच": 4767,
      "पटलल": 4768,
      "पटनयक": 4769,
      "सटसटत": 4770,
      "वगडय": 4771,
      "वगडयक": 4772,
      "दखयत": 4773,
      "पदम": 4774,
      "हडड": 4775,
      "ङकटयच": 4776,
      "यवजत": 4777,
      "भगयक": 4778,
      "भगदळन": 4779,
      "शणच": 4780,
      "ङकडरयक": 4781,
      "बयटक": 4782,
      "दवरत": 4783,
      "खतयत": 4784,
      "दयग": 4785,
      "परसकरच": 4786,
      "फडन": 4787,
      "नलन": 4788,
      "नहयत": 4789,
      "पवललय": 4790,
      "परदशधयकष": 4791,
      "बबलयक": 4792,
      "तळसक": 4793,
      "तळशच": 4794,
      "सगळम": 4795,
      "कटटल": 4796,
      "नगरसवक": 4797,
      "भलयकचय": 4798,
      "सरततल": 4799,
      "ववरण": 4800,
      "जवनच": 4801,
      "सगरहत": 4802,
      "पवडयचय": 4803,
      "शळच": 4804,
      "समरपत": 4805,
      "जवपचय": 4806,
      "जवपखतर": 4807,
      "हलचल": 4808,
      "पलसण": 4809,
      "आदरन": 4810,
      "बधत": 4811,
      "ससदन": 4812,
      "बगनच": 4813,
      "हसचर": 4814,
      "परकलपचय": 4815,
      "धडक": 4816,
      "रखव": 4817,
      "वसतवत": 4818,
      "रगच": 4819,
      "सटरल": 4820,
      "पकसतनतलय": 4821,
      "सकलच": 4822,
      "गजलक": 4823,
      "अनदन": 4824,
      "अनपचरक": 4825,
      "लडट": 4826,
      "लडन": 4827,
      "लडलन": 4828,
      "लकषय": 4829,
      "यरदरचर": 4830,
      "सधम": 4831,
      "वधयकन": 4832,
      "वरधकन": 4833,
      "मळळयत": 4834,
      "आयगक": 4835,
      "धरणतमक": 4836,
      "अभमन": 4837,
      "महलतलय": 4838,
      "वगळपण": 4839,
      "रसतयर": 4840,
      "मतदरसघतलयन": 4841,
      "आवयच": 4842,
      "ददलनच": 4843,
      "सवसरच": 4844,
      "उजवडच": 4845,
      "उजवडत": 4846,
      "करमचरयच": 4847,
      "घवपचय": 4848,
      "उललघन": 4849,
      "भशतलय": 4850,
      "अदमन": 4851,
      "एङकएम": 4852,
      "वळखतत": 4853,
      "चचणम": 4854,
      "पषपच": 4855,
      "उबरल": 4856,
      "उबरपच": 4857,
      "ङकरनस": 4858,
      "वकरयच": 4859,
      "सकरमण": 4860,
      "बजवण": 4861,
      "आघडच": 4862,
      "समदय": 4863,
      "गजरततलय": 4864,
      "परसथतचर": 4865,
      "एकणश": 4866,
      "मदरत": 4867,
      "परदरशनच": 4868,
      "ङकडरपणखल": 4869,
      "कयसवक": 4870,
      "दवललल": 4871,
      "इगलशत": 4872,
      "बपततआ": 4873,
      "यशसव": 4874,
      "वदयपठन": 4875,
      "वसरजन": 4876,
      "अकदमचय": 4877,
      "ऑसटरलयच": 4878,
      "तमळनडतलय": 4879,
      "वषणच": 4880,
      "करयशळत": 4881,
      "महतसवचय": 4882,
      "तगलय": 4883,
      "परदप": 4884,
      "उखलन": 4885,
      "आखलय": 4886,
      "सचलनलयन": 4887,
      "चकरवद": 4888,
      "लटकय": 4889,
      "भवतणचय": 4890,
      "खयचच": 4891,
      "आयषमन": 4892,
      "छततसगड": 4893,
      "वललर": 4894,
      "तलनयत": 4895,
      "परदरशकत": 4896,
      "इमरतचय": 4897,
      "कशयप": 4898,
      "अडचण": 4899,
      "आशळललम": 4900,
      "कळवणत": 4901,
      "उददजकतय": 4902,
      "शरडकर": 4903,
      "यससवपणन": 4904,
      "मवशभव": 4905,
      "करसतव": 4906,
      "अमलबजवण": 4907,
      "आचरसह": 4908,
      "नरयळदत": 4909,
      "रमचदर": 4910,
      "करयकतरयक": 4911,
      "कसळललयन": 4912,
      "कदलर": 4913,
      "सइतय": 4914,
      "ततवगनयन": 4915,
      "बरकसणन": 4916,
      "आदतयनथ": 4917,
      "abs": 4918,
      "the": 4919,
      "रजसथनत": 4920,
      "अधयकषतखल": 4921,
      "ity": 4922,
      "उतनदन": 4923,
      "उकतलण": 4924,
      "एकणसठव": 4925,
      "00": 4926,
      "11": 4927,
      "al": 4928,
      "on": 4929,
      "अख": 4930,
      "अनल": 4931,
      "अदच": 4932,
      "अकषय": 4933,
      "अवतर": 4934,
      "अनरग": 4935,
      "आट": 4936,
      "आथ": 4937,
      "आसर": 4938,
      "आतन": 4939,
      "आमण": 4940,
      "आमल": 4941,
      "आगव": 4942,
      "इशनय": 4943,
      "ईद": 4944,
      "उझ": 4945,
      "उम": 4946,
      "ऊल": 4947,
      "एकर": 4948,
      "एतन": 4949,
      "एखदय": 4950,
      "कचर": 4951,
      "कतन": 4952,
      "कवय": 4953,
      "कसट": 4954,
      "कबरल": 4955,
      "खमस": 4956,
      "खटच": 4957,
      "गपन": 4958,
      "गगनयन": 4959,
      "घण": 4960,
      "ङकरमचर": 4961,
      "चचर": 4962,
      "चवस": 4963,
      "चलयत": 4964,
      "चकश": 4965,
      "चमल": 4966,
      "जब": 4967,
      "जतय": 4968,
      "जनर": 4969,
      "जवल": 4970,
      "जगल": 4971,
      "जकन": 4972,
      "जषट": 4973,
      "जवहर": 4974,
      "डयन": 4975,
      "तष": 4976,
      "तपर": 4977,
      "तवर": 4978,
      "तवश": 4979,
      "थप": 4980,
      "दकष": 4981,
      "दवस": 4982,
      "धग": 4983,
      "धल": 4984,
      "धळ": 4985,
      "धकक": 4986,
      "धगय": 4987,
      "नयत": 4988,
      "नमच": 4989,
      "पतय": 4990,
      "पकय": 4991,
      "पगल": 4992,
      "पसल": 4993,
      "पपळ": 4994,
      "पशक": 4995,
      "पसवन": 4996,
      "पशय": 4997,
      "पझट": 4998,
      "बयक": 4999,
      "बकक": 5000,
      "बनन": 5001,
      "भवर": 5002,
      "भटल": 5003,
      "मचर": 5004,
      "ममन": 5005,
      "मधन": 5006,
      "मसरत": 5007,
      "यतरक": 5008,
      "रचय": 5009,
      "रपत": 5010,
      "रमण": 5011,
      "लकल": 5012,
      "लबर": 5013,
      "लवद": 5014,
      "लफटन": 5015,
      "ळल": 5016,
      "ळव": 5017,
      "ळचय": 5018,
      "वटल": 5019,
      "वसरक": 5020,
      "वतरत": 5021,
      "वषण": 5022,
      "शमर": 5023,
      "शवस": 5024,
      "शटन": 5025,
      "शबच": 5026,
      "शपयन": 5027,
      "सयच": 5028,
      "सणच": 5029,
      "सखन": 5030,
      "सयनत": 5031,
      "हमर": 5032,
      "हवन": 5033,
      "हवल": 5034,
      "लयलयत": 5035,
      "करभ": 5036,
      "करयत": 5037,
      "करपरशन": 5038,
      "करयरत": 5039,
      "परयक": 5040,
      "परभग": 5041,
      "परयतन": 5042,
      "परगट": 5043,
      "परकषक": 5044,
      "महमक": 5045,
      "दरस": 5046,
      "सरदन": 5047,
      "सरजन": 5048,
      "कलकरच": 5049,
      "कलगम": 5050,
      "वरज": 5051,
      "यतमक": 5052,
      "आसनय": 5053,
      "सगपच": 5054,
      "आयएस": 5055,
      "सवकर": 5056,
      "कषतरय": 5057,
      "मतरलयक": 5058,
      "मरनच": 5059,
      "कडर": 5060,
      "जलक": 5061,
      "वळण": 5062,
      "ततच": 5063,
      "ततलयन": 5064,
      "नयज": 5065,
      "जयपर": 5066,
      "तचच": 5067,
      "लकपरय": 5068,
      "एकदर": 5069,
      "वयवस": 5070,
      "वयवहर": 5071,
      "वयङकय": 5072,
      "तणच": 5073,
      "नरवण": 5074,
      "मददय": 5075,
      "पलजम": 5076,
      "दनच": 5077,
      "वसच": 5078,
      "वसतन": 5079,
      "वसतरन": 5080,
      "मळललय": 5081,
      "मळयचय": 5082,
      "मळयलल": 5083,
      "यरन": 5084,
      "हरल": 5085,
      "वशयवलय": 5086,
      "करयचय": 5087,
      "वगन": 5088,
      "महणण": 5089,
      "आयजसवन": 5090,
      "सतचय": 5091,
      "सनच": 5092,
      "सनवल": 5093,
      "सनकन": 5094,
      "वलधन": 5095,
      "वलजम": 5096,
      "पकन": 5097,
      "पकचय": 5098,
      "शरद": 5099,
      "शरर": 5100,
      "वदक": 5101,
      "ककतर": 5102,
      "ककळट": 5103,
      "परतशठ": 5104,
      "वहलय": 5105,
      "सभन": 5106,
      "सभयत": 5107,
      "रषटरच": 5108,
      "रषटरपतच": 5109,
      "गयज": 5110,
      "सदद": 5111,
      "कळक": 5112,
      "कळट": 5113,
      "कळल": 5114,
      "कळयल": 5115,
      "कळजच": 5116,
      "मडच": 5117,
      "मडगवच": 5118,
      "पनच": 5119,
      "सलपर": 5120,
      "पळलल": 5121,
      "पळयन": 5122,
      "पळवच": 5123,
      "पळवपक": 5124,
      "जतदर": 5125,
      "कनशक": 5126,
      "करयवळतलयन": 5127,
      "मखलपणन": 5128,
      "धरच": 5129,
      "धरणच": 5130,
      "धरकचय": 5131,
      "कमयनट": 5132,
      "आपटल": 5133,
      "आपआपलय": 5134,
      "आपपलय": 5135,
      "अरक": 5136,
      "अरय": 5137,
      "जनस": 5138,
      "जनधन": 5139,
      "जनलत": 5140,
      "जनसघच": 5141,
      "मलत": 5142,
      "मलशय": 5143,
      "थरवक": 5144,
      "सपद": 5145,
      "सपदक": 5146,
      "शतचय": 5147,
      "शततय": 5148,
      "नचत": 5149,
      "उददशन": 5150,
      "अधकरण": 5151,
      "वचणकन": 5152,
      "उलयतत": 5153,
      "पकषत": 5154,
      "नमवळ": 5155,
      "उपमखलमतर": 5156,
      "महयतच": 5157,
      "असघटत": 5158,
      "हजरवयर": 5159,
      "भरतयक": 5160,
      "उतसवत": 5161,
      "समगर": 5162,
      "समजल": 5163,
      "सतरचय": 5164,
      "सतरसचलन": 5165,
      "पटभर": 5166,
      "सयम": 5167,
      "सयदसम": 5168,
      "चडशय": 5169,
      "गवतल": 5170,
      "दखत": 5171,
      "उलत": 5172,
      "उलव": 5173,
      "उलतल": 5174,
      "उलवपच": 5175,
      "पदद": 5176,
      "पदव": 5177,
      "पदधकर": 5178,
      "दवलय": 5179,
      "बसबर": 5180,
      "बसलयत": 5181,
      "मखरमतर": 5182,
      "नययध": 5183,
      "रलत": 5184,
      "बयपकच": 5185,
      "दवरक": 5186,
      "पसळ": 5187,
      "पसतल": 5188,
      "पसआर": 5189,
      "फडत": 5190,
      "उकतमर": 5191,
      "उकतडर": 5192,
      "भयकत": 5193,
      "अधयकषतय": 5194,
      "कणतर": 5195,
      "शटचय": 5196,
      "जगक": 5197,
      "वदयलय": 5198,
      "बबन": 5199,
      "कटट": 5200,
      "कटय": 5201,
      "कटटर": 5202,
      "कटबक": 5203,
      "खडगठ": 5204,
      "मगलल": 5205,
      "मगदन": 5206,
      "नगरपलकच": 5207,
      "वचरन": 5208,
      "सरकषचय": 5209,
      "नटच": 5210,
      "नटय": 5211,
      "वहरपच": 5212,
      "वहरपक": 5213,
      "दवपचर": 5214,
      "जवनचय": 5215,
      "समरथन": 5216,
      "नदरतलयन": 5217,
      "लखकच": 5218,
      "बळगन": 5219,
      "मधयमन": 5220,
      "मधयवरत": 5221,
      "ङकरसस": 5222,
      "हततलय": 5223,
      "शकषणचय": 5224,
      "मतदरच": 5225,
      "अमरकक": 5226,
      "परकलन": 5227,
      "बदलन": 5228,
      "रखच": 5229,
      "रखपच": 5230,
      "195": 5231,
      "197": 5232,
      "भनदसन": 5233,
      "महयनयच": 5234,
      "महयनयक": 5235,
      "वरणसत": 5236,
      "आगक": 5237,
      "दवचलच": 5238,
      "रमकषण": 5239,
      "लनब": 5240,
      "पकसतनत": 5241,
      "बयतचम": 5242,
      "गजलचर": 5243,
      "यदद": 5244,
      "आतकवदच": 5245,
      "आतकवदयच": 5246,
      "फरस": 5247,
      "चतररथ": 5248,
      "सशकत": 5249,
      "आदलन": 5250,
      "उडवच": 5251,
      "गधजचय": 5252,
      "गटचय": 5253,
      "गटतलय": 5254,
      "खणत": 5255,
      "कमरस": 5256,
      "चदरयन": 5257,
      "एनए": 5258,
      "बगलदशच": 5259,
      "आतरषटरय": 5260,
      "ससकतयच": 5261,
      "धरणत": 5262,
      "अभभशण": 5263,
      "महलत": 5264,
      "इडसटर": 5265,
      "पदरथ": 5266,
      "दडश": 5267,
      "मठयन": 5268,
      "मटरक": 5269,
      "इतसक": 5270,
      "परतयकषत": 5271,
      "परकषत": 5272,
      "अपघ": 5273,
      "अपघतत": 5274,
      "रपयक": 5275,
      "दनपरच": 5276,
      "तरणटयचय": 5277,
      "सततआक": 5278,
      "परसतवक": 5279,
      "यतरणक": 5280,
      "पटलम": 5281,
      "शकषकक": 5282,
      "कपनच": 5283,
      "चलयतल": 5284,
      "ओडत": 5285,
      "तकलगन": 5286,
      "समतचय": 5287,
      "कवयत": 5288,
      "भदभव": 5289,
      "घडणकक": 5290,
      "चलललय": 5291,
      "सधनसवध": 5292,
      "धवडयन": 5293,
      "शबचय": 5294,
      "मचयर": 5295,
      "परशसनत": 5296,
      "जलहधकर": 5297,
      "हललयचय": 5298,
      "कतरट": 5299,
      "रजनतक": 5300,
      "वतवरणत": 5301,
      "बवळत": 5302,
      "भतनच": 5303,
      "वसरन": 5304,
      "तमळनडत": 5305,
      "ततरगनयनच": 5306,
      "करयशळच": 5307,
      "187": 5308,
      "महणयरयन": 5309,
      "फतफ": 5310,
      "बरयलयत": 5311,
      "घटनच": 5312,
      "भतललय": 5313,
      "लठयत": 5314,
      "आकरष": 5315,
      "दळयमखर": 5316,
      "कगस": 5317,
      "गरमपचय": 5318,
      "गरमपचयत": 5319,
      "आतमघत": 5320,
      "तबडय": 5321,
      "मधयन": 5322,
      "परथव": 5323,
      "शषटमडळन": 5324,
      "परमणक": 5325,
      "सवलध": 5326,
      "रजधनत": 5327,
      "घसखर": 5328,
      "वयकतक": 5329,
      "रषटन": 5330,
      "दमबबच": 5331,
      "आशळललर": 5332,
      "बरटश": 5333,
      "रबतय": 5334,
      "अखलश": 5335,
      "उदरगतक": 5336,
      "थयलड": 5337,
      "सथलतरत": 5338,
      "इसपतळत": 5339,
      "urd": 5340,
      "परजसततआक": 5341,
      "मलमततच": 5342,
      "शरनगरत": 5343,
      "अधधकय": 5344,
      "आरटपसआर": 5345,
      "जणवकय": 5346,
      "बसपचय": 5347,
      "अभयसकरमच": 5348,
      "इवहएम": 5349,
      "भखमभतरमन": 5350,
      "पलतडचयन": 5351,
      "सनटयझर": 5352,
      "वटसअप": 5353,
      "इबरमपर": 5354,
      "ककडकर": 5355,
      "गणवततआ": 5356,
      "absurd": 5357,
      "जवहरलल": 5358,
      "पझटवह": 5359,
      "24": 5360,
      "at": 5361,
      "dra": 5362,
      "er": 5363,
      "is": 5364,
      "अग": 5365,
      "अम": 5366,
      "अतल": 5367,
      "अकल": 5368,
      "अटर": 5369,
      "अनयय": 5370,
      "अपतर": 5371,
      "अखड": 5372,
      "अवभ": 5373,
      "अबकर": 5374,
      "आपर": 5375,
      "आवन": 5376,
      "आहर": 5377,
      "आखड": 5378,
      "आङकर": 5379,
      "आचरय": 5380,
      "आवडत": 5381,
      "आइलल": 5382,
      "इसर": 5383,
      "उश": 5384,
      "उतय": 5385,
      "उरत": 5386,
      "उनरबध": 5387,
      "एज": 5388,
      "एण": 5389,
      "एसस": 5390,
      "ऐन": 5391,
      "ऑकट": 5392,
      "ओन": 5393,
      "ओपप": 5394,
      "कपर": 5395,
      "कवर": 5396,
      "कवन": 5397,
      "खव": 5398,
      "खनन": 5399,
      "खवपक": 5400,
      "गढ": 5401,
      "गमन": 5402,
      "गधन": 5403,
      "गपळ": 5404,
      "गदळ": 5405,
      "गमचम": 5406,
      "घई": 5407,
      "घसन": 5408,
      "घवचय": 5409,
      "ङकलल": 5410,
      "चछ": 5411,
      "चतत": 5412,
      "चवक": 5413,
      "चकम": 5414,
      "चतस": 5415,
      "जधव": 5416,
      "झप": 5417,
      "टस": 5418,
      "ठच": 5419,
      "ठण": 5420,
      "डप": 5421,
      "डम": 5422,
      "डव": 5423,
      "णर": 5424,
      "णवय": 5425,
      "तई": 5426,
      "तपल": 5427,
      "तळय": 5428,
      "तमल": 5429,
      "तटट": 5430,
      "दगल": 5431,
      "दमण": 5432,
      "दगन": 5433,
      "दतरन": 5434,
      "धपक": 5435,
      "धपन": 5436,
      "धकलन": 5437,
      "नब": 5438,
      "नतक": 5439,
      "नलक": 5440,
      "नमड": 5441,
      "नबन": 5442,
      "नतनय": 5443,
      "नसरग": 5444,
      "नपकषपत": 5445,
      "पतल": 5446,
      "पगर": 5447,
      "पवय": 5448,
      "पशन": 5449,
      "पवपक": 5450,
      "पधद": 5451,
      "फफ": 5452,
      "बफ": 5453,
      "बचय": 5454,
      "बतल": 5455,
      "बटल": 5456,
      "बटन": 5457,
      "बतम": 5458,
      "बततस": 5459,
      "भजय": 5460,
      "भदन": 5461,
      "भगण": 5462,
      "मयक": 5463,
      "मशल": 5464,
      "मङकल": 5465,
      "यष": 5466,
      "यलयत": 5467,
      "यदक": 5468,
      "रहण": 5469,
      "रवज": 5470,
      "रनक": 5471,
      "रखय": 5472,
      "रदच": 5473,
      "लइ": 5474,
      "लभ": 5475,
      "लमन": 5476,
      "लदन": 5477,
      "लजन": 5478,
      "लवपच": 5479,
      "ळकर": 5480,
      "ळयन": 5481,
      "ळवय": 5482,
      "वझ": 5483,
      "वफ": 5484,
      "वजल": 5485,
      "वधय": 5486,
      "वतकच": 5487,
      "शवत": 5488,
      "शघय": 5489,
      "समह": 5490,
      "सदस": 5491,
      "ससन": 5492,
      "ससट": 5493,
      "हऽ": 5494,
      "हदल": 5495,
      "हटक": 5496,
      "हवरव": 5497,
      "हनक": 5498,
      "हलयल": 5499,
      "हकलगन": 5500,
      "ऽऽ": 5501,
      "करझ": 5502,
      "करश": 5503,
      "करजन": 5504,
      "करपरकर": 5505,
      "परमल": 5506,
      "परबन": 5507,
      "परथन": 5508,
      "आनमलल": 5509,
      "चयत": 5510,
      "महश": 5511,
      "महपस": 5512,
      "महमडळ": 5513,
      "महडड": 5514,
      "तललय": 5515,
      "तलमन": 5516,
      "दरथ": 5517,
      "दरएक": 5518,
      "दरभग": 5519,
      "दरदशन": 5520,
      "सरतक": 5521,
      "सरलयत": 5522,
      "सरसवत": 5523,
      "कलस": 5524,
      "कलरकय": 5525,
      "वरह": 5526,
      "यतभक": 5527,
      "अशर": 5528,
      "आसथपन": 5529,
      "आयम": 5530,
      "आयजय": 5531,
      "आयदन": 5532,
      "आयआर": 5533,
      "सवड": 5534,
      "तनवड": 5535,
      "कषणक": 5536,
      "कषतरक": 5537,
      "मनवप": 5538,
      "मनकन": 5539,
      "मनसरत": 5540,
      "मनतलयन": 5541,
      "मतरक": 5542,
      "मतरत": 5543,
      "मतरयक": 5544,
      "भरर": 5545,
      "भरचय": 5546,
      "तकद": 5547,
      "यनक": 5548,
      "मरपच": 5549,
      "मरटनस": 5550,
      "कडकड": 5551,
      "कडनय": 5552,
      "कडपखतर": 5553,
      "बरम": 5554,
      "बरव": 5555,
      "गरश": 5556,
      "गरचय": 5557,
      "गरवच": 5558,
      "गरवन": 5559,
      "जलमक": 5560,
      "जलमय": 5561,
      "वनयक": 5562,
      "वनवण": 5563,
      "वळचय": 5564,
      "वळवळ": 5565,
      "नयफ": 5566,
      "नयकत": 5567,
      "नयसकय": 5568,
      "कयड": 5569,
      "कयणच": 5570,
      "दशद": 5571,
      "दशखतर": 5572,
      "जयतल": 5573,
      "जयपरत": 5574,
      "तचकडन": 5575,
      "एकसरक": 5576,
      "लगचय": 5577,
      "वयपत": 5578,
      "वयखय": 5579,
      "तणक": 5580,
      "नरप": 5581,
      "मदग": 5582,
      "मदय": 5583,
      "खतरय": 5584,
      "मतव": 5585,
      "पलख": 5586,
      "पलवप": 5587,
      "दनत": 5588,
      "वसतचय": 5589,
      "मळल": 5590,
      "वडललय": 5591,
      "वडललयन": 5592,
      "हरण": 5593,
      "हरन": 5594,
      "हरमनय": 5595,
      "सगलच": 5596,
      "महणलल": 5597,
      "महणनच": 5598,
      "महणपचय": 5599,
      "यकक": 5600,
      "यकच": 5601,
      "सकसन": 5602,
      "सतष": 5603,
      "सनन": 5604,
      "सनकच": 5605,
      "वलर": 5606,
      "रजपकष": 5607,
      "तलयक": 5608,
      "वणकत": 5609,
      "शरनद": 5610,
      "शरलकच": 5611,
      "शरशठ": 5612,
      "शरदध": 5613,
      "वकक": 5614,
      "वकन": 5615,
      "वदत": 5616,
      "परतम": 5617,
      "वहचरय": 5618,
      "खरचच": 5619,
      "पडय": 5620,
      "पडलक": 5621,
      "गतम": 5622,
      "मजबत": 5623,
      "सथरतय": 5624,
      "सदचच": 5625,
      "गलम": 5626,
      "कळखत": 5627,
      "बदलक": 5628,
      "मडकय": 5629,
      "सलस": 5630,
      "सलवन": 5631,
      "सलततर": 5632,
      "सलसटर": 5633,
      "जलयतलय": 5634,
      "घरतलयन": 5635,
      "पळक": 5636,
      "जतखतर": 5637,
      "जतवतक": 5638,
      "गडकय": 5639,
      "गडयर": 5640,
      "कनपरत": 5641,
      "नवचय": 5642,
      "खळन": 5643,
      "धरय": 5644,
      "धरकन": 5645,
      "सरकरचर": 5646,
      "अरध": 5647,
      "अरबय": 5648,
      "अरशट": 5649,
      "ङकडच": 5650,
      "थरवप": 5651,
      "थरयलय": 5652,
      "दळचम": 5653,
      "दळबयत": 5654,
      "तजजञ": 5655,
      "नचक": 5656,
      "उपरतचय": 5657,
      "घडयतल": 5658,
      "नमम": 5659,
      "नममर": 5660,
      "भटयत": 5661,
      "भटचर": 5662,
      "परयटकक": 5663,
      "सदरणक": 5664,
      "सदरकरण": 5665,
      "भरतयचय": 5666,
      "उततय": 5667,
      "गणनत": 5668,
      "बलतकर": 5669,
      "आडवन": 5670,
      "पयलट": 5671,
      "समसत": 5672,
      "जणकर": 5673,
      "भतरच": 5674,
      "आमआम": 5675,
      "आमदरक": 5676,
      "परशसकय": 5677,
      "सतरमण": 5678,
      "पटवचणकत": 5679,
      "यचयन": 5680,
      "सटलल": 5681,
      "चडणकर": 5682,
      "करचम": 5683,
      "दखक": 5684,
      "दखख": 5685,
      "दखवट": 5686,
      "करतवय": 5687,
      "हडच": 5688,
      "हडलयत": 5689,
      "हडटत": 5690,
      "घलतत": 5691,
      "ननतर": 5692,
      "नननस": 5693,
      "ननमतरण": 5694,
      "सडच": 5695,
      "सडसडत": 5696,
      "सघचय": 5697,
      "नकव": 5698,
      "नकबर": 5699,
      "भगतन": 5700,
      "भगयच": 5701,
      "नययलयक": 5702,
      "अरथन": 5703,
      "दवरतत": 5704,
      "दवरललय": 5705,
      "दयसच": 5706,
      "पसळय": 5707,
      "फडच": 5708,
      "भयलयन": 5709,
      "नलच": 5710,
      "नलज": 5711,
      "नलबत": 5712,
      "दसरत": 5713,
      "दमचय": 5714,
      "शटकयल": 5715,
      "उरतत": 5716,
      "परदशचय": 5717,
      "वदयलयत": 5718,
      "नशद": 5719,
      "मगलय": 5720,
      "मयजय": 5721,
      "नगरकन": 5722,
      "नगरकचय": 5723,
      "मटच": 5724,
      "जमलल": 5725,
      "वचरल": 5726,
      "नटकक": 5727,
      "वहरतल": 5728,
      "शळचय": 5729,
      "शलच": 5730,
      "बडड": 5731,
      "हलम": 5732,
      "वपरच": 5733,
      "लखण": 5734,
      "आजयन": 5735,
      "उदरकरण": 5736,
      "रवतत": 5737,
      "कदयच": 5738,
      "नहवन": 5739,
      "नहसन": 5740,
      "वदशत": 5741,
      "भवनन": 5742,
      "ङकरवचर": 5743,
      "जवचय": 5744,
      "उततरपरदशत": 5745,
      "बगग": 5746,
      "मरगचर": 5747,
      "सकळच": 5748,
      "आपणल": 5749,
      "धडटल": 5750,
      "अतरम": 5751,
      "बदललय": 5752,
      "रखक": 5753,
      "वसतबब": 5754,
      "ववसथच": 5755,
      "वठरतलयन": 5756,
      "जमनचर": 5757,
      "उजवय": 5758,
      "आगळ": 5759,
      "आगमन": 5760,
      "पकसतनचर": 5761,
      "बयतत": 5762,
      "बनवट": 5763,
      "यदध": 5764,
      "अनवरण": 5765,
      "लकषम": 5766,
      "सशयल": 5767,
      "ससदक": 5768,
      "उडल": 5769,
      "उणयत": 5770,
      "कयदयचय": 5771,
      "सळत": 5772,
      "सळन": 5773,
      "पजबत": 5774,
      "रडट": 5775,
      "समनच": 5776,
      "मखन": 5777,
      "डनटर": 5778,
      "कमकजच": 5779,
      "पररक": 5780,
      "पररथन": 5781,
      "महलच": 5782,
      "आधरपरदश": 5783,
      "आवतर": 5784,
      "कशमरच": 5785,
      "ददतर": 5786,
      "ददतन": 5787,
      "मठई": 5788,
      "मटरत": 5789,
      "वशनचय": 5790,
      "वशयवल": 5791,
      "परकषचय": 5792,
      "अलप": 5793,
      "बहरच": 5794,
      "रचणक": 5795,
      "परधकरणच": 5796,
      "परधकरणन": 5797,
      "दततशट": 5798,
      "नवनय": 5799,
      "उतसवचय": 5800,
      "उबरपक": 5801,
      "खदयन": 5802,
      "नटकच": 5803,
      "शसतरसतर": 5804,
      "अधकरयचय": 5805,
      "अधकरयबरबर": 5806,
      "घडणकन": 5807,
      "तपमन": 5808,
      "यवकक": 5809,
      "महणटकर": 5810,
      "कमगरचय": 5811,
      "लसकरणच": 5812,
      "हसततरत": 5813,
      "करडक": 5814,
      "वशवसमत": 5815,
      "कतरम": 5816,
      "ददलयच": 5817,
      "अभयसकरम": 5818,
      "दबवत": 5819,
      "बपयच": 5820,
      "करयकरमच": 5821,
      "महवदयलयन": 5822,
      "महवदयलयच": 5823,
      "यजमत": 5824,
      "यजमचम": 5825,
      "नरमलन": 5826,
      "उगडन": 5827,
      "खशलपण": 5828,
      "खशयन": 5829,
      "189": 5830,
      "छततस": 5831,
      "परवसच": 5832,
      "खजगकरण": 5833,
      "दणग": 5834,
      "करळतलय": 5835,
      "लठयतल": 5836,
      "शजरचय": 5837,
      "वचपयक": 5838,
      "चदबरम": 5839,
      "मतरमडळचय": 5840,
      "दळयतल": 5841,
      "रशटरपत": 5842,
      "कपलर": 5843,
      "उचचय": 5844,
      "भशतवल": 5845,
      "परथमक": 5846,
      "सभघरक": 5847,
      "एनसस": 5848,
      "शकडयत": 5849,
      "मखलपणखल": 5850,
      "आभच": 5851,
      "इशटगत": 5852,
      "परदरशत": 5853,
      "कयदयखल": 5854,
      "एकमव": 5855,
      "उददजकक": 5856,
      "लकततरक": 5857,
      "गवहटत": 5858,
      "छपपन": 5859,
      "भडरच": 5860,
      "मझरम": 5861,
      "करकरदत": 5862,
      "ववधतय": 5863,
      "हटलत": 5864,
      "पणयतथ": 5865,
      "परधनमतरयकड": 5866,
      "सटशनचर": 5867,
      "सथरमण": 5868,
      "तळशदस": 5869,
      "सपटबरत": 5870,
      "चपवतन": 5871,
      "रडरगस": 5872,
      "ङकळदसय": 5873,
      "कऊवड": 5874,
      "घषत": 5875,
      "अधरखत": 5876,
      "अपरबयच": 5877,
      "भखज": 5878,
      "करतरपर": 5879,
      "वलदमर": 5880,
      "चकतस": 5881,
      "परवततर": 5882,
      "सलळमत": 5883,
      "समपदसत": 5884,
      "डबलय": 5885,
      "यकतवद": 5886,
      "रसरशत": 5887,
      "रळयपल": 5888,
      "ददललम": 5889,
      "परवहत": 5890,
      "कगदपतर": 5891,
      "उपरशटरपत": 5892,
      "मनझस": 5893,
      "मनरजवण": 5894,
      "वहवहपट": 5895,
      "गपनयतच": 5896,
      "लफटनट": 5897,
      "वलधनसबत": 5898,
      "ककतरळच": 5899,
      "अवभजय": 5900,
      "एणड": 5901,
      "ऑकटबर": 5902,
      "चकमकत": 5903,
      "नतनयह": 5904,
      "हरमनयम": 5905,
      "वहचरयअल": 5906,
      "!!": 5907,
      "31": 5908,
      "अफ": 5909,
      "अमन": 5910,
      "अभर": 5911,
      "अनर": 5912,
      "अपल": 5913,
      "अगन": 5914,
      "अदय": 5915,
      "अवललय": 5916,
      "अपरतयकष": 5917,
      "आफ": 5918,
      "आखल": 5919,
      "आबद": 5920,
      "आबड": 5921,
      "आदशत": 5922,
      "आभस": 5923,
      "आतनय": 5924,
      "इक": 5925,
      "इट": 5926,
      "इय": 5927,
      "इदर": 5928,
      "इमरन": 5929,
      "इषट": 5930,
      "इतम": 5931,
      "इसटट": 5932,
      "ईस": 5933,
      "उललय": 5934,
      "उजव": 5935,
      "उमश": 5936,
      "उघडल": 5937,
      "एद": 5938,
      "एभ": 5939,
      "एएस": 5940,
      "ओवद": 5941,
      "ओनल": 5942,
      "ककल": 5943,
      "कलयन": 5944,
      "कमळ": 5945,
      "कसब": 5946,
      "कवळच": 5947,
      "खलय": 5948,
      "खवप": 5949,
      "खवड": 5950,
      "खणक": 5951,
      "खणच": 5952,
      "खपश": 5953,
      "गभ": 5954,
      "गवस": 5955,
      "गयर": 5956,
      "गचच": 5957,
      "घच": 5958,
      "घयच": 5959,
      "घसघ": 5960,
      "घमट": 5961,
      "ङसग": 5962,
      "ङरकत": 5963,
      "चथ": 5964,
      "चमड": 5965,
      "चमट": 5966,
      "छयच": 5967,
      "जवळ": 5968,
      "जगय": 5969,
      "जचम": 5970,
      "जभन": 5971,
      "जनरदन": 5972,
      "झटय": 5973,
      "टव": 5974,
      "टपल": 5975,
      "टआर": 5976,
      "टळच": 5977,
      "ठक": 5978,
      "ठन": 5979,
      "डगर": 5980,
      "डएनए": 5981,
      "णल": 5982,
      "णयच": 5983,
      "णवत": 5984,
      "तटर": 5985,
      "तवल": 5986,
      "तटल": 5987,
      "तगन": 5988,
      "तहक": 5989,
      "थबन": 5990,
      "दऊ": 5991,
      "दघ": 5992,
      "दतक": 5993,
      "दयच": 5994,
      "दमल": 5995,
      "ददळ": 5996,
      "ददत": 5997,
      "दगण": 5998,
      "दतरक": 5999,
      "दघय": 6000,
      "धवळ": 6001,
      "धकय": 6002,
      "धसत": 6003,
      "धकललय": 6004,
      "नमद": 6005,
      "ननम": 6006,
      "नगम": 6007,
      "नखट": 6008,
      "पऊ": 6009,
      "पकल": 6010,
      "पचर": 6011,
      "पलग": 6012,
      "पजर": 6013,
      "पशर": 6014,
      "पसय": 6015,
      "पशण": 6016,
      "पकलल": 6017,
      "पलकक": 6018,
      "पषण": 6019,
      "पवयल": 6020,
      "फलक": 6021,
      "फकण": 6022,
      "फलयच": 6023,
      "फदक": 6024,
      "फयद": 6025,
      "बई": 6026,
      "बबर": 6027,
      "बपल": 6028,
      "बसच": 6029,
      "बटक": 6030,
      "बनम": 6031,
      "भमत": 6032,
      "भसक": 6033,
      "भवल": 6034,
      "भतचय": 6035,
      "भगन": 6036,
      "भनन": 6037,
      "भशय": 6038,
      "भचम": 6039,
      "भमख": 6040,
      "भपळत": 6041,
      "मअ": 6042,
      "मढ": 6043,
      "मभ": 6044,
      "मसग": 6045,
      "मजल": 6046,
      "मसन": 6047,
      "मसम": 6048,
      "मयचय": 6049,
      "मथन": 6050,
      "मझर": 6051,
      "मङकत": 6052,
      "मबयच": 6053,
      "यदन": 6054,
      "रऊ": 6055,
      "रह": 6056,
      "रलक": 6057,
      "रकश": 6058,
      "रमल": 6059,
      "रकषण": 6060,
      "रणय": 6061,
      "रणच": 6062,
      "रगणत": 6063,
      "रकरड": 6064,
      "रमचम": 6065,
      "रबरट": 6066,
      "लतय": 6067,
      "लजल": 6068,
      "लनय": 6069,
      "लटर": 6070,
      "लपत": 6071,
      "लटट": 6072,
      "लकयम": 6073,
      "ळख": 6074,
      "ळप": 6075,
      "ळह": 6076,
      "वभर": 6077,
      "वअर": 6078,
      "वफय": 6079,
      "शकच": 6080,
      "शशय": 6081,
      "सऋ": 6082,
      "सनर": 6083,
      "सघर": 6084,
      "सपय": 6085,
      "सबल": 6086,
      "समहक": 6087,
      "सशट": 6088,
      "सशय": 6089,
      "सफय": 6090,
      "हश": 6091,
      "हदस": 6092,
      "हखतर": 6093,
      "हङक": 6094,
      "हशर": 6095,
      "हसच": 6096,
      "हपन": 6097,
      "लयललय": 6098,
      "करज": 6099,
      "करद": 6100,
      "करव": 6101,
      "करपत": 6102,
      "करगल": 6103,
      "करकळ": 6104,
      "करपय": 6105,
      "तरझ": 6106,
      "तरकय": 6107,
      "तरतरच": 6108,
      "तरतरत": 6109,
      "तरपकषय": 6110,
      "तरपपन": 6111,
      "परड": 6112,
      "परयत": 6113,
      "परतच": 6114,
      "परयच": 6115,
      "परधय": 6116,
      "परकरक": 6117,
      "परदरशक": 6118,
      "परवललय": 6119,
      "महट": 6120,
      "महव": 6121,
      "महसच": 6122,
      "महमच": 6123,
      "महमडळच": 6124,
      "महमरक": 6125,
      "महञच": 6126,
      "महपशय": 6127,
      "तलग": 6128,
      "तललम": 6129,
      "दरश": 6130,
      "दरचय": 6131,
      "दरयर": 6132,
      "सरभ": 6133,
      "सरवर": 6134,
      "सरकलय": 6135,
      "कलज": 6136,
      "कलड": 6137,
      "कलश": 6138,
      "कलवय": 6139,
      "कलमण": 6140,
      "कलसवन": 6141,
      "हयल": 6142,
      "वरतन": 6143,
      "वरयर": 6144,
      "वरशट": 6145,
      "यततय": 6146,
      "अशवन": 6147,
      "आसपक": 6148,
      "आसतनय": 6149,
      "आसळलल": 6150,
      "सगतत": 6151,
      "सवसरकर": 6152,
      "कषतरन": 6153,
      "मनट": 6154,
      "मनसन": 6155,
      "मनलयत": 6156,
      "मनसतन": 6157,
      "मनमहन": 6158,
      "मतरयच": 6159,
      "मतरपद": 6160,
      "भरपर": 6161,
      "भरपय": 6162,
      "भरवम": 6163,
      "मरप": 6164,
      "मरश": 6165,
      "मरगर": 6166,
      "मरमरचय": 6167,
      "कडड": 6168,
      "बरत": 6169,
      "बरयतल": 6170,
      "बरडर": 6171,
      "गरदस": 6172,
      "गरवपर": 6173,
      "गरडन": 6174,
      "कतजञ": 6175,
      "जलमच": 6176,
      "वळप": 6177,
      "नययक": 6178,
      "नयकन": 6179,
      "नयलण": 6180,
      "टरकक": 6181,
      "टरमनल": 6182,
      "टरनटर": 6183,
      "कयकत": 6184,
      "कयवळ": 6185,
      "कयमच": 6186,
      "कयसवच": 6187,
      "कयलम": 6188,
      "कयरच": 6189,
      "दशभल": 6190,
      "दशवदशतलय": 6191,
      "दसनत": 6192,
      "दसपटट": 6193,
      "तणव": 6194,
      "नरन": 6195,
      "नरम": 6196,
      "नरधर": 6197,
      "नरदम": 6198,
      "नरमतच": 6199,
      "मदइ": 6200,
      "मदक": 6201,
      "पलकत": 6202,
      "पलघर": 6203,
      "पणट": 6204,
      "ङकण": 6205,
      "वसचय": 6206,
      "वसपस": 6207,
      "पचचय": 6208,
      "पचवचर": 6209,
      "यलच": 6210,
      "वडयलल": 6211,
      "हरनर": 6212,
      "वशष": 6213,
      "वशयत": 6214,
      "वशगटन": 6215,
      "करयलयच": 6216,
      "करयकरम": 6217,
      "करयकळत": 6218,
      "वगलम": 6219,
      "करनल": 6220,
      "करनटकच": 6221,
      "आयजकन": 6222,
      "सतळ": 6223,
      "वलब": 6224,
      "वलस": 6225,
      "रजच": 6226,
      "रजगण": 6227,
      "रजभवन": 6228,
      "रजघटर": 6229,
      "वणय": 6230,
      "आशन": 6231,
      "शरग": 6232,
      "शरषठ": 6233,
      "शरलकत": 6234,
      "वकसक": 6235,
      "वदवन": 6236,
      "परतजञ": 6237,
      "परतगज": 6238,
      "परधनमतरयक": 6239,
      "सभक": 6240,
      "सभतयग": 6241,
      "पडतल": 6242,
      "गतशलत": 6243,
      "रषटरन": 6244,
      "मजम": 6245,
      "मजगतच": 6246,
      "सथय": 6247,
      "सथतत": 6248,
      "सथतच": 6249,
      "हचमय": 6250,
      "गयय": 6251,
      "मणपर": 6252,
      "कळटल": 6253,
      "कळजक": 6254,
      "कळजचय": 6255,
      "सचवन": 6256,
      "सचलण": 6257,
      "कशल": 6258,
      "सलव": 6259,
      "सलसयत": 6260,
      "सलबरग": 6261,
      "घरकर": 6262,
      "घरतलय": 6263,
      "घरमतरयन": 6264,
      "पळव": 6265,
      "पळपच": 6266,
      "पळलयर": 6267,
      "पळयलल": 6268,
      "गडगड": 6269,
      "कनपर": 6270,
      "पयचय": 6271,
      "पयशच": 6272,
      "खळट": 6273,
      "धरतल": 6274,
      "जनतक": 6275,
      "ङकडत": 6276,
      "ङकडचय": 6277,
      "थरवन": 6278,
      "थरलयत": 6279,
      "थरललय": 6280,
      "थरवपच": 6281,
      "थरथरल": 6282,
      "चलणकत": 6283,
      "दळयक": 6284,
      "सपस": 6285,
      "दललन": 6286,
      "तजयन": 6287,
      "तजबरबर": 6288,
      "उदधव": 6289,
      "मचन": 6290,
      "अधम": 6291,
      "तचयत": 6292,
      "महतवपर": 6293,
      "घडटल": 6294,
      "नमटन": 6295,
      "जलयरय": 6296,
      "उपश": 6297,
      "उपतय": 6298,
      "उपयच": 6299,
      "उपमखयमतर": 6300,
      "परयटकच": 6301,
      "बलड": 6302,
      "बलर": 6303,
      "बलजय": 6304,
      "आडवप": 6305,
      "आडवद": 6306,
      "समय": 6307,
      "समवश": 6308,
      "समवशक": 6309,
      "जणचर": 6310,
      "आपलयच": 6311,
      "भतरतर": 6312,
      "कतयच": 6313,
      "पटणकर": 6314,
      "सटय": 6315,
      "सटशनर": 6316,
      "वगडयचय": 6317,
      "दखय": 6318,
      "पदभर": 6319,
      "पदवय": 6320,
      "शकवपच": 6321,
      "शकतकत": 6322,
      "ङकटयक": 6323,
      "घलपक": 6324,
      "यवजक": 6325,
      "यवजन": 6326,
      "दववगड": 6327,
      "बयलचर": 6328,
      "रलच": 6329,
      "लगललयन": 6330,
      "अरथत": 6331,
      "अरथमतरयन": 6332,
      "फटफड": 6333,
      "भयवन": 6334,
      "नलण": 6335,
      "कणस": 6336,
      "कणचय": 6337,
      "कणणच": 6338,
      "खबरक": 6339,
      "दमतक": 6340,
      "पतरतय": 6341,
      "नहयन": 6342,
      "नहयचय": 6343,
      "रनस": 6344,
      "मखलमतरयच": 6345,
      "मखलमतरयचय": 6346,
      "भवतत": 6347,
      "भवमत": 6348,
      "जडलल": 6349,
      "जगच": 6350,
      "उरक": 6351,
      "बबपएस": 6352,
      "तळसन": 6353,
      "तळगळ": 6354,
      "महजसर": 6355,
      "कटत": 6356,
      "दगच": 6357,
      "जललयचय": 6358,
      "मटयन": 6359,
      "वधडळ": 6360,
      "सजच": 6361,
      "सजतलय": 6362,
      "जमव": 6363,
      "जममत": 6364,
      "पगडचय": 6365,
      "ववरतल": 6366,
      "तडकन": 6367,
      "पवडयत": 6368,
      "यवजल": 6369,
      "यवकरच": 6370,
      "बडवन": 6371,
      "थयमर": 6372,
      "बळच": 6373,
      "आजनय": 6374,
      "पलसचय": 6375,
      "घटकक": 6376,
      "डयवर": 6377,
      "नहसण": 6378,
      "गयतलयन": 6379,
      "जयतदस": 6380,
      "रणयक": 6381,
      "ससपत": 6382,
      "उततरपरदशतलय": 6383,
      "मरगवच": 6384,
      "वचनबध": 6385,
      "बकसतन": 6386,
      "पवसत": 6387,
      "पवसळ": 6388,
      "परकलपत": 6389,
      "धडललय": 6390,
      "नडटर": 6391,
      "बदलत": 6392,
      "नदच": 6393,
      "ववसथपक": 6394,
      "रगचय": 6395,
      "रगदरशन": 6396,
      "सरततलय": 6397,
      "उमदवरचय": 6398,
      "ङकलयचय": 6399,
      "बयतच": 6400,
      "परभवक": 6401,
      "परभगन": 6402,
      "गजलच": 6403,
      "ववहरमतर": 6404,
      "तततव": 6405,
      "आतकवदयन": 6406,
      "बटलय": 6407,
      "फरयल": 6408,
      "फरसस": 6409,
      "लवधरकचय": 6410,
      "फलत": 6411,
      "लकषधश": 6412,
      "उददगच": 6413,
      "आकशवणवलयन": 6414,
      "सशधक": 6415,
      "सधक": 6416,
      "सधल": 6417,
      "परसनच": 6418,
      "परसनमच": 6419,
      "वकसचय": 6420,
      "उडन": 6421,
      "सणन": 6422,
      "परतनधन": 6423,
      "सळक": 6424,
      "सळचच": 6425,
      "सळसळ": 6426,
      "रजयतलयन": 6427,
      "गळयत": 6428,
      "परधनतरयच": 6429,
      "रडओ": 6430,
      "रडच": 6431,
      "उबगण": 6432,
      "एनएल": 6433,
      "मखलय": 6434,
      "कवडच": 6435,
      "बतमय": 6436,
      "भशनच": 6437,
      "आमदरचय": 6438,
      "रजयपलच": 6439,
      "अरजन": 6440,
      "मगणय": 6441,
      "पदरन": 6442,
      "सवधच": 6443,
      "बचत": 6444,
      "जयनत": 6445,
      "ददलमत": 6446,
      "कपलक": 6447,
      "इतहसत": 6448,
      "खसदरक": 6449,
      "सबळळ": 6450,
      "पसतकचय": 6451,
      "घवपखतर": 6452,
      "भवडय": 6453,
      "भवडयल": 6454,
      "महरषटरच": 6455,
      "अदचय": 6456,
      "मललकरजन": 6457,
      "वयवसथत": 6458,
      "नकलत": 6459,
      "नकलचर": 6460,
      "पतळलल": 6461,
      "चळसय": 6462,
      "परवणजय": 6463,
      "उठक": 6464,
      "मखयलय": 6465,
      "रचत": 6466,
      "रचलल": 6467,
      "उतपदनक": 6468,
      "उतपदनचय": 6469,
      "वळखच": 6470,
      "पषपचय": 6471,
      "परकरयच": 6472,
      "मनहररय": 6473,
      "मनशकडन": 6474,
      "मळटलय": 6475,
      "ओडशच": 6476,
      "ओडशत": 6477,
      "टचरक": 6478,
      "सकतवसल": 6479,
      "चवहण": 6480,
      "समदयन": 6481,
      "समदयच": 6482,
      "अधकरयकडन": 6483,
      "घडणकच": 6484,
      "तपशल": 6485,
      "वयकतच": 6486,
      "वयकतगत": 6487,
      "परयटनक": 6488,
      "सरखलय": 6489,
      "एकणतस": 6490,
      "जलहधकरयन": 6491,
      "आशयय": 6492,
      "जळवण": 6493,
      "शमपलतडचयन": 6494,
      "चतरपटच": 6495,
      "लजभतर": 6496,
      "कठर": 6497,
      "सहयय": 6498,
      "परभणत": 6499,
      "आयकतन": 6500,
      "अडकन": 6501,
      "ऑसटरलयन": 6502,
      "रजयसभच": 6503,
      "उपरषटरपतन": 6504,
      "कयरध": 6505,
      "खळगडयक": 6506,
      "सखळच": 6507,
      "185": 6508,
      "गठल": 6509,
      "दशटकन": 6510,
      "मळवयच": 6511,
      "लवपचय": 6512,
      "तरजमनच": 6513,
      "वरतमन": 6514,
      "अकदमत": 6515,
      "फतटर": 6516,
      "अठठय": 6517,
      "कबनट": 6518,
      "सपरकत": 6519,
      "अयधय": 6520,
      "परलहद": 6521,
      "वखदचय": 6522,
      "लहनश": 6523,
      "परषदचय": 6524,
      "पथव": 6525,
      "तरनटयच": 6526,
      "भवकन": 6527,
      "मयनमर": 6528,
      "अङकगन": 6529,
      "वकतवय": 6530,
      "भगतङसग": 6531,
      "नमकन": 6532,
      "भषणत": 6533,
      "शरनवस": 6534,
      "सथनकचर": 6535,
      "अचळय": 6536,
      "एडमरल": 6537,
      "भणणन": 6538,
      "मळवपखतर": 6539,
      "ळतकयक": 6540,
      "ळतकभत": 6541,
      "आरबआय": 6542,
      "मगळसतर": 6543,
      "रसतयचर": 6544,
      "लळषण": 6545,
      "शसतरजञक": 6546,
      "टपपयत": 6547,
      "परतबधक": 6548,
      "परतबधतमक": 6549,
      "तदरसघतलयन": 6550,
      "नषध": 6551,
      "नवहबरक": 6552,
      "करतलयक": 6553,
      "समजकयचय": 6554,
      "आचरसहत": 6555,
      "एफए": 6556,
      "थयलडच": 6557,
      "फरससकच": 6558,
      "तरखक": 6559,
      "सदरभतलय": 6560,
      "हतळपक": 6561,
      "चपवतक": 6562,
      "रयलस": 6563,
      "वलनकरण": 6564,
      "मलदवज": 6565,
      "मलमततआ": 6566,
      "लशकरच": 6567,
      "हककच": 6568,
      "इटलच": 6569,
      "लकषमणरव": 6570,
      "सलळमक": 6571,
      "घरणयचय": 6572,
      "कवशयच": 6573,
      "बनरज": 6574,
      "भरगपणत": 6575,
      "जओवह": 6576,
      "करयनवत": 6577,
      "जलहयतलय": 6578,
      "इगरजत": 6579,
      "उपरसलय": 6580,
      "बएसएनएल": 6581,
      "आथण": 6582,
      "आमणकर": 6583,
      "उझबकसतन": 6584,
      "तषर": 6585,
      "शवसनच": 6586,
      "परगटयल": 6587,
      "फतफतल": 6588,
      "गधनगर": 6589,
      "तईबय": 6590,
      "लठयतलम": 6591,
      "घसघशत": 6592,
      "जगयचर": 6593,
      "सवसरकरण": 6594,
      "नरदमम": 6595,
      "महतवपरण": 6596,
      "13": 6597,
      "30": 6598,
      "60": 6599,
      "ha": 6600,
      "in": 6601,
      "ion": 6602,
      "mat": 6603,
      "vi": 6604,
      "xi": 6605,
      "अदर": 6606,
      "असत": 6607,
      "अकरक": 6608,
      "अनट": 6609,
      "अभत": 6610,
      "अडर": 6611,
      "अङकव": 6612,
      "अखरच": 6613,
      "आढ": 6614,
      "आलल": 6615,
      "आभर": 6616,
      "आबर": 6617,
      "आवच": 6618,
      "आतच": 6619,
      "आदन": 6620,
      "आबय": 6621,
      "आखत": 6622,
      "आदशच": 6623,
      "आखण": 6624,
      "आखप": 6625,
      "आवडल": 6626,
      "आमळलल": 6627,
      "इद": 6628,
      "इशर": 6629,
      "ईट": 6630,
      "ईत": 6631,
      "उष": 6632,
      "उचय": 6633,
      "उगर": 6634,
      "उदश": 6635,
      "उदल": 6636,
      "उपन": 6637,
      "उसतन": 6638,
      "उतरक": 6639,
      "उमथ": 6640,
      "उचयर": 6641,
      "उघडन": 6642,
      "ऋहयत": 6643,
      "एरन": 6644,
      "ऐमस": 6645,
      "ऑयल": 6646,
      "ऑपरशन": 6647,
      "ओग": 6648,
      "ओद": 6649,
      "ओतन": 6650,
      "ओमन": 6651,
      "ओडस": 6652,
      "कसव": 6653,
      "ककय": 6654,
      "कङक": 6655,
      "कवट": 6656,
      "कसम": 6657,
      "कभत": 6658,
      "कनयक": 6659,
      "कयतत": 6660,
      "कतरत": 6661,
      "कचरय": 6662,
      "कझक": 6663,
      "खचय": 6664,
      "खनय": 6665,
      "खटल": 6666,
      "खपत": 6667,
      "गतक": 6668,
      "गटर": 6669,
      "गपण": 6670,
      "गसत": 6671,
      "गमक": 6672,
      "गजच": 6673,
      "गजक": 6674,
      "गजनन": 6675,
      "घश": 6676,
      "घयन": 6677,
      "घवय": 6678,
      "ङकरच": 6679,
      "ङरक": 6680,
      "चप": 6681,
      "चपर": 6682,
      "चचय": 6683,
      "चबर": 6684,
      "चतच": 6685,
      "चपन": 6686,
      "चधर": 6687,
      "चपट": 6688,
      "चतनय": 6689,
      "चटट": 6690,
      "छथ": 6691,
      "छल": 6692,
      "जकल": 6693,
      "जनय": 6694,
      "जमल": 6695,
      "जमच": 6696,
      "जशय": 6697,
      "जतरच": 6698,
      "जजलह": 6699,
      "जनयर": 6700,
      "झगत": 6701,
      "झनत": 6702,
      "टग": 6703,
      "टम": 6704,
      "टकल": 6705,
      "टवह": 6706,
      "टबल": 6707,
      "ठर": 6708,
      "डश": 6709,
      "डलल": 6710,
      "डदस": 6711,
      "डदल": 6712,
      "डदतल": 6713,
      "डबयत": 6714,
      "डळच": 6715,
      "डआरड": 6716,
      "ढच": 6717,
      "णवक": 6718,
      "तफ": 6719,
      "ततक": 6720,
      "तवय": 6721,
      "तवस": 6722,
      "तगय": 6723,
      "तवरव": 6724,
      "तबय": 6725,
      "तदळच": 6726,
      "तवशच": 6727,
      "थग": 6728,
      "थव": 6729,
      "थमस": 6730,
      "थपणक": 6731,
      "दफ": 6732,
      "दतलय": 6733,
      "दवण": 6734,
      "दबन": 6735,
      "दबच": 6736,
      "धयन": 6737,
      "धवच": 6738,
      "धमक": 6739,
      "धकलल": 6740,
      "नमत": 6741,
      "नणक": 6742,
      "नशच": 6743,
      "ननत": 6744,
      "नबल": 6745,
      "नशट": 6746,
      "नदक": 6747,
      "नयतत": 6748,
      "नगट": 6749,
      "नजच": 6750,
      "नमलम": 6751,
      "नकरतमक": 6752,
      "नकतयच": 6753,
      "पऋ": 6754,
      "पवच": 6755,
      "पवह": 6756,
      "पधय": 6757,
      "पथक": 6758,
      "फम": 6759,
      "फतय": 6760,
      "फजल": 6761,
      "फजय": 6762,
      "फरग": 6763,
      "फळर": 6764,
      "बऊ": 6765,
      "बमण": 6766,
      "बयचय": 6767,
      "बणच": 6768,
      "बनस": 6769,
      "बभन": 6770,
      "बदरत": 6771,
      "भदर": 6772,
      "भसग": 6773,
      "भतत": 6774,
      "भसन": 6775,
      "भपळ": 6776,
      "भजत": 6777,
      "भलर": 6778,
      "भपश": 6779,
      "भलयल": 6780,
      "भळर": 6781,
      "ममर": 6782,
      "मगय": 6783,
      "मसद": 6784,
      "मसच": 6785,
      "मशय": 6786,
      "मदरय": 6787,
      "मघलय": 6788,
      "मङरकत": 6789,
      "यध": 6790,
      "यब": 6791,
      "ययन": 6792,
      "यमर": 6793,
      "यकय": 6794,
      "यमक": 6795,
      "यशरम": 6796,
      "यपए": 6797,
      "यवरज": 6798,
      "रकर": 6799,
      "रदर": 6800,
      "रकल": 6801,
      "रवड": 6802,
      "रयच": 6803,
      "रसल": 6804,
      "रनम": 6805,
      "रपतर": 6806,
      "रमग": 6807,
      "रकद": 6808,
      "रबत": 6809,
      "रवजन": 6810,
      "लमद": 6811,
      "लवस": 6812,
      "लमण": 6813,
      "लपन": 6814,
      "लटन": 6815,
      "लदच": 6816,
      "लवडल": 6817,
      "ळपक": 6818,
      "ळटल": 6819,
      "ळललय": 6820,
      "ळबय": 6821,
      "ळकमत": 6822,
      "ववन": 6823,
      "वकय": 6824,
      "वभज": 6825,
      "वभय": 6826,
      "वसरत": 6827,
      "शध": 6828,
      "शप": 6829,
      "शवन": 6830,
      "शवण": 6831,
      "शवक": 6832,
      "शपय": 6833,
      "शकतय": 6834,
      "शङकर": 6835,
      "शबरच": 6836,
      "सलक": 6837,
      "ससच": 6838,
      "सपरश": 6839,
      "सएन": 6840,
      "सशनत": 6841,
      "हऊ": 6842,
      "हपर": 6843,
      "हबर": 6844,
      "हवळ": 6845,
      "हपल": 6846,
      "हमण": 6847,
      "हगड": 6848,
      "हदत": 6849,
      "हबळ": 6850,
      "हटट": 6851,
      "हशब": 6852,
      "५६": 6853,
      "करल": 6854,
      "करगर": 6855,
      "करचल": 6856,
      "करडच": 6857,
      "तरथ": 6858,
      "तरव": 6859,
      "तरकक": 6860,
      "परकत": 6861,
      "परवप": 6862,
      "परटर": 6863,
      "परणक": 6864,
      "परणय": 6865,
      "परकलल": 6866,
      "परचरच": 6867,
      "परनस": 6868,
      "परवचन": 6869,
      "परबक": 6870,
      "परसवद": 6871,
      "परटच": 6872,
      "परमगळर": 6873,
      "परङकलल": 6874,
      "आनदच": 6875,
      "महय": 6876,
      "महपर": 6877,
      "महमन": 6878,
      "महगर": 6879,
      "महनय": 6880,
      "महनन": 6881,
      "महदय": 6882,
      "महलख": 6883,
      "महरशटर": 6884,
      "महगलय": 6885,
      "महसघच": 6886,
      "महततवच": 6887,
      "तलव": 6888,
      "तलचय": 6889,
      "तलमळच": 6890,
      "दरण": 6891,
      "दरयद": 6892,
      "दरगम": 6893,
      "सरब": 6894,
      "सरलय": 6895,
      "सरवन": 6896,
      "सरयच": 6897,
      "सरवग": 6898,
      "सरपक": 6899,
      "सरकच": 6900,
      "सरसचलक": 6901,
      "सरथक": 6902,
      "सरवळत": 6903,
      "सरखललय": 6904,
      "कलट": 6905,
      "कलव": 6906,
      "कलगर": 6907,
      "कलजत": 6908,
      "कलहपर": 6909,
      "ललसथ": 6910,
      "तयतर": 6911,
      "तयखतर": 6912,
      "तयकलय": 6913,
      "वरड": 6914,
      "वरयत": 6915,
      "यतनक": 6916,
      "चरतर": 6917,
      "चरयन": 6918,
      "आसय": 6919,
      "आसतर": 6920,
      "आसवसन": 6921,
      "सगम": 6922,
      "सगय": 6923,
      "सगव": 6924,
      "सगलयन": 6925,
      "सगपक": 6926,
      "सगरत": 6927,
      "आयलयन": 6928,
      "आयएन": 6929,
      "सवव": 6930,
      "सववस": 6931,
      "सवतचय": 6932,
      "सवयतत": 6933,
      "कषप": 6934,
      "कषतरच": 6935,
      "मनटच": 6936,
      "मनरजन": 6937,
      "मनबयच": 6938,
      "मतरच": 6939,
      "भरट": 6940,
      "भरद": 6941,
      "भरल": 6942,
      "भरतलय": 6943,
      "भरशट": 6944,
      "तकड": 6945,
      "तकवन": 6946,
      "मरयन": 6947,
      "मरसल": 6948,
      "मरकट": 6949,
      "मरणच": 6950,
      "मरवणकत": 6951,
      "कडचर": 6952,
      "कडहड": 6953,
      "बरश": 6954,
      "बरवच": 6955,
      "बरवक": 6956,
      "बरभशन": 6957,
      "बरदरस": 6958,
      "गरल": 6959,
      "गरस": 6960,
      "गरह": 6961,
      "गरमच": 6962,
      "गरदत": 6963,
      "गरहजर": 6964,
      "गरवचय": 6965,
      "कतब": 6966,
      "वचतर": 6967,
      "जलडकय": 6968,
      "वनयग": 6969,
      "वपणन": 6970,
      "नयस": 6971,
      "नयमन": 6972,
      "नयणणव": 6973,
      "टरकच": 6974,
      "टरभनमतम": 6975,
      "कयतल": 6976,
      "दशवस": 6977,
      "दशतलयन": 6978,
      "तचबरबर": 6979,
      "लकण": 6980,
      "लककय": 6981,
      "लकखतर": 6982,
      "लकवगड": 6983,
      "एकवट": 6984,
      "एकलयक": 6985,
      "एकदय": 6986,
      "एकवनन": 6987,
      "दसथ": 6988,
      "दसनय": 6989,
      "दससपन": 6990,
      "लगललय": 6991,
      "वयप": 6992,
      "वयस": 6993,
      "वयगण": 6994,
      "वयकट": 6995,
      "तणत": 6996,
      "नरव": 6997,
      "नरयत": 6998,
      "नरभय": 6999,
      "नरदक": 7000,
      "नरवचय": 7001,
      "मदनच": 7002,
      "मददम": 7003,
      "मतसय": 7004,
      "पलद": 7005,
      "पलसक": 7006,
      "पणसच": 7007,
      "ङकमद": 7008,
      "ङककक": 7009,
      "ङकटन": 7010,
      "ङकसट": 7011,
      "ङकगच": 7012,
      "ङकबरवर": 7013,
      "दनद": 7014,
      "वसलल": 7015,
      "वसणक": 7016,
      "वसहत": 7017,
      "पचवनन": 7018,
      "मळयच": 7019,
      "मळयर": 7020,
      "मळवपच": 7021,
      "मळबत": 7022,
      "मळयलय": 7023,
      "वडयत": 7024,
      "वडपच": 7025,
      "वडयच": 7026,
      "वडयर": 7027,
      "वडटय": 7028,
      "यचकत": 7029,
      "हरय": 7030,
      "हरस": 7031,
      "वशकम": 7032,
      "वशषट": 7033,
      "खलच": 7034,
      "खलस": 7035,
      "खलङक": 7036,
      "वगद": 7037,
      "वगल": 7038,
      "वगलमत": 7039,
      "करनत": 7040,
      "महणप": 7041,
      "सकशटक": 7042,
      "सतव": 7043,
      "सनचय": 7044,
      "सनतन": 7045,
      "सनटर": 7046,
      "सनकक": 7047,
      "सनकचय": 7048,
      "वलतय": 7049,
      "वलवय": 7050,
      "रजकट": 7051,
      "वणच": 7052,
      "वणटक": 7053,
      "आशर": 7054,
      "आशलय": 7055,
      "आशयच": 7056,
      "शरक": 7057,
      "शरधद": 7058,
      "शरणत": 7059,
      "टलट": 7060,
      "वकच": 7061,
      "शचन": 7062,
      "वदद": 7063,
      "ककळय": 7064,
      "वजकय": 7065,
      "वहगड": 7066,
      "वहळर": 7067,
      "खरग": 7068,
      "खरन": 7069,
      "खरप": 7070,
      "खरशल": 7071,
      "खरलच": 7072,
      "वटपच": 7073,
      "वटबब": 7074,
      "सभवक": 7075,
      "पडबब": 7076,
      "पडपचय": 7077,
      "पडलयर": 7078,
      "पडललयच": 7079,
      "वतकर": 7080,
      "धयण": 7081,
      "धयस": 7082,
      "रषटरकल": 7083,
      "रषटरपतक": 7084,
      "सथच": 7085,
      "हचबरबर": 7086,
      "सदतत": 7087,
      "सदयचय": 7088,
      "गलबल": 7089,
      "कळयक": 7090,
      "बदय": 7091,
      "बदकर": 7092,
      "बदपच": 7093,
      "मडलल": 7094,
      "मडवळ": 7095,
      "मडवय": 7096,
      "मडलयत": 7097,
      "पनक": 7098,
      "पनव": 7099,
      "पननय": 7100,
      "सलमन": 7101,
      "सलभत": 7102,
      "सलसयक": 7103,
      "घरदर": 7104,
      "घरतच": 7105,
      "घरघरन": 7106,
      "पळच": 7107,
      "पळलय": 7108,
      "पळतकच": 7109,
      "गडच": 7110,
      "गडयक": 7111,
      "कनक": 7112,
      "कनड": 7113,
      "कननर": 7114,
      "कननड": 7115,
      "पयभत": 7116,
      "करयवळखल": 7117,
      "करयवळवरव": 7118,
      "नवम": 7119,
      "नवयनच": 7120,
      "टनत": 7121,
      "टननलज": 7122,
      "खळमळतल": 7123,
      "धरलल": 7124,
      "धरमच": 7125,
      "कमय": 7126,
      "ळयचय": 7127,
      "आपआपल": 7128,
      "आपववरप": 7129,
      "सरकरकडन": 7130,
      "शनतच": 7131,
      "अरकच": 7132,
      "जनएस": 7133,
      "जनसनवण": 7134,
      "मलदव": 7135,
      "थरप": 7136,
      "थरवपक": 7137,
      "करपवश": 7138,
      "वळरन": 7139,
      "वळरय": 7140,
      "चलजरस": 7141,
      "दळण": 7142,
      "सपलय": 7143,
      "सपवन": 7144,
      "सपपण": 7145,
      "सपवपच": 7146,
      "सपटनक": 7147,
      "दललक": 7148,
      "शतड": 7149,
      "तजच": 7150,
      "उदकत": 7151,
      "उदकन": 7152,
      "उददशट": 7153,
      "उदहरण": 7154,
      "कलयक": 7155,
      "कलयचय": 7156,
      "कथकरच": 7157,
      "मचच": 7158,
      "अधक": 7159,
      "अधमष": 7160,
      "अधयतमक": 7161,
      "सहब": 7162,
      "सहकय": 7163,
      "घडच": 7164,
      "घडत": 7165,
      "आरगय": 7166,
      "आरपय": 7167,
      "जलयरच": 7168,
      "उपसमर": 7169,
      "उपसचलक": 7170,
      "उपसरपच": 7171,
      "भटच": 7172,
      "परयचय": 7173,
      "परयगक": 7174,
      "सदरप": 7175,
      "सदरभतल": 7176,
      "दतवस": 7177,
      "असधरण": 7178,
      "हजरबग": 7179,
      "भरतयच": 7180,
      "उतसल": 7181,
      "उतपनन": 7182,
      "गणसत": 7183,
      "कचन": 7184,
      "कचनत": 7185,
      "आडकन": 7186,
      "समस": 7187,
      "समङकयनलच": 7188,
      "समङकयनल": 7189,
      "जणटय": 7190,
      "आपलयचर": 7191,
      "भतररमचम": 7192,
      "आपलच": 7193,
      "आमगल": 7194,
      "आमसभन": 7195,
      "सतरवय": 7196,
      "पटय": 7197,
      "पटचय": 7198,
      "पटटय": 7199,
      "हचयबरबर": 7200,
      "सयकल": 7201,
      "सयकयच": 7202,
      "वगडवन": 7203,
      "वगडयकडन": 7204,
      "चडट": 7205,
      "चडल": 7206,
      "चडस": 7207,
      "गवतलय": 7208,
      "दखच": 7209,
      "दखवपच": 7210,
      "दखदण": 7211,
      "शकयत": 7212,
      "ङकटयन": 7213,
      "णयचर": 7214,
      "ननण": 7215,
      "ननमर": 7216,
      "ननणम": 7217,
      "ननमजन": 7218,
      "दवतल": 7219,
      "दवकडन": 7220,
      "सडवप": 7221,
      "हतसव": 7222,
      "हतपय": 7223,
      "बसलय": 7224,
      "दलयल": 7225,
      "शणचय": 7226,
      "रलड": 7227,
      "वहडवक": 7228,
      "वहडलस": 7229,
      "कललखतर": 7230,
      "ङकडरच": 7231,
      "ङकडरशन": 7232,
      "बयडन": 7233,
      "पवतकच": 7234,
      "दयसचर": 7235,
      "खयतर": 7236,
      "फटफट": 7237,
      "भजड": 7238,
      "भयणक": 7239,
      "मडळत": 7240,
      "हगम": 7241,
      "कणकय": 7242,
      "कणयच": 7243,
      "कणकडनच": 7244,
      "दसरयच": 7245,
      "दसरयक": 7246,
      "खबरकरन": 7247,
      "खबरपतर": 7248,
      "दमव": 7249,
      "शटलय": 7250,
      "भवष": 7251,
      "जडत": 7252,
      "जडयन": 7253,
      "जगयच": 7254,
      "पवलच": 7255,
      "पवललयन": 7256,
      "उरम": 7257,
      "बबश": 7258,
      "चरचसतर": 7259,
      "कटयन": 7260,
      "कटवड": 7261,
      "मगम": 7262,
      "दगलल": 7263,
      "नगरत": 7264,
      "सजवन": 7265,
      "सजवळर": 7266,
      "जममतलय": 7267,
      "वचरलल": 7268,
      "नटट": 7269,
      "ववरन": 7270,
      "ववरपक": 7271,
      "तडच": 7272,
      "वहरच": 7273,
      "वहरप": 7274,
      "दवपचय": 7275,
      "कसयक": 7276,
      "कसलयच": 7277,
      "कसळन": 7278,
      "जवनन": 7279,
      "जवनबरबर": 7280,
      "शळतलयन": 7281,
      "यवजय": 7282,
      "बडन": 7283,
      "बडवल": 7284,
      "हलन": 7285,
      "वपरन": 7286,
      "करमचय": 7287,
      "भरगचच": 7288,
      "बळचर": 7289,
      "बळशट": 7290,
      "कगरसक": 7291,
      "घटय": 7292,
      "नसतक": 7293,
      "रवलय": 7294,
      "बरबरच": 7295,
      "कदद": 7296,
      "कदफ": 7297,
      "कदतर": 7298,
      "कदबर": 7299,
      "कदयचय": 7300,
      "रयगड": 7301,
      "नहदक": 7302,
      "परणवय": 7303,
      "मधयसत": 7304,
      "जयतक": 7305,
      "रणज": 7306,
      "रणयच": 7307,
      "रणयचय": 7308,
      "तननचयन": 7309,
      "उकतवणचय": 7310,
      "ततरग": 7311,
      "ततररगन": 7312,
      "ङकरर": 7313,
      "जवतच": 7314,
      "जवणक": 7315,
      "नमणकडन": 7316,
      "वहनचय": 7317,
      "वहनवरव": 7318,
      "हमलयच": 7319,
      "सकळचय": 7320,
      "बकनर": 7321,
      "बकबब": 7322,
      "डरपण": 7323,
      "अमरत": 7324,
      "अमरवतत": 7325,
      "आपणवक": 7326,
      "धडलय": 7327,
      "धडपच": 7328,
      "नडक": 7329,
      "---": 7330,
      "बदलपच": 7331,
      "एमए": 7332,
      "एमसत": 7333,
      "रखपखतर": 7334,
      "जमनक": 7335,
      "उदरगतचर": 7336,
      "उजवल": 7337,
      "भनतन": 7338,
      "चनतलय": 7339,
      "आगच": 7340,
      "रगक": 7341,
      "रगभय": 7342,
      "रगजभ": 7343,
      "सटरस": 7344,
      "सरततलयन": 7345,
      "सबरमत": 7346,
      "बयतक": 7347,
      "सकलपय": 7348,
      "परभदसय": 7349,
      "गजलन": 7350,
      "बनसग": 7351,
      "अनधवशन": 7352,
      "खबच": 7353,
      "लवधरकक": 7354,
      "उददगचय": 7355,
      "चतरकरण": 7356,
      "यरदरचय": 7357,
      "आठक": 7358,
      "सधयक": 7359,
      "परसनचय": 7360,
      "उडयत": 7361,
      "गधजच": 7362,
      "वदयथरयचय": 7363,
      "गळन": 7364,
      "थळच": 7365,
      "पशपरळ": 7366,
      "रडन": 7367,
      "उबलल": 7368,
      "हतनच": 7369,
      "वरधकच": 7370,
      "समनवय": 7371,
      "अणड": 7372,
      "अणकरत": 7373,
      "फयफय": 7374,
      "मखलयन": 7375,
      "गमतक": 7376,
      "ङकलप": 7377,
      "बगलचय": 7378,
      "बगलतलय": 7379,
      "बगलदशचय": 7380,
      "कवडय": 7381,
      "कवडचय": 7382,
      "शतकमतय": 7383,
      "परचरत": 7384,
      "परचरय": 7385,
      "परचरसभत": 7386,
      "दवळक": 7387,
      "अभनत": 7388,
      "अभषक": 7389,
      "मसकत": 7390,
      "मगणच": 7391,
      "आधरच": 7392,
      "इडयच": 7393,
      "सवयवसथ": 7394,
      "सवयपरण": 7395,
      "कशमरक": 7396,
      "आकडवर": 7397,
      "कडलमन": 7398,
      "मतदरसघखतर": 7399,
      "मतदरसघतलय": 7400,
      "आवयस": 7401,
      "ददलरत": 7402,
      "पलवमत": 7403,
      "कपटन": 7404,
      "सकयलय": 7405,
      "इतहसच": 7406,
      "आदशक": 7407,
      "खसदरच": 7408,
      "करमचरयन": 7409,
      "उनग": 7410,
      "परतयततर": 7411,
      "सघटनक": 7412,
      "नसतमरन": 7413,
      "परवशचय": 7414,
      "वयवसथच": 7415,
      "अलह": 7416,
      "वलयमत": 7417,
      "हचरय": 7418,
      "पणजचय": 7419,
      "सततचळस": 7420,
      "महनयन": 7421,
      "नकलच": 7422,
      "पतळच": 7423,
      "पतळळ": 7424,
      "पतळयक": 7425,
      "पतळललय": 7426,
      "चळवळच": 7427,
      "सवरत": 7428,
      "सवरप": 7429,
      "सपनच": 7430,
      "परधकरण": 7431,
      "परकरणतल": 7432,
      "परकरणचर": 7433,
      "उतपदनत": 7434,
      "उपकरमच": 7435,
      "चचणमच": 7436,
      "जतरचय": 7437,
      "हदरबदन": 7438,
      "ङकरनदश": 7439,
      "मनशचर": 7440,
      "गतवणकक": 7441,
      "कपनक": 7442,
      "पलकचय": 7443,
      "हवरत": 7444,
      "परकरयक": 7445,
      "तकलन": 7446,
      "नटकचय": 7447,
      "शसतरच": 7448,
      "सखयक": 7449,
      "घडणकचर": 7450,
      "आयललयच": 7451,
      "वमनतळचय": 7452,
      "परयटनचय": 7453,
      "शबलय": 7454,
      "एकणपननस": 7455,
      "नधतलयन": 7456,
      "मदरचय": 7457,
      "सथनकक": 7458,
      "शमचर": 7459,
      "शमभरद": 7460,
      "दहशद": 7461,
      "नवदनन": 7462,
      "चतरपटचय": 7463,
      "परसथतचय": 7464,
      "हसपटलचय": 7465,
      "यशटरभनमतम": 7466,
      "करयकरमत": 7467,
      "उरजच": 7468,
      "परभणम": 7469,
      "पवडयवल": 7470,
      "यजमक": 7471,
      "अननपरण": 7472,
      "तमळनडच": 7473,
      "उगडल": 7474,
      "शवरज": 7475,
      "खळगडयच": 7476,
      "डडम": 7477,
      "नययलयमखर": 7478,
      "2015": 7479,
      "आळश": 7480,
      "दरदरशनचर": 7481,
      "आलतन": 7482,
      "आलवरस": 7483,
      "उखलत": 7484,
      "दपकवप": 7485,
      "दनशललय": 7486,
      "समधनन": 7487,
      "समधनकरक": 7488,
      "दहशतवदयच": 7489,
      "दगरर": 7490,
      "भतलमन": 7491,
      "शबरचय": 7492,
      "वडवपखतर": 7493,
      "आकरशत": 7494,
      "आमजन": 7495,
      "दधच": 7496,
      "दळयचय": 7497,
      "महयनयळ": 7498,
      "महयनयभतर": 7499,
      "झरखडतलय": 7500,
      "झयडस": 7501,
      "भवतणच": 7502,
      "परषदवरव": 7503,
      "पनरम": 7504,
      "पनरचचर": 7505,
      "हरयणत": 7506,
      "इडयनस": 7507,
      "छततसगडच": 7508,
      "मथयत": 7509,
      "तरनटयक": 7510,
      "इरणचय": 7511,
      "पलयकर": 7512,
      "सहकरयच": 7513,
      "उखलललय": 7514,
      "रजकरणत": 7515,
      "नहयकरलय": 7516,
      "आभचम": 7517,
      "एचओ": 7518,
      "नवरतरत": 7519,
      "मलयकन": 7520,
      "उपगरयच": 7521,
      "वललभ": 7522,
      "सवळयचय": 7523,
      "ववरपयक": 7524,
      "लगसरचय": 7525,
      "गयकरचय": 7526,
      "जसपरत": 7527,
      "जगरण": 7528,
      "पवणयवलय": 7529,
      "लहरक": 7530,
      "अधवशनचय": 7531,
      "यषटरनत": 7532,
      "नरकषरतय": 7533,
      "वजञनच": 7534,
      "एपचरय": 7535,
      "कयतनन": 7536,
      "खफयदय": 7537,
      "खफयकयक": 7538,
      "लकततर": 7539,
      "1948": 7540,
      "सटरटअप": 7541,
      "रसतयचय": 7542,
      "ङकरपटत": 7543,
      "चकचकत": 7544,
      "पलनसवम": 7545,
      "पळयलयर": 7546,
      "सवततरतय": 7547,
      "अरथववसथक": 7548,
      "उभरलयत": 7549,
      "मबयचय": 7550,
      "गरडमसटर": 7551,
      "परतबधत": 7552,
      "उततरखडतलय": 7553,
      "नषपप": 7554,
      "फककत": 7555,
      "फकमद": 7556,
      "लढयतल": 7557,
      "बरटनचय": 7558,
      "चचणयखतर": 7559,
      "नरयळदलयल": 7560,
      "अहमदबदतलय": 7561,
      "इसपतळ": 7562,
      "समरकचर": 7563,
      "उमळशक": 7564,
      "जखलयत": 7565,
      "पललत": 7566,
      "urity": 7567,
      "परजळत": 7568,
      "नरगतचर": 7569,
      "बळगयर": 7570,
      "iii": 7571,
      "पएचड": 7572,
      "लपयत": 7573,
      "शशटमडळन": 7574,
      "गलदजचय": 7575,
      "अठठवनन": 7576,
      "कजरवल": 7577,
      "वदरभ": 7578,
      "वयनतमतव": 7579,
      "बदखणत": 7580,
      "इबडल": 7581,
      "कहलन": 7582,
      "धनयचय": 7583,
      "रळनदर": 7584,
      "वबसयटचर": 7585,
      "परसवदत": 7586,
      "2009": 7587,
      "रघनथ": 7588,
      "कनङकरसगचय": 7589,
      "कनङकरसगवरव": 7590,
      "रझरव": 7591,
      "ade": 7592,
      "पपरमट": 7593,
      "परवडप": 7594,
      "सततयततर": 7595,
      "बधदमततच": 7596,
      "कषपणसतरच": 7597,
      "अङभ": 7598,
      "झगझगत": 7599,
      "दवसथन": 7600,
      "लमटड": 7601,
      "दयगशळ": 7602,
      "चकरवदळक": 7603,
      "डयनण": 7604,
      "वयवसय": 7605,
      "मददयचर": 7606,
      "पददतच": 7607,
      "सशकतकरण": 7608,
      "अपघतच": 7609,
      "1877": 7610,
      "आकरषत": 7611,
      "आपरजगर": 7612,
      "गपळदद": 7613,
      "नपकषपतपणन": 7614,
      "वधयकत": 7615,
      "आमआमट": 7616,
      "इतममन": 7617,
      "ओनलईन": 7618,
      "टआरएस": 7619,
      "दऊळ": 7620,
      "महटलयर": 7621,
      "महञचसव": 7622,
      "वरयरस": 7623,
      "हचमयपथ": 7624,
      "जळवणदर": 7625,
      "अङकगनसतन": 7626,
      "आललतन": 7627,
      "आबरतर": 7628,
      "नगटवह": 7629,
      "फजलण": 7630,
      "दरयदगर": 7631,
      "शरधदजल": 7632,
      "ककळयकर": 7633,
      "ततररगनमन": 7634,
      "दहशदवद": 7635,
      "**": 7636,
      "22": 7637,
      "29": 7638,
      "Sa": 7639,
      "ed": 7640,
      "el": 7641,
      "en": 7642,
      "es": 7643,
      "et": 7644,
      "hi": 7645,
      "ic": 7646,
      "nd": 7647,
      "om": 7648,
      "or": 7649,
      "st": 7650,
      "अछ": 7651,
      "अतलय": 7652,
      "अपन": 7653,
      "अनच": 7654,
      "अमरन": 7655,
      "अखय": 7656,
      "अपस": 7657,
      "अभव": 7658,
      "अबध": 7659,
      "अठय": 7660,
      "अगध": 7661,
      "अबज": 7662,
      "असपषट": 7663,
      "अयश": 7664,
      "अवसवस": 7665,
      "अङकरक": 7666,
      "अधरम": 7667,
      "अवरन": 7668,
      "आऊ": 7669,
      "आष": 7670,
      "आचय": 7671,
      "आतल": 7672,
      "आमन": 7673,
      "आकत": 7674,
      "आङक": 7675,
      "आगल": 7676,
      "आगड": 7677,
      "आतचय": 7678,
      "आवठ": 7679,
      "आकरच": 7680,
      "आफड": 7681,
      "आदम": 7682,
      "आदग": 7683,
      "आलम": 7684,
      "आलज": 7685,
      "आवडट": 7686,
      "आमलम": 7687,
      "आधकरयन": 7688,
      "आफरक": 7689,
      "इग": 7690,
      "इतर": 7691,
      "इतक": 7692,
      "इगरज": 7693,
      "इनड": 7694,
      "इडन": 7695,
      "ईरण": 7696,
      "उख": 7697,
      "उभ": 7698,
      "उलक": 7699,
      "उदस": 7700,
      "उशण": 7701,
      "उबय": 7702,
      "उसकय": 7703,
      "उमब": 7704,
      "उसगव": 7705,
      "ऋष": 7706,
      "ऋतक": 7707,
      "एथ": 7708,
      "एपर": 7709,
      "एआय": 7710,
      "एनत": 7711,
      "एआर": 7712,
      "एनट": 7713,
      "एथल": 7714,
      "ऑफ": 7715,
      "ओनर": 7716,
      "ओपक": 7717,
      "ओदशत": 7718,
      "ओदशच": 7719,
      "ओणम": 7720,
      "कफ": 7721,
      "कसक": 7722,
      "कमड": 7723,
      "कटन": 7724,
      "कगन": 7725,
      "कबय": 7726,
      "कपस": 7727,
      "ककषत": 7728,
      "कफत": 7729,
      "कवळन": 7730,
      "खतक": 7731,
      "खवन": 7732,
      "खवज": 7733,
      "खसद": 7734,
      "खशन": 7735,
      "खनच": 7736,
      "खटय": 7737,
      "गपल": 7738,
      "गवग": 7739,
      "गवल": 7740,
      "गवण": 7741,
      "गदनय": 7742,
      "गषट": 7743,
      "गबयत": 7744,
      "गगच": 7745,
      "गयनच": 7746,
      "गझय": 7747,
      "गतलयत": 7748,
      "घतक": 7749,
      "घसप": 7750,
      "घळन": 7751,
      "घघयच": 7752,
      "ङघ": 7753,
      "ङर": 7754,
      "ङकरत": 7755,
      "ङतयक": 7756,
      "चग": 7757,
      "चण": 7758,
      "चमर": 7759,
      "चलयन": 7760,
      "चमत": 7761,
      "चपड": 7762,
      "चमण": 7763,
      "चबल": 7764,
      "चनक": 7765,
      "चदग": 7766,
      "चदरक": 7767,
      "चहन": 7768,
      "चसषट": 7769,
      "छळ": 7770,
      "छपर": 7771,
      "छतय": 7772,
      "जघ": 7773,
      "जह": 7774,
      "जआन": 7775,
      "जबर": 7776,
      "जकत": 7777,
      "जलयन": 7778,
      "जटन": 7779,
      "जसटर": 7780,
      "जखप": 7781,
      "जहज": 7782,
      "जभह": 7783,
      "झझ": 7784,
      "झब": 7785,
      "झडर": 7786,
      "झगट": 7787,
      "ञचक": 7788,
      "ञचरन": 7789,
      "टलय": 7790,
      "टगर": 7791,
      "ठव": 7792,
      "ठवन": 7793,
      "ठकन": 7794,
      "ठरत": 7795,
      "डग": 7796,
      "डसज": 7797,
      "डएमक": 7798,
      "णमत": 7799,
      "णवश": 7800,
      "तथ": 7801,
      "तबर": 7802,
      "तसन": 7803,
      "तवत": 7804,
      "तबल": 7805,
      "तखय": 7806,
      "तभय": 7807,
      "तटत": 7808,
      "तखत": 7809,
      "तवणक": 7810,
      "तहरक": 7811,
      "तसवड": 7812,
      "थयर": 7813,
      "थपनन": 7814,
      "दहर": 7815,
      "दमक": 7816,
      "दजन": 7817,
      "दभव": 7818,
      "ददक": 7819,
      "ददवच": 7820,
      "दङकस": 7821,
      "धस": 7822,
      "धपर": 7823,
      "धदस": 7824,
      "धपच": 7825,
      "धवज": 7826,
      "धकट": 7827,
      "धवतल": 7828,
      "धलगड": 7829,
      "धधत": 7830,
      "धलप": 7831,
      "धटयन": 7832,
      "नलय": 7833,
      "नसक": 7834,
      "नवद": 7835,
      "नकश": 7836,
      "नपकष": 7837,
      "नसय": 7838,
      "नदय": 7839,
      "नडर": 7840,
      "नतयच": 7841,
      "नधक": 7842,
      "नयनच": 7843,
      "नषठ": 7844,
      "नमतरक": 7845,
      "नउसकय": 7846,
      "पयत": 7847,
      "पवळ": 7848,
      "पवश": 7849,
      "पमण": 7850,
      "पसरकर": 7851,
      "पजन": 7852,
      "पलयर": 7853,
      "पसवण": 7854,
      "पझरत": 7855,
      "फसर": 7856,
      "फमर": 7857,
      "फगन": 7858,
      "फरल": 7859,
      "फकट": 7860,
      "फफर": 7861,
      "फमरक": 7862,
      "फसतक": 7863,
      "बलल": 7864,
      "बकष": 7865,
      "बयन": 7866,
      "बवच": 7867,
      "बवन": 7868,
      "बमत": 7869,
      "बपण": 7870,
      "बगत": 7871,
      "बगय": 7872,
      "बकश": 7873,
      "बगड": 7874,
      "बशन": 7875,
      "बसतर": 7876,
      "बघल": 7877,
      "बनल": 7878,
      "बपप": 7879,
      "भप": 7880,
      "भसर": 7881,
      "भकष": 7882,
      "भबर": 7883,
      "भवय": 7884,
      "भशर": 7885,
      "भवज": 7886,
      "भनम": 7887,
      "भनक": 7888,
      "भनल": 7889,
      "भषट": 7890,
      "भवशय": 7891,
      "भयनच": 7892,
      "भतयत": 7893,
      "भयतलयन": 7894,
      "भयचम": 7895,
      "भनमतत": 7896,
      "भकदद": 7897,
      "मघ": 7898,
      "मकल": 7899,
      "मयर": 7900,
      "ममक": 7901,
      "मलयच": 7902,
      "मसकल": 7903,
      "मसळ": 7904,
      "मवजय": 7905,
      "मसलत": 7906,
      "यपर": 7907,
      "ययत": 7908,
      "यगत": 7909,
      "रढ": 7910,
      "रतर": 7911,
      "रयत": 7912,
      "रपण": 7913,
      "रखल": 7914,
      "रटल": 7915,
      "रमक": 7916,
      "रसच": 7917,
      "रसट": 7918,
      "रमय": 7919,
      "रअल": 7920,
      "रवजक": 7921,
      "रपरट": 7922,
      "रकतच": 7923,
      "रवहलय": 7924,
      "लऽ": 7925,
      "लतन": 7926,
      "लतत": 7927,
      "लसत": 7928,
      "लशन": 7929,
      "लनक": 7930,
      "लहल": 7931,
      "लचन": 7932,
      "लजक": 7933,
      "लशळन": 7934,
      "लकयकत": 7935,
      "ळश": 7936,
      "ळवप": 7937,
      "ळपच": 7938,
      "ळयच": 7939,
      "ळयक": 7940,
      "ळळय": 7941,
      "ळदत": 7942,
      "वब": 7943,
      "ववय": 7944,
      "वमत": 7945,
      "ववग": 7946,
      "ववल": 7947,
      "वभव": 7948,
      "वमचन": 7949,
      "वञचरन": 7950,
      "शष": 7951,
      "शतर": 7952,
      "शटर": 7953,
      "शतच": 7954,
      "शपण": 7955,
      "शदल": 7956,
      "शवग": 7957,
      "शकळ": 7958,
      "शबद": 7959,
      "शयचय": 7960,
      "शयततर": 7961,
      "शपयर": 7962,
      "षयन": 7963,
      "षलमन": 7964,
      "सऊ": 7965,
      "सलय": 7966,
      "सणक": 7967,
      "सकरन": 7968,
      "सजर": 7969,
      "सपळ": 7970,
      "सघतल": 7971,
      "सकरच": 7972,
      "समरन": 7973,
      "सकलल": 7974,
      "ससरत": 7975,
      "सपडल": 7976,
      "सएस": 7977,
      "सपडलयत": 7978,
      "सछथ": 7979,
      "हवग": 7980,
      "हलयत": 7981,
      "हपत": 7982,
      "हकच": 7983,
      "हनह": 7984,
      "ऽय": 7985,
      "लयतत": 7986,
      "लयवह": 7987,
      "करमल": 7988,
      "करकरक": 7989,
      "करखन": 7990,
      "तरग": 7991,
      "तरपठ": 7992,
      "तरदज": 7993,
      "तरयततर": 7994,
      "परभर": 7995,
      "परमत": 7996,
      "परकरन": 7997,
      "परसल": 7998,
      "परगन": 7999
    },
    "merges": [
      [
        "ल",
        "य"
      ],
      [
        "क",
        "र"
      ],
      [
        "त",
        "र"
      ],
      [
        "प",
        "र"
      ],
      [
        "आ",
        "न"
      ],
      [
        "च",
        "य"
      ],
      [
        "म",
        "ह"
      ],
      [
        "त",
        "ल"
      ],
      [
        "द",
        "र"
      ],
      [
        "स",
        "र"
      ],
      [
        "क",
        "ल"
      ],
      [
        "ल",
        "ल"
      ],
      [
        "त",
        "य"
      ],
      [
        "ह",
        "य"
      ],
      [
        "व",
        "र"
      ],
      [
        "य",
        "त"
      ],
      [
        "च",
        "र"
      ],
      [
        "अ",
        "श"
      ],
      [
        "आ",
        "स"
      ],
      [
        "स",
        "ग"
      ],
      [
        "आ",
        "य"
      ],
      [
        "स",
        "व"
      ],
      [
        "त",
        "न"
      ],
      [
        "क",
        "ष"
      ],
      [
        "म",
        "न"
      ],
      [
        "म",
        "तर"
      ],
      [
        "भ",
        "र"
      ],
      [
        "त",
        "क"
      ],
      [
        "य",
        "न"
      ],
      [
        "म",
        "र"
      ],
      [
        "क",
        "ड"
      ],
      [
        "ब",
        "र"
      ],
      [
        "ह",
        "ण"
      ],
      [
        "ग",
        "र"
      ],
      [
        "क",
        "त"
      ],
      [
        "व",
        "च"
      ],
      [
        "ज",
        "ल"
      ],
      [
        "व",
        "न"
      ],
      [
        "व",
        "ळ"
      ],
      [
        "व",
        "प"
      ],
      [
        "त",
        "त"
      ],
      [
        "न",
        "य"
      ],
      [
        "ट",
        "र"
      ],
      [
        "क",
        "य"
      ],
      [
        "ध",
        "न"
      ],
      [
        "द",
        "श"
      ],
      [
        "ज",
        "य"
      ],
      [
        "त",
        "च"
      ],
      [
        "ल",
        "क"
      ],
      [
        "ए",
        "क"
      ],
      [
        "द",
        "स"
      ],
      [
        "ल",
        "ग"
      ],
      [
        "व",
        "य"
      ],
      [
        "त",
        "ण"
      ],
      [
        "लय",
        "न"
      ],
      [
        "न",
        "र"
      ],
      [
        "म",
        "द"
      ],
      [
        "ख",
        "तर"
      ],
      [
        ".",
        "."
      ],
      [
        "म",
        "त"
      ],
      [
        "प",
        "ल"
      ],
      [
        "प",
        "ण"
      ],
      [
        "ङ",
        "क"
      ],
      [
        "द",
        "न"
      ],
      [
        "व",
        "स"
      ],
      [
        "प",
        "च"
      ],
      [
        "य",
        "ल"
      ],
      [
        "म",
        "ळ"
      ],
      [
        "व",
        "ड"
      ],
      [
        "य",
        "च"
      ],
      [
        "द",
        "ल"
      ],
      [
        "य",
        "र"
      ],
      [
        "ह",
        "र"
      ],
      [
        "व",
        "श"
      ],
      [
        "कर",
        "य"
      ],
      [
        "ख",
        "ल"
      ],
      [
        "सग",
        "ल"
      ],
      [
        "ण",
        "क"
      ],
      [
        "व",
        "ग"
      ],
      [
        "कर",
        "न"
      ],
      [
        "मह",
        "ण"
      ],
      [
        "पर",
        "धन"
      ],
      [
        "ज",
        "र"
      ],
      [
        "य",
        "क"
      ],
      [
        "स",
        "क"
      ],
      [
        "आय",
        "ज"
      ],
      [
        "स",
        "त"
      ],
      [
        "स",
        "न"
      ],
      [
        "व",
        "ल"
      ],
      [
        "र",
        "ज"
      ],
      [
        "त",
        "लय"
      ],
      [
        "व",
        "ण"
      ],
      [
        "आ",
        "श"
      ],
      [
        "प",
        "क"
      ],
      [
        "श",
        "र"
      ],
      [
        "ट",
        "ल"
      ],
      [
        "व",
        "क"
      ],
      [
        "श",
        "च"
      ],
      [
        "व",
        "द"
      ],
      [
        "क",
        "क"
      ],
      [
        "व",
        "ज"
      ],
      [
        "ष",
        "टर"
      ],
      [
        "पर",
        "त"
      ],
      [
        "परधन",
        "मतर"
      ],
      [
        "व",
        "ह"
      ],
      [
        "ख",
        "र"
      ],
      [
        "मह",
        "ळ"
      ],
      [
        "व",
        "ट"
      ],
      [
        "लय",
        "त"
      ],
      [
        "स",
        "भ"
      ],
      [
        "ज",
        "तल"
      ],
      [
        "प",
        "ड"
      ],
      [
        "व",
        "त"
      ],
      [
        "ग",
        "त"
      ],
      [
        "ध",
        "य"
      ],
      [
        "म",
        "क"
      ],
      [
        "र",
        "षटर"
      ],
      [
        "म",
        "ज"
      ],
      [
        "स",
        "थ"
      ],
      [
        "ह",
        "च"
      ],
      [
        "प",
        "त"
      ],
      [
        "ग",
        "य"
      ],
      [
        "स",
        "द"
      ],
      [
        "ग",
        "ल"
      ],
      [
        "म",
        "ण"
      ],
      [
        "क",
        "ळ"
      ],
      [
        "स",
        "च"
      ],
      [
        "ब",
        "द"
      ],
      [
        "म",
        "ड"
      ],
      [
        "क",
        "श"
      ],
      [
        "क",
        "दर"
      ],
      [
        "प",
        "न"
      ],
      [
        "स",
        "ल"
      ],
      [
        "ज",
        "लय"
      ],
      [
        "घ",
        "र"
      ],
      [
        "प",
        "ळ"
      ],
      [
        "कड",
        "न"
      ],
      [
        "ज",
        "त"
      ],
      [
        "ग",
        "ड"
      ],
      [
        "क",
        "न"
      ],
      [
        "ह",
        "व"
      ],
      [
        "ल",
        "लय"
      ],
      [
        "प",
        "य"
      ],
      [
        "करय",
        "वळ"
      ],
      [
        "न",
        "व"
      ],
      [
        "म",
        "खल"
      ],
      [
        "ट",
        "न"
      ],
      [
        "भर",
        "त"
      ],
      [
        "ख",
        "ळ"
      ],
      [
        "ध",
        "र"
      ],
      [
        "क",
        "म"
      ],
      [
        "ळ",
        "य"
      ],
      [
        "त",
        "शच"
      ],
      [
        "आ",
        "प"
      ],
      [
        "सर",
        "कर"
      ],
      [
        "श",
        "न"
      ],
      [
        "अ",
        "र"
      ],
      [
        "ज",
        "न"
      ],
      [
        "घ",
        "तल"
      ],
      [
        "म",
        "ल"
      ],
      [
        "ङ",
        "कड"
      ],
      [
        "कष",
        "ण"
      ],
      [
        "लग",
        "न"
      ],
      [
        "थ",
        "र"
      ],
      [
        "कर",
        "प"
      ],
      [
        "आश",
        "लल"
      ],
      [
        "वळ",
        "र"
      ],
      [
        "च",
        "ल"
      ],
      [
        "द",
        "ळ"
      ],
      [
        "स",
        "प"
      ],
      [
        "द",
        "लल"
      ],
      [
        "कक",
        "ण"
      ],
      [
        "आस",
        "त"
      ],
      [
        "न",
        "त"
      ],
      [
        "श",
        "त"
      ],
      [
        "ट",
        "क"
      ],
      [
        "त",
        "ज"
      ],
      [
        "र",
        "जय"
      ],
      [
        "न",
        "च"
      ],
      [
        "उ",
        "द"
      ],
      [
        "क",
        "लय"
      ],
      [
        "कर",
        "तल"
      ],
      [
        "वप",
        "च"
      ],
      [
        "क",
        "थ"
      ],
      [
        "म",
        "च"
      ],
      [
        "उ",
        "परत"
      ],
      [
        "अ",
        "ध"
      ],
      [
        "त",
        "चय"
      ],
      [
        "मह",
        "त"
      ],
      [
        "वच",
        "णक"
      ],
      [
        "स",
        "ह"
      ],
      [
        "उ",
        "लय"
      ],
      [
        "घ",
        "ड"
      ],
      [
        "व",
        "ठ"
      ],
      [
        "प",
        "कष"
      ],
      [
        "न",
        "म"
      ],
      [
        "आ",
        "र"
      ],
      [
        "जलय",
        "र"
      ],
      [
        "उ",
        "प"
      ],
      [
        "र",
        "त"
      ],
      [
        "मह",
        "यत"
      ],
      [
        "भ",
        "ट"
      ],
      [
        "आय",
        "ल"
      ],
      [
        "पर",
        "य"
      ],
      [
        "धय",
        "कष"
      ],
      [
        "अश",
        "य"
      ],
      [
        "स",
        "दर"
      ],
      [
        "द",
        "त"
      ],
      [
        "अ",
        "स"
      ],
      [
        "ग",
        "न"
      ],
      [
        "ह",
        "जर"
      ],
      [
        "भर",
        "तय"
      ],
      [
        "आ",
        "त"
      ],
      [
        "उ",
        "त"
      ],
      [
        "ग",
        "ण"
      ],
      [
        "सव",
        "त"
      ],
      [
        "ब",
        "ल"
      ],
      [
        "क",
        "च"
      ],
      [
        "नर",
        "दर"
      ],
      [
        "कर",
        "ण"
      ],
      [
        "आ",
        "ड"
      ],
      [
        "प",
        "यल"
      ],
      [
        "स",
        "म"
      ],
      [
        "ज",
        "ण"
      ],
      [
        "आप",
        "लय"
      ],
      [
        "भ",
        "तर"
      ],
      [
        "आ",
        "पल"
      ],
      [
        "आ",
        "म"
      ],
      [
        "स",
        "ब"
      ],
      [
        "ज",
        "लल"
      ],
      [
        "पर",
        "श"
      ],
      [
        "स",
        "तर"
      ],
      [
        "क",
        "तय"
      ],
      [
        "वर",
        "व"
      ],
      [
        "प",
        "ट"
      ],
      [
        "य",
        "चय"
      ],
      [
        "ह",
        "चय"
      ],
      [
        "स",
        "य"
      ],
      [
        "कर",
        "क"
      ],
      [
        "स",
        "ट"
      ],
      [
        "मह",
        "क"
      ],
      [
        "वग",
        "ड"
      ],
      [
        "च",
        "ड"
      ],
      [
        "कर",
        "च"
      ],
      [
        "..",
        "."
      ],
      [
        "ग",
        "व"
      ],
      [
        "द",
        "ख"
      ],
      [
        "उ",
        "ल"
      ],
      [
        "प",
        "द"
      ],
      [
        "कर",
        "त"
      ],
      [
        "श",
        "क"
      ],
      [
        "भ",
        "यर"
      ],
      [
        "ह",
        "ड"
      ],
      [
        "ङक",
        "ट"
      ],
      [
        "ब",
        "सक"
      ],
      [
        "घ",
        "ल"
      ],
      [
        "कर",
        "पच"
      ],
      [
        "ह",
        "क"
      ],
      [
        "ण",
        "य"
      ],
      [
        "न",
        "न"
      ],
      [
        "य",
        "वज"
      ],
      [
        "द",
        "व"
      ],
      [
        "ब",
        "यल"
      ],
      [
        "स",
        "ड"
      ],
      [
        "ह",
        "त"
      ],
      [
        "स",
        "घ"
      ],
      [
        "मर",
        "न"
      ],
      [
        "ब",
        "स"
      ],
      [
        "वर",
        "स"
      ],
      [
        "द",
        "लय"
      ],
      [
        "न",
        "क"
      ],
      [
        "कदर",
        "य"
      ],
      [
        "भ",
        "ग"
      ],
      [
        "म",
        "खर"
      ],
      [
        "महण",
        "न"
      ],
      [
        "श",
        "ण"
      ],
      [
        "नय",
        "य"
      ],
      [
        "र",
        "ल"
      ],
      [
        "वह",
        "ड"
      ],
      [
        "कल",
        "ल"
      ],
      [
        "ङकड",
        "र"
      ],
      [
        "लग",
        "ल"
      ],
      [
        "लय",
        "क"
      ],
      [
        "अर",
        "थ"
      ],
      [
        "ब",
        "य"
      ],
      [
        "द",
        "वर"
      ],
      [
        "वप",
        "क"
      ],
      [
        "प",
        "व"
      ],
      [
        "रषटर",
        "य"
      ],
      [
        "ख",
        "तय"
      ],
      [
        "द",
        "य"
      ],
      [
        "ख",
        "य"
      ],
      [
        "फ",
        "ट"
      ],
      [
        "भ",
        "ज"
      ],
      [
        "पर",
        "स"
      ],
      [
        "प",
        "स"
      ],
      [
        "फ",
        "ड"
      ],
      [
        "उ",
        "कत"
      ],
      [
        "भ",
        "य"
      ],
      [
        "अ",
        "धयकष"
      ],
      [
        "न",
        "ल"
      ],
      [
        "मड",
        "ळ"
      ],
      [
        "ह",
        "ग"
      ],
      [
        "पर",
        "मण"
      ],
      [
        "क",
        "ण"
      ],
      [
        "द",
        "सर"
      ],
      [
        "सर",
        "क"
      ],
      [
        "च",
        "च"
      ],
      [
        "ख",
        "बर"
      ],
      [
        "द",
        "म"
      ],
      [
        "प",
        "तर"
      ],
      [
        "न",
        "हय"
      ],
      [
        "र",
        "न"
      ],
      [
        "श",
        "ट"
      ],
      [
        "मखल",
        "मतर"
      ],
      [
        "भ",
        "व"
      ],
      [
        "ज",
        "ड"
      ],
      [
        "स",
        "सथ"
      ],
      [
        "ज",
        "ग"
      ],
      [
        "स",
        "मज"
      ],
      [
        "तय",
        "र"
      ],
      [
        "सर",
        "करन"
      ],
      [
        "प",
        "वल"
      ],
      [
        "वस",
        "थ"
      ],
      [
        "उ",
        "र"
      ],
      [
        "पर",
        "दश"
      ],
      [
        "वद",
        "य"
      ],
      [
        "ब",
        "ब"
      ],
      [
        "चर",
        "च"
      ],
      [
        "त",
        "ळ"
      ],
      [
        "मह",
        "ज"
      ],
      [
        "सग",
        "ळ"
      ],
      [
        "कर",
        "पक"
      ],
      [
        "स",
        "तन"
      ],
      [
        "क",
        "ट"
      ],
      [
        "न",
        "श"
      ],
      [
        "ख",
        "ड"
      ],
      [
        "घ",
        "वन"
      ],
      [
        "म",
        "ग"
      ],
      [
        "म",
        "य"
      ],
      [
        "द",
        "नय"
      ],
      [
        "द",
        "ग"
      ],
      [
        "लग",
        "त"
      ],
      [
        "सव",
        "न"
      ],
      [
        "न",
        "गर"
      ],
      [
        "जल",
        "लय"
      ],
      [
        "म",
        "ट"
      ],
      [
        "व",
        "ध"
      ],
      [
        "स",
        "ज"
      ],
      [
        "ज",
        "म"
      ],
      [
        "व",
        "चर"
      ],
      [
        "य",
        "तल"
      ],
      [
        "ष",
        "ट"
      ],
      [
        "भ",
        "लयक"
      ],
      [
        "ण",
        "च"
      ],
      [
        "आस",
        "तल"
      ],
      [
        "सर",
        "त"
      ],
      [
        "प",
        "गड"
      ],
      [
        "सर",
        "कष"
      ],
      [
        "उलय",
        "तल"
      ],
      [
        "न",
        "ट"
      ],
      [
        "वग",
        "वग"
      ],
      [
        "व",
        "वर"
      ],
      [
        "त",
        "ड"
      ],
      [
        "व",
        "हर"
      ],
      [
        "द",
        "वप"
      ],
      [
        "क",
        "स"
      ],
      [
        "ज",
        "वन"
      ],
      [
        "सग",
        "र"
      ],
      [
        "त",
        "लयन"
      ],
      [
        "लय",
        "च"
      ],
      [
        "प",
        "वड"
      ],
      [
        "श",
        "ळ"
      ],
      [
        "श",
        "ल"
      ],
      [
        "स",
        "मर"
      ],
      [
        "परधनमतर",
        "यन"
      ],
      [
        "य",
        "व"
      ],
      [
        "ज",
        "वप"
      ],
      [
        "गर",
        "ज"
      ],
      [
        "ब",
        "ड"
      ],
      [
        "सव",
        "ळ"
      ],
      [
        "सह",
        "तय"
      ],
      [
        "ह",
        "ल"
      ],
      [
        "व",
        "पर"
      ],
      [
        "थ",
        "य"
      ],
      [
        "न",
        "दर"
      ],
      [
        "कर",
        "म"
      ],
      [
        "भर",
        "ग"
      ],
      [
        "दलल",
        "त"
      ],
      [
        "..",
        ".."
      ],
      [
        "ल",
        "ख"
      ],
      [
        "ब",
        "ळ"
      ],
      [
        "आ",
        "द"
      ],
      [
        "उ",
        "कतय"
      ],
      [
        "आ",
        "ज"
      ],
      [
        "तर",
        "ण"
      ],
      [
        "ख",
        "स"
      ],
      [
        "पल",
        "स"
      ],
      [
        "क",
        "गर"
      ],
      [
        "घ",
        "ट"
      ],
      [
        "न",
        "स"
      ],
      [
        "आ",
        "दर"
      ],
      [
        "मज",
        "गत"
      ],
      [
        "उ",
        "दर"
      ],
      [
        "र",
        "व"
      ],
      [
        "रषटर",
        "पत"
      ],
      [
        "बर",
        "बर"
      ],
      [
        "आश",
        "ललय"
      ],
      [
        "अध",
        "कर"
      ],
      [
        "क",
        "द"
      ],
      [
        "र",
        "य"
      ],
      [
        "कल",
        "लय"
      ],
      [
        "ड",
        "य"
      ],
      [
        "यत",
        "न"
      ],
      [
        "ब",
        "ध"
      ],
      [
        "न",
        "ह"
      ],
      [
        "यवज",
        "ण"
      ],
      [
        "ग",
        "यत"
      ],
      [
        "लक",
        "क"
      ],
      [
        "वगवग",
        "ळय"
      ],
      [
        "व",
        "दश"
      ],
      [
        "पर",
        "ण"
      ],
      [
        "ट",
        "त"
      ],
      [
        "भ",
        "वन"
      ],
      [
        "द",
        "तल"
      ],
      [
        "म",
        "धय"
      ],
      [
        "ज",
        "यत"
      ],
      [
        "र",
        "ण"
      ],
      [
        "तन",
        "न"
      ],
      [
        "उकत",
        "वण"
      ],
      [
        "प",
        "चय"
      ],
      [
        "दर",
        "शन"
      ],
      [
        "त",
        "तर"
      ],
      [
        "स",
        "स"
      ],
      [
        "ङ",
        "कर"
      ],
      [
        "द",
        "क"
      ],
      [
        "अ",
        "ळ"
      ],
      [
        "ख",
        "त"
      ],
      [
        "ज",
        "व"
      ],
      [
        "उ",
        "मद"
      ],
      [
        "श",
        "य"
      ],
      [
        "उत",
        "तर"
      ],
      [
        "लक",
        "सभ"
      ],
      [
        "न",
        "मण"
      ],
      [
        "भ",
        "त"
      ],
      [
        "महळ",
        "यर"
      ],
      [
        "ठ",
        "य"
      ],
      [
        "ब",
        "ग"
      ],
      [
        "वह",
        "न"
      ],
      [
        "ह",
        "म"
      ],
      [
        "ह",
        "स"
      ],
      [
        "ह",
        "तत"
      ],
      [
        "मर",
        "ग"
      ],
      [
        "वच",
        "न"
      ],
      [
        "सक",
        "ळ"
      ],
      [
        "बस",
        "कत"
      ],
      [
        "त",
        "जय"
      ],
      [
        "ब",
        "क"
      ],
      [
        "ड",
        "र"
      ],
      [
        "ज",
        "वच"
      ],
      [
        "ञ",
        "न"
      ],
      [
        "प",
        "वस"
      ],
      [
        "श",
        "कषण"
      ],
      [
        "मत",
        "दर"
      ],
      [
        "अ",
        "मर"
      ],
      [
        "आ",
        "पण"
      ],
      [
        "पर",
        "कल"
      ],
      [
        "य",
        "चर"
      ],
      [
        "व",
        "धन"
      ],
      [
        "भर",
        "तच"
      ],
      [
        "ध",
        "ड"
      ],
      [
        "व",
        "मन"
      ],
      [
        "च",
        "म"
      ],
      [
        "अ",
        "तर"
      ],
      [
        "य",
        "ग"
      ],
      [
        "मळ",
        "टल"
      ],
      [
        "पड",
        "ल"
      ],
      [
        "न",
        "ड"
      ],
      [
        "सच",
        "व"
      ],
      [
        "-",
        "-"
      ],
      [
        "ब",
        "दल"
      ],
      [
        "स",
        "बद"
      ],
      [
        "दस",
        "त"
      ],
      [
        "वठ",
        "र"
      ],
      [
        "ए",
        "म"
      ],
      [
        "र",
        "ख"
      ],
      [
        "वस",
        "त"
      ],
      [
        "न",
        "द"
      ],
      [
        "ट",
        "य"
      ],
      [
        "व",
        "वसथ"
      ],
      [
        "तर",
        "क"
      ],
      [
        "वधन",
        "सभ"
      ],
      [
        "इ",
        "तल"
      ],
      [
        "नय",
        "क"
      ],
      [
        "वठ",
        "रत"
      ],
      [
        "आ",
        "तक"
      ],
      [
        "ज",
        "मन"
      ],
      [
        "र",
        "मन"
      ],
      [
        "1",
        "9"
      ],
      [
        "त",
        "म"
      ],
      [
        "लय",
        "र"
      ],
      [
        "आस",
        "पव"
      ],
      [
        "तक",
        "च"
      ],
      [
        "लक",
        "न"
      ],
      [
        "नम",
        "तन"
      ],
      [
        "उदर",
        "गत"
      ],
      [
        "ए",
        "स"
      ],
      [
        "उ",
        "ज"
      ],
      [
        "भ",
        "न"
      ],
      [
        "मह",
        "यन"
      ],
      [
        "त",
        "श"
      ],
      [
        "दर",
        "क"
      ],
      [
        "च",
        "न"
      ],
      [
        "श",
        "ह"
      ],
      [
        "वर",
        "ण"
      ],
      [
        "आ",
        "ग"
      ],
      [
        "आ",
        "कश"
      ],
      [
        "द",
        "वच"
      ],
      [
        "आयज",
        "त"
      ],
      [
        "ज",
        "वक"
      ],
      [
        "र",
        "ग"
      ],
      [
        "र",
        "म"
      ],
      [
        "स",
        "टर"
      ],
      [
        "सव",
        "सरक"
      ],
      [
        "न",
        "वय"
      ],
      [
        "ल",
        "न"
      ],
      [
        "मर",
        "त"
      ],
      [
        "पक",
        "सतन"
      ],
      [
        "सर",
        "तत"
      ],
      [
        "ज",
        "प"
      ],
      [
        "स",
        "बर"
      ],
      [
        "सग",
        "ळय"
      ],
      [
        "उकतय",
        "ल"
      ],
      [
        "न",
        "थ"
      ],
      [
        "उमद",
        "वर"
      ],
      [
        "प",
        "ठ"
      ],
      [
        "मह",
        "जय"
      ],
      [
        "पण",
        "न"
      ],
      [
        "ङक",
        "लय"
      ],
      [
        "ब",
        "यत"
      ],
      [
        "स",
        "कल"
      ],
      [
        "पर",
        "भ"
      ],
      [
        "म",
        "गर"
      ],
      [
        "वच",
        "च"
      ],
      [
        "वट",
        "कर"
      ],
      [
        "सब",
        "ध"
      ],
      [
        "उ",
        "तर"
      ],
      [
        "मन",
        "त"
      ],
      [
        "कगर",
        "स"
      ],
      [
        "ग",
        "जल"
      ],
      [
        "ब",
        "न"
      ],
      [
        "य",
        "द"
      ],
      [
        "व",
        "वहर"
      ],
      [
        "मन",
        "य"
      ],
      [
        "मत",
        "दन"
      ],
      [
        "क",
        "यन"
      ],
      [
        "ल",
        "लयन"
      ],
      [
        "भर",
        "तन"
      ],
      [
        "अरथ",
        "क"
      ],
      [
        "अ",
        "न"
      ],
      [
        "ख",
        "ब"
      ],
      [
        "आन",
        "क"
      ],
      [
        "तत",
        "त"
      ],
      [
        "परस",
        "कर"
      ],
      [
        "आतक",
        "वद"
      ],
      [
        "ब",
        "ट"
      ],
      [
        "फ",
        "र"
      ],
      [
        "ल",
        "ड"
      ],
      [
        "ल",
        "व"
      ],
      [
        "तर",
        "च"
      ],
      [
        "दश",
        "त"
      ],
      [
        "त",
        "स"
      ],
      [
        "फ",
        "ल"
      ],
      [
        "उलय",
        "तन"
      ],
      [
        "उल",
        "वप"
      ],
      [
        "सगर",
        "ह"
      ],
      [
        "ल",
        "कष"
      ],
      [
        "नर",
        "णय"
      ],
      [
        "करयवळ",
        "त"
      ],
      [
        "उद",
        "दग"
      ],
      [
        "नश",
        "लल"
      ],
      [
        "क",
        "वद"
      ],
      [
        "आकश",
        "वण"
      ],
      [
        "ग",
        "यच"
      ],
      [
        "च",
        "तर"
      ],
      [
        "स",
        "श"
      ],
      [
        "ह",
        "न"
      ],
      [
        "यत",
        "त"
      ],
      [
        "यर",
        "दर"
      ],
      [
        "आ",
        "ठ"
      ],
      [
        "आ",
        "दल"
      ],
      [
        "द",
        "वपच"
      ],
      [
        "स",
        "ध"
      ],
      [
        "तर",
        "त"
      ],
      [
        "पर",
        "सन"
      ],
      [
        "लक",
        "च"
      ],
      [
        "पकष",
        "च"
      ],
      [
        "वध",
        "यक"
      ],
      [
        "स",
        "सद"
      ],
      [
        "आस",
        "ल"
      ],
      [
        "मतर",
        "लयन"
      ],
      [
        "दस",
        "च"
      ],
      [
        "वक",
        "स"
      ],
      [
        "आ",
        "वहन"
      ],
      [
        "उ",
        "ड"
      ],
      [
        "ग",
        "ध"
      ],
      [
        "उद",
        "क"
      ],
      [
        "क",
        "सल"
      ],
      [
        "पर",
        "ब"
      ],
      [
        "मर",
        "ण"
      ],
      [
        "वदय",
        "थर"
      ],
      [
        "रमन",
        "थ"
      ],
      [
        "क",
        "तल"
      ],
      [
        "स",
        "ण"
      ],
      [
        "ल",
        "र"
      ],
      [
        "पर",
        "तन"
      ],
      [
        "सग",
        "लय"
      ],
      [
        "उ",
        "ण"
      ],
      [
        "ग",
        "ट"
      ],
      [
        "कय",
        "द"
      ],
      [
        "दश",
        "च"
      ],
      [
        "क",
        "लयत"
      ],
      [
        "श",
        "नय"
      ],
      [
        "स",
        "ळ"
      ],
      [
        "तय",
        "च"
      ],
      [
        "रज",
        "यत"
      ],
      [
        "ख",
        "ण"
      ],
      [
        "ग",
        "ळ"
      ],
      [
        "थ",
        "ळ"
      ],
      [
        "द",
        "वन"
      ],
      [
        "प",
        "ज"
      ],
      [
        "प",
        "श"
      ],
      [
        "सग",
        "त"
      ],
      [
        "श",
        "कर"
      ],
      [
        "कळ",
        "त"
      ],
      [
        "द",
        "च"
      ],
      [
        "भ",
        "शक"
      ],
      [
        "परधन",
        "तर"
      ],
      [
        "क",
        "मर"
      ],
      [
        "द",
        "कषण"
      ],
      [
        "व",
        "णक"
      ],
      [
        "दस",
        "न"
      ],
      [
        "घर",
        "त"
      ],
      [
        "ज",
        "लयत"
      ],
      [
        "र",
        "ड"
      ],
      [
        "नय",
        "ळ"
      ],
      [
        "सथ",
        "त"
      ],
      [
        "उ",
        "ब"
      ],
      [
        "च",
        "दर"
      ],
      [
        "ह",
        "तन"
      ],
      [
        "वर",
        "ध"
      ],
      [
        "स",
        "मन"
      ],
      [
        "अ",
        "ण"
      ],
      [
        "ए",
        "न"
      ],
      [
        "फ",
        "य"
      ],
      [
        "म",
        "ख"
      ],
      [
        "सर",
        "वत"
      ],
      [
        "गय",
        "चय"
      ],
      [
        "भज",
        "प"
      ],
      [
        "ग",
        "म"
      ],
      [
        "न",
        "मन"
      ],
      [
        "सव",
        "द"
      ],
      [
        "ङ",
        "कल"
      ],
      [
        "ब",
        "गल"
      ],
      [
        "भर",
        "तत"
      ],
      [
        "नय",
        "ड"
      ],
      [
        "कतय",
        "क"
      ],
      [
        "रल",
        "व"
      ],
      [
        "पर",
        "सर"
      ],
      [
        "पर",
        "मद"
      ],
      [
        "सव",
        "च"
      ],
      [
        "एक",
        "ठय"
      ],
      [
        "महण",
        "ल"
      ],
      [
        "वज",
        "ञन"
      ],
      [
        "आ",
        "तर"
      ],
      [
        "क",
        "वड"
      ],
      [
        "आय",
        "लल"
      ],
      [
        "ङकट",
        "लय"
      ],
      [
        "घल",
        "न"
      ],
      [
        "ब",
        "त"
      ],
      [
        "भ",
        "स"
      ],
      [
        "श",
        "तक"
      ],
      [
        "पर",
        "चर"
      ],
      [
        "मळ",
        "ळ"
      ],
      [
        "ड",
        "न"
      ],
      [
        "भ",
        "शन"
      ],
      [
        "य",
        "ण"
      ],
      [
        "वट",
        "न"
      ],
      [
        "आम",
        "दर"
      ],
      [
        "ङकट",
        "भयर"
      ],
      [
        "स",
        "सक"
      ],
      [
        "स",
        "धय"
      ],
      [
        "पर",
        "ष"
      ],
      [
        "रजय",
        "पल"
      ],
      [
        "वठ",
        "रन"
      ],
      [
        "क",
        "मक"
      ],
      [
        "ळ",
        "त"
      ],
      [
        "सर",
        "वचच"
      ],
      [
        "कय",
        "च"
      ],
      [
        "मळ",
        "र"
      ],
      [
        "नयय",
        "लयन"
      ],
      [
        "अ",
        "रज"
      ],
      [
        "च",
        "लक"
      ],
      [
        "ज",
        "वपच"
      ],
      [
        "र",
        "वल"
      ],
      [
        "वर",
        "चर"
      ],
      [
        "द",
        "वळ"
      ],
      [
        "पर",
        "क"
      ],
      [
        "आय",
        "ग"
      ],
      [
        "धर",
        "ण"
      ],
      [
        "पवड",
        "यर"
      ],
      [
        "अ",
        "भ"
      ],
      [
        "अ",
        "मत"
      ],
      [
        "उ",
        "पर"
      ],
      [
        "स",
        "लल"
      ],
      [
        "स",
        "पत"
      ],
      [
        "पर",
        "र"
      ],
      [
        "मह",
        "ल"
      ],
      [
        "सच",
        "लक"
      ],
      [
        "महत",
        "वच"
      ],
      [
        "ख",
        "न"
      ],
      [
        "ड",
        "च"
      ],
      [
        "म",
        "स"
      ],
      [
        "म",
        "गण"
      ],
      [
        "व",
        "तन"
      ],
      [
        "लय",
        "ल"
      ],
      [
        "तन",
        "य"
      ],
      [
        "वग",
        "ळ"
      ],
      [
        "मज",
        "त"
      ],
      [
        "आ",
        "धर"
      ],
      [
        "इ",
        "ड"
      ],
      [
        "ज",
        "च"
      ],
      [
        "ष",
        "ण"
      ],
      [
        "स",
        "यत"
      ],
      [
        "दस",
        "ल"
      ],
      [
        "जम",
        "म"
      ],
      [
        "आ",
        "व"
      ],
      [
        "ज",
        "क"
      ],
      [
        "द",
        "यत"
      ],
      [
        "प",
        "प"
      ],
      [
        "प",
        "दर"
      ],
      [
        "चय",
        "न"
      ],
      [
        "सव",
        "ध"
      ],
      [
        "सव",
        "य"
      ],
      [
        "कत",
        "लय"
      ],
      [
        "दश",
        "न"
      ],
      [
        "कश",
        "मर"
      ],
      [
        "द",
        "ड"
      ],
      [
        "द",
        "द"
      ],
      [
        "ब",
        "च"
      ],
      [
        "व",
        "तल"
      ],
      [
        "तर",
        "न"
      ],
      [
        "कथ",
        "सगरह"
      ],
      [
        "आ",
        "कड"
      ],
      [
        "ज",
        "यन"
      ],
      [
        "ज",
        "हर"
      ],
      [
        "म",
        "ठ"
      ],
      [
        "र",
        "स"
      ],
      [
        "कर",
        "तन"
      ],
      [
        "कष",
        "क"
      ],
      [
        "कड",
        "ल"
      ],
      [
        "कड",
        "लयन"
      ],
      [
        "ङक",
        "वट"
      ],
      [
        "करयवळ",
        "च"
      ],
      [
        "मतदर",
        "सघ"
      ],
      [
        "आ",
        "वय"
      ],
      [
        "द",
        "दल"
      ],
      [
        "सव",
        "सर"
      ],
      [
        "वय",
        "ल"
      ],
      [
        "भरत",
        "चय"
      ],
      [
        "उज",
        "वड"
      ],
      [
        "अ",
        "भय"
      ],
      [
        "दस",
        "य"
      ],
      [
        "पल",
        "व"
      ],
      [
        "ग",
        "वत"
      ],
      [
        "म",
        "टर"
      ],
      [
        "श",
        "कत"
      ],
      [
        "आ",
        "वज"
      ],
      [
        "क",
        "प"
      ],
      [
        "घ",
        "तलय"
      ],
      [
        "ळ",
        "र"
      ],
      [
        "स",
        "कय"
      ],
      [
        "कन",
        "न"
      ],
      [
        "पय",
        "लय"
      ],
      [
        "पतर",
        "कर"
      ],
      [
        "इ",
        "त"
      ],
      [
        "ख",
        "प"
      ],
      [
        "ण",
        "व"
      ],
      [
        "ल",
        "म"
      ],
      [
        "वय",
        "र"
      ],
      [
        "परश",
        "दत"
      ],
      [
        "दसर",
        "य"
      ],
      [
        "आ",
        "दश"
      ],
      [
        "ख",
        "सदर"
      ],
      [
        "ड",
        "स"
      ],
      [
        "प",
        "सन"
      ],
      [
        "म",
        "जर"
      ],
      [
        "वश",
        "न"
      ],
      [
        "वश",
        "य"
      ],
      [
        "सब",
        "ळ"
      ],
      [
        "पस",
        "तक"
      ],
      [
        "उर",
        "ब"
      ],
      [
        "थ",
        "न"
      ],
      [
        "ल",
        "च"
      ],
      [
        "मन",
        "स"
      ],
      [
        "बर",
        "च"
      ],
      [
        "करम",
        "चर"
      ],
      [
        "उ",
        "न"
      ],
      [
        "ज",
        "टल"
      ],
      [
        "पर",
        "तय"
      ],
      [
        "मर",
        "ल"
      ],
      [
        "सच",
        "वण"
      ],
      [
        "पयल",
        "च"
      ],
      [
        "सघ",
        "टन"
      ],
      [
        "भज",
        "पच"
      ],
      [
        "हस",
        "तक"
      ],
      [
        "घ",
        "वप"
      ],
      [
        "द",
        "वक"
      ],
      [
        "न",
        "सत"
      ],
      [
        "कर",
        "तत"
      ],
      [
        "पर",
        "कष"
      ],
      [
        "वच",
        "लल"
      ],
      [
        "भ",
        "वड"
      ],
      [
        "भ",
        "सभ"
      ],
      [
        "य",
        "वन"
      ],
      [
        "मह",
        "रषटर"
      ],
      [
        "धर",
        "न"
      ],
      [
        "आर",
        "प"
      ],
      [
        "हग",
        "सर"
      ],
      [
        "उ",
        "लल"
      ],
      [
        "भ",
        "श"
      ],
      [
        "पर",
        "सद"
      ],
      [
        "मडळ",
        "न"
      ],
      [
        "आतर",
        "रषटरय"
      ],
      [
        "अ",
        "द"
      ],
      [
        "अ",
        "प"
      ],
      [
        "ग",
        "लल"
      ],
      [
        "त",
        "सर"
      ],
      [
        "र",
        "खड"
      ],
      [
        "पर",
        "वश"
      ],
      [
        "सर",
        "कषण"
      ],
      [
        "दश",
        "चय"
      ],
      [
        "घड",
        "वन"
      ],
      [
        "ए",
        "ल"
      ],
      [
        "म",
        "लल"
      ],
      [
        "र",
        "क"
      ],
      [
        "र",
        "प"
      ],
      [
        "आय",
        "गन"
      ],
      [
        "मतर",
        "लय"
      ],
      [
        "कय",
        "य"
      ],
      [
        "दश",
        "तलय"
      ],
      [
        "नर",
        "मण"
      ],
      [
        "दन",
        "पर"
      ],
      [
        "रज",
        "क"
      ],
      [
        "दख",
        "न"
      ],
      [
        "तरण",
        "ट"
      ],
      [
        "ज",
        "ञ"
      ],
      [
        "त",
        "चर"
      ],
      [
        "द",
        "तन"
      ],
      [
        "र",
        "पय"
      ],
      [
        "वय",
        "वसथ"
      ],
      [
        "अ",
        "ल"
      ],
      [
        "ट",
        "ट"
      ],
      [
        "द",
        "खल"
      ],
      [
        "व",
        "लय"
      ],
      [
        "व",
        "जय"
      ],
      [
        "ह",
        "चर"
      ],
      [
        "कष",
        "य"
      ],
      [
        "पण",
        "ज"
      ],
      [
        "रषटर",
        "धयकष"
      ],
      [
        "इ",
        "न"
      ],
      [
        "ब",
        "हर"
      ],
      [
        "र",
        "श"
      ],
      [
        "स",
        "तत"
      ],
      [
        "मह",
        "न"
      ],
      [
        "सद",
        "च"
      ],
      [
        "खतय",
        "च"
      ],
      [
        "घ",
        "वच"
      ],
      [
        "न",
        "कल"
      ],
      [
        "प",
        "दन"
      ],
      [
        "मह",
        "म"
      ],
      [
        "पत",
        "ळ"
      ],
      [
        "समज",
        "क"
      ],
      [
        "परकल",
        "प"
      ],
      [
        "च",
        "ळ"
      ],
      [
        "म",
        "बय"
      ],
      [
        "पर",
        "वण"
      ],
      [
        "ङक",
        "व"
      ],
      [
        "वज",
        "क"
      ],
      [
        "सप",
        "शट"
      ],
      [
        "खतय",
        "न"
      ],
      [
        "भसभ",
        "स"
      ],
      [
        "आ",
        "मच"
      ],
      [
        "उ",
        "ठ"
      ],
      [
        "ध",
        "क"
      ],
      [
        "ब",
        "सल"
      ],
      [
        "म",
        "खय"
      ],
      [
        "र",
        "च"
      ],
      [
        "व",
        "लयन"
      ],
      [
        "स",
        "वर"
      ],
      [
        "स",
        "पन"
      ],
      [
        "तय",
        "न"
      ],
      [
        "रज",
        "नथ"
      ],
      [
        "सबध",
        "त"
      ],
      [
        "उ",
        "पय"
      ],
      [
        "व",
        "भग"
      ],
      [
        "ह",
        "सक"
      ],
      [
        "पर",
        "ध"
      ],
      [
        "पर",
        "सत"
      ],
      [
        "पर",
        "करण"
      ],
      [
        "उत",
        "पदन"
      ],
      [
        "ए",
        "ङक"
      ],
      [
        "घ",
        "त"
      ],
      [
        "त",
        "तल"
      ],
      [
        "थ",
        "ड"
      ],
      [
        "द",
        "ज"
      ],
      [
        "द",
        "तत"
      ],
      [
        "न",
        "वन"
      ],
      [
        "य",
        "लल"
      ],
      [
        "स",
        "मक"
      ],
      [
        "वळ",
        "ख"
      ],
      [
        "सरकर",
        "चय"
      ],
      [
        "कसल",
        "च"
      ],
      [
        "च",
        "क"
      ],
      [
        "य",
        "तर"
      ],
      [
        "ह",
        "द"
      ],
      [
        "उप",
        "कर"
      ],
      [
        "परमण",
        "त"
      ],
      [
        "चच",
        "ण"
      ],
      [
        "नदर",
        "न"
      ],
      [
        "अमर",
        "क"
      ],
      [
        "उ",
        "ट"
      ],
      [
        "ध",
        "श"
      ],
      [
        "व",
        "तत"
      ],
      [
        "सरकर",
        "च"
      ],
      [
        "शत",
        "कर"
      ],
      [
        "ज",
        "तर"
      ],
      [
        "ज",
        "तलय"
[...]
