{
  "version": "1.0",
  "truncation": null,
  "padding": null,
  "added_tokens": [
    {
      "id": 0,
      "content": "<s>",
      "single_word": false,
      "lstrip": false,
      "rstrip": false,
      "normalized": false,
      "special": true
    },
    {
      "id": 1,
      "content": "<pad>",
      "single_word": false,
      "lstrip": false,
      "rstrip": false,
      "normalized": false,
      "special": true
    },
    {
      "id": 2,
      "content": "</s>",
      "single_word": false,
      "lstrip": false,
      "rstrip": false,
      "normalized": false,
      "special": true
    },
    {
      "id": 3,
      "content": "<unk>",
      "single_word": false,
      "lstrip": false,
      "rstrip": false,
      "normalized": false,
      "special": true
    },
    {
      "id": 4,
      "content": "<mask>",
      "single_word": false,
      "lstrip": false,
      "rstrip": false,
      "normalized": false,
      "special": true
    }
  ],
  "normalizer": {
    "type": "Sequence",
    "normalizers": [
      {
        "type": "NFKC"
      }
    ]
  },
  "pre_tokenizer": {
    "type": "Whitespace"
  },
  "post_processor": null,
  "decoder": null,
  "model": {
    "type": "Unigram",
    "unk_id": null,
    "vocab": [
      [
        "<s>",
        0.0
      ],
      [
        "<pad>",
        0.0
      ],
      [
        "</s>",
        0.0
      ],
      [
        "<unk>",
        0.0
      ],
      [
        "<mask>",
        0.0
      ],
      [
        "ी",
        -3.6596653798197476
      ],
      [
        "न",
        -3.8475781805683233
      ],
      [
        "क",
        -3.883602308900988
      ],
      [
        ".",
        -3.9739350646251044
      ],
      [
        "त",
        -4.007469505553306
      ],
      [
        "ं",
        -4.158742860686733
      ],
      [
        "आनी",
        -4.199500517014348
      ],
      [
        "ा",
        -4.362954563103184
      ],
      [
        "ो",
        -4.540687112915755
      ],
      [
        "र",
        -4.549736457243409
      ],
      [
        "य",
        -4.571322611162177
      ],
      [
        "े",
        -4.92673216153451
      ],
      [
        "च",
        -4.9329781358144915
      ],
      [
        "च्या",
        -4.937029367577824
      ],
      [
        "स",
        -5.124082741352748
      ],
      [
        "ह्या",
        -5.143422532577115
      ],
      [
        ",",
        -5.169364407590729
      ],
      [
        "चे",
        -5.249752535803092
      ],
      [
        "ना",
        -5.32030533546781
      ],
      [
        "अशें",
        -5.3869409813257025
      ],
      [
        "ची",
        -5.393783685351611
      ],
      [
        "आसा",
        -5.399017682118826
      ],
      [
        "चो",
        -5.417233864796968
      ],
      [
        "ल",
        -5.41754985097422
      ],
      [
        "म",
        -5.437393507700276
      ],
      [
        "हे",
        -5.450966019164837
      ],
      [
        "ते",
        -5.552008903515756
      ],
      [
        "हांणी",
        -5.601241007700072
      ],
      [
        "खातीर",
        -5.612252613362809
      ],
      [
        "्या",
        -5.712022728740796
      ],
      [
        "व",
        -5.725578292013274
      ],
      [
        "एक",
        -5.93706858242728
      ],
      [
        "ही",
        -5.9670851220175845
      ],
      [
        "'",
        -5.990384825680681
      ],
      [
        "ज",
        -6.036130109847217
      ],
      [
        "आयज",
        -6.065579889870758
      ],
      [
        "ंत",
        -6.0716664584864635
      ],
      [
        "प",
        -6.07583412301161
      ],
      [
        "द",
        -6.080948505479555
      ],
      [
        "ले",
        -6.1426187483334
      ],
      [
        "?",
        -6.161892231648916
      ],
      [
        "लो",
        -6.171612796199868
      ],
      [
        "\"",
        -6.178609036857085
      ],
      [
        "हो",
        -6.179115755467211
      ],
      [
        "ांत",
        -6.2021558943485235
      ],
      [
        "ण",
        -6.205132118373225
      ],
      [
        "या",
        -6.247861168253174
      ],
      [
        "ट",
        -6.29630910093346
      ],
      [
        "मंत्री",
        -6.303337914692222
      ],
      [
        "नी",
        -6.30634054386223
      ],
      [
        "तांणी",
        -6.311938054982967
      ],
      [
        "अ",
        -6.321233793531334
      ],
      [
        "ान",
        -6.32242606914222
      ],
      [
        "ह",
        -6.325179285997016
      ],
      [
        "ली",
        -6.334687935101199
      ],
      [
        "ां",
        -6.341606291565316
      ],
      [
        "ती",
        -6.350360732626735
      ],
      [
        "हाणी",
        -6.3694787833730695
      ],
      [
        "ि",
        -6.374181190597604
      ],
      [
        "काल",
        -6.377060524968406
      ],
      [
        "भ",
        -6.388259304639356
      ],
      [
        "ग",
        -6.391277751303603
      ],
      [
        "ीत",
        -6.402425354650251
      ],
      [
        "चेर",
        -6.41061559715344
      ],
      [
        "तो",
        -6.4221235363166675
      ],
      [
        "प्रधानमंत्र",
        -6.429801168252521
      ],
      [
        "ून",
        -6.433758414934494
      ],
      [
        "ाक",
        -6.473907952357645
      ],
      [
        "सांगलें",
        -6.476804114097648
      ],
      [
        "के",
        -6.489634751312741
      ],
      [
        "दोन",
        -6.490019113568612
      ],
      [
        "श",
        -6.49905724749299
      ],
      [
        "-",
        -6.508266060592063
      ],
      [
        "ड",
        -6.514929469939213
      ],
      [
        "कडेन",
        -6.520254867983218
      ],
      [
        "ता",
        -6.532081620796526
      ],
      [
        "आ",
        -6.536766297877912
      ],
      [
        "ब",
        -6.563191000879709
      ],
      [
        "अशे",
        -6.586192235572236
      ],
      [
        "मोदी",
        -6.609264661063611
      ],
      [
        "कार",
        -6.614080036877264
      ],
      [
        "पुण",
        -6.646119433203376
      ],
      [
        "ताका",
        -6.66064319629048
      ],
      [
        "!",
        -6.663289281672319
      ],
      [
        "केल्या",
        -6.676629087466076
      ],
      [
        "ल्या",
        -6.67827634561064
      ],
      [
        "वेळार",
        -6.689208824430166
      ],
      [
        "ाच्या",
        -6.689669893649582
      ],
      [
        "ध",
        -6.696980381485223
      ],
      [
        "ाचे",
        -6.697010136240931
      ],
      [
        "वा",
        -6.702016080972001
      ],
      [
        "त्या",
        -6.726258825957938
      ],
      [
        "उपरांत",
        -6.7362761321131925
      ],
      [
        "ाची",
        -6.747462760467988
      ],
      [
        "जाल्यार",
        -6.749950502530802
      ],
      [
        "भारत",
        -6.7652598860754445
      ],
      [
        "ला",
        -6.774454102804399
      ],
      [
        "ें",
        -6.7958966259702045
      ],
      [
        "म्हायती",
        -6.796968452123174
      ],
      [
        "सरकार",
        -6.821236266046222
      ],
      [
        "भारतीय",
        -6.834762534414218
      ],
      [
        "चें",
        -6.837229453234096
      ],
      [
        "ीक",
        -6.85438478214323
      ],
      [
        "ूय",
        -6.857910375194361
      ],
      [
        "ाचो",
        -6.8581660642554985
      ],
      [
        "नरेंद्र",
        -6.861616780839153
      ],
      [
        "ांनी",
        -6.862539752158666
      ],
      [
        "केला",
        -6.863008336912909
      ],
      [
        "करून",
        -6.870666645772384
      ],
      [
        "जाता",
        -6.896064409239111
      ],
      [
        "मा",
        -6.898306770970588
      ],
      [
        "ळ",
        -6.89903973296704
      ],
      [
        "कोंकणी",
        -6.899810196162139
      ],
      [
        "म्हाका",
        -6.9010370231645
      ],
      [
        "जाय",
        -6.91339424910945
      ],
      [
        "ीय",
        -6.922714488274657
      ],
      [
        "ङ्क",
        -6.9310528497559645
      ],
      [
        "फ",
        -6.942823310948353
      ],
      [
        "तें",
        -6.952136546253154
      ],
      [
        "म्हळे",
        -6.953282749358334
      ],
      [
        "लागून",
        -6.954404080519971
      ],
      [
        "हेर",
        -6.973576107649339
      ],
      [
        "जाली",
        -6.9742916377641695
      ],
      [
        "ख",
        -6.976586142962006
      ],
      [
        "सुरू",
        -6.978108350736355
      ],
      [
        "ताणी",
        -6.990744834232081
      ],
      [
        "अशी",
        -6.991635870646057
      ],
      [
        "शेंच",
        -6.993492542342294
      ],
      [
        "आपल्या",
        -6.999927796136264
      ],
      [
        "ंक",
        -6.999976152475587
      ],
      [
        "ांक",
        -7.003524771388524
      ],
      [
        "काय",
        -7.008924018059992
      ],
      [
        "रे",
        -7.013991409447628
      ],
      [
        "रा",
        -7.016540785538467
      ],
      [
        "करतले",
        -7.017348077202054
      ],
      [
        "हांचे",
        -7.0197699923990795
      ],
      [
        "आड",
        -7.021061065628322
      ],
      [
        "तीन",
        -7.025963778455058
      ],
      [
        "...",
        -7.0370921330357685
      ],
      [
        "म्हळा",
        -7.0375555139488455
      ],
      [
        "ात",
        -7.046467606766854
      ],
      [
        "ार",
        -7.04661453694866
      ],
      [
        "को",
        -7.053301469894132
      ],
      [
        "दिली",
        -7.056312378451873
      ],
      [
        "कार्यावळी",
        -7.058517565828777
      ],
      [
        "भर",
        -7.06777884964042
      ],
      [
        "नि",
        -7.071544800327642
      ],
      [
        "हांव",
        -7.071749675399154
      ],
      [
        "िक",
        -7.073575804403575
      ],
      [
        "राष्ट्र",
        -7.0747333226970035
      ],
      [
        "कांय",
        -7.074856197728663
      ],
      [
        ")",
        -7.076112570328934
      ],
      [
        "म्हणून",
        -7.0783719837757175
      ],
      [
        "(",
        -7.0790711502105905
      ],
      [
        "ताणे",
        -7.088214622407409
      ],
      [
        "उ",
        -7.090610921713868
      ],
      [
        "लें",
        -7.091756245329712
      ],
      [
        "जातली",
        -7.096112103462168
      ],
      [
        "ाचेर",
        -7.096703296370228
      ],
      [
        "गोंय",
        -7.097804221885836
      ],
      [
        "घेव",
        -7.099163028260075
      ],
      [
        "मुखार",
        -7.100668858814393
      ],
      [
        "करता",
        -7.1101626266767735
      ],
      [
        "ित",
        -7.11490480740772
      ],
      [
        "दिसा",
        -7.119351570773663
      ],
      [
        "चार",
        -7.1236517162362
      ],
      [
        "नवी",
        -7.124857101432382
      ],
      [
        "पी",
        -7.129859145511078
      ],
      [
        "पा",
        -7.138145163825761
      ],
      [
        "वर्सा",
        -7.139629871727299
      ],
      [
        "जाल्या",
        -7.152083816327046
      ],
      [
        "हांच्या",
        -7.165170799747232
      ],
      [
        "श्री",
        -7.16580486417931
      ],
      [
        "असो",
        -7.180028386124952
      ],
      [
        "केंद्रीय",
        -7.183019961422703
      ],
      [
        "केली",
        -7.194806382350534
      ],
      [
        "दिल्या",
        -7.197169314304336
      ],
      [
        "भारता",
        -7.2009751270130185
      ],
      [
        "सा",
        -7.201085004321019
      ],
      [
        "एका",
        -7.201981374674967
      ],
      [
        "ु",
        -7.209272431268704
      ],
      [
        "अध्यक्ष",
        -7.214104719371983
      ],
      [
        "डॉ",
        -7.2263671566847885
      ],
      [
        "आशिल्ले",
        -7.23279092157829
      ],
      [
        "्यो",
        -7.2446141419002315
      ],
      [
        "सु",
        -7.255045052540204
      ],
      [
        "सरकारान",
        -7.261038566424104
      ],
      [
        "येता",
        -7.261861435478636
      ],
      [
        "काम",
        -7.264458050280004
      ],
      [
        "स्",
        -7.267534460188377
      ],
      [
        "प्र",
        -7.269585255953873
      ],
      [
        "री",
        -7.273661284663636
      ],
      [
        "ए",
        -7.274645898825365
      ],
      [
        "ऩ",
        -7.275862020677304
      ],
      [
        "सर",
        -7.279060843715885
      ],
      [
        "का",
        -7.284330272336101
      ],
      [
        "च्यो",
        -7.289346697337756
      ],
      [
        "करपाक",
        -7.29434957446924
      ],
      [
        "चड",
        -7.305562558985239
      ],
      [
        "प्रमाण",
        -7.3084794802238235
      ],
      [
        "वि",
        -7.310316172595248
      ],
      [
        "कितें",
        -7.316623116893233
      ],
      [
        "र्",
        -7.323371100322029
      ],
      [
        "ंनी",
        -7.323419780037073
      ],
      [
        "मेरेन",
        -7.326753142645544
      ],
      [
        "इ",
        -7.330926646077228
      ],
      [
        "जाल्ल्या",
        -7.333271132235481
      ],
      [
        "जा",
        -7.333310554683008
      ],
      [
        "शी",
        -7.344960673311323
      ],
      [
        "तांचे",
        -7.349856647993492
      ],
      [
        "राज्य",
        -7.359621015707776
      ],
      [
        "विशीं",
        -7.3599570789641975
      ],
      [
        "सांगले",
        -7.36277462955088
      ],
      [
        "भायर",
        -7.362887675549902
      ],
      [
        "राज",
        -7.364566708834355
      ],
      [
        "थ",
        -7.365363853982233
      ],
      [
        "केंद्र",
        -7.367553080333561
      ],
      [
        "कर",
        -7.372531107183479
      ],
      [
        "जालो",
        -7.382604472579987
      ],
      [
        "भेट",
        -7.383063914399421
      ],
      [
        "मान",
        -7.390381766026609
      ],
      [
        "आय",
        -7.3917857244463905
      ],
      [
        "खेळ",
        -7.409028984758478
      ],
      [
        "ेगीत",
        -7.412635052533509
      ],
      [
        "दीस",
        -7.413006735648017
      ],
      [
        "आतां",
        -7.417218041229967
      ],
      [
        "करप",
        -7.431057499793779
      ],
      [
        "जातले",
        -7.443957227339687
      ],
      [
        "भलायकी",
        -7.44405897731945
      ],
      [
        "जालें",
        -7.445726756495062
      ],
      [
        "बा",
        -7.446546713617012
      ],
      [
        "घर",
        -7.4503535871891975
      ],
      [
        "करपा",
        -7.459043163029458
      ],
      [
        "उलयताले",
        -7.470117914181201
      ],
      [
        "केलें",
        -7.472637263329148
      ],
      [
        "कथा",
        -7.4760629950094595
      ],
      [
        "णी",
        -7.4794829989911396
      ],
      [
        "लोक",
        -7.479669954931914
      ],
      [
        "पुराय",
        -7.491545452708513
      ],
      [
        "शे",
        -7.494984884561726
      ],
      [
        "ू",
        -7.49876806763623
      ],
      [
        "राष्ट्रपती",
        -7.501459078767408
      ],
      [
        "तरी",
        -7.5031209983842535
      ],
      [
        "यो",
        -7.509659310748997
      ],
      [
        "मुखेलमंत्री",
        -7.51024261764779
      ],
      [
        "्",
        -7.513309561835311
      ],
      [
        "शिक्षण",
        -7.513430051429596
      ],
      [
        "बसका",
        -7.5148624396083505
      ],
      [
        "मुखेल",
        -7.515666864957372
      ],
      [
        "आज",
        -7.519769908279453
      ],
      [
        "जे",
        -7.52432537108815
      ],
      [
        "मजगती",
        -7.528074684405365
      ],
      [
        "ठ",
        -7.531250474036412
      ],
      [
        "डी",
        -7.5331700581038605
      ],
      [
        "जातलो",
        -7.533868754980508
      ],
      [
        "दिस",
        -7.54947892441924
      ],
      [
        "म्हण",
        -7.552560469424719
      ],
      [
        "खाल",
        -7.563560308197477
      ],
      [
        "ांचे",
        -7.567287103445191
      ],
      [
        "तले",
        -7.571327864681573
      ],
      [
        "केले",
        -7.5759282204495495
      ],
      [
        "सावन",
        -7.581640976216128
      ],
      [
        "हात",
        -7.588667184896663
      ],
      [
        "तयार",
        -7.591119697939857
      ],
      [
        "जी",
        -7.592148832017899
      ],
      [
        "अर्थ",
        -7.593122299610621
      ],
      [
        "दर",
        -7.596089142262541
      ],
      [
        "ये",
        -7.597746952420764
      ],
      [
        "चर्चा",
        -7.6003673224042485
      ],
      [
        "बी",
        -7.602619796269904
      ],
      [
        "घ",
        -7.606910339317716
      ],
      [
        "दिव",
        -7.61045618662315
      ],
      [
        "ूच",
        -7.611971810628617
      ],
      [
        "न्हय",
        -7.615156985257196
      ],
      [
        "तांच्या",
        -7.6167283746929675
      ],
      [
        "सेवा",
        -7.619297090307294
      ],
      [
        "ेलो",
        -7.620408587501962
      ],
      [
        "मंत्रालया",
        -7.623398236837447
      ],
      [
        "भाजपा",
        -7.624198146871263
      ],
      [
        "वरवीं",
        -7.626461797777842
      ],
      [
        "लाव",
        -7.6416707305293405
      ],
      [
        "वांगडा",
        -7.645652034184537
      ],
      [
        "च्मा",
        -7.6482980498010535
      ],
      [
        "विचार",
        -7.649541606274974
      ],
      [
        "धा",
        -7.654754246166971
      ],
      [
        "तर",
        -7.655382253561192
      ],
      [
        "सिंग",
        -7.660335966408228
      ],
      [
        "कु",
        -7.66053243693205
      ],
      [
        "केल्ल्या",
        -7.661506571252217
      ],
      [
        "जाला",
        -7.662320112471978
      ],
      [
        "सो",
        -7.6630477691972985
      ],
      [
        "हाजी",
        -7.670293061234285
      ],
      [
        "आशिल्ल्या",
        -7.672523937232894
      ],
      [
        "थंय",
        -7.680053493813088
      ],
      [
        "ओ",
        -7.680302030602962
      ],
      [
        "विदेश",
        -7.682711858770683
      ],
      [
        "कार्यावळ",
        -7.682950233815492
      ],
      [
        "मन",
        -7.691387105977955
      ],
      [
        "नाथ",
        -7.692182059582198
      ],
      [
        "लोकांक",
        -7.692308008265813
      ],
      [
        "जावप",
        -7.693174540509241
      ],
      [
        "हें",
        -7.6945375555911
      ],
      [
        "देशा",
        -7.69964154898316
      ],
      [
        "....",
        -7.701519138485311
      ],
      [
        "आपले",
        -7.703517763288226
      ],
      [
        "वेगवेगळ्य",
        -7.704270981390257
      ],
      [
        "दिल्ली",
        -7.706762868948454
      ],
      [
        "तशेच",
        -7.716676371330557
      ],
      [
        "हि",
        -7.724591341374749
      ],
      [
        "हांवें",
        -7.726655403270469
      ],
      [
        "गो",
        -7.7283534637298965
      ],
      [
        "हांची",
        -7.731399186813912
      ],
      [
        "हया",
        -7.73411281072367
      ],
      [
        "ांची",
        -7.737111549430784
      ],
      [
        "शा",
        -7.73766167330654
      ],
      [
        "टी",
        -7.753751068543944
      ],
      [
        "ई",
        -7.755334313096471
      ],
      [
        "मे",
        -7.7598612061077485
      ],
      [
        "मतान",
        -7.76105148067763
      ],
      [
        "पु",
        -7.763022910044052
      ],
      [
        "वरवी",
        -7.763070064994649
      ],
      [
        "हांगा",
        -7.771632972816174
      ],
      [
        "घरा",
        -7.773430578823266
      ],
      [
        "माहिती",
        -7.773702322743956
      ],
      [
        "बरोबर",
        -7.774078455397574
      ],
      [
        "म्हूण",
        -7.77967277314224
      ],
      [
        "णे",
        -7.780086104928952
      ],
      [
        "तांकां",
        -7.7824144549726055
      ],
      [
        "बायलां",
        -7.783120322744909
      ],
      [
        "जाल्ले",
        -7.783313345640763
      ],
      [
        "घेतले",
        -7.786747505092159
      ],
      [
        "देश",
        -7.80090304646365
      ],
      [
        "मार",
        -7.802044737753915
      ],
      [
        "तूं",
        -7.804393226871295
      ],
      [
        "आयोज",
        -7.810261285997004
      ],
      [
        "ल्यो",
        -7.8123065759807595
      ],
      [
        "जोड",
        -7.812510364865865
      ],
      [
        "दिला",
        -7.814318666704435
      ],
      [
        "च्च",
        -7.815082053324175
      ],
      [
        "मात",
        -7.815708932359101
      ],
      [
        "गरज",
        -7.818073753822462
      ],
      [
        "तेन्ना",
        -7.825499387495476
      ],
      [
        "--",
        -7.827873674826854
      ],
      [
        "ानी",
        -7.829058140457802
      ],
      [
        "हजार",
        -7.843516460500169
      ],
      [
        "करपाची",
        -7.844075371832687
      ],
      [
        "तांची",
        -7.8455565363582185
      ],
      [
        "पांवड्या",
        -7.847227008300593
      ],
      [
        "दिल्लींत",
        -7.84831441541348
      ],
      [
        "नायक",
        -7.852210488289937
      ],
      [
        "चल",
        -7.853829966587002
      ],
      [
        "परत",
        -7.854159139691977
      ],
      [
        "म्हज्या",
        -7.856048975646933
      ],
      [
        "वे",
        -7.86939250102584
      ],
      [
        "जारी",
        -7.872723595892597
      ],
      [
        "आयोगा",
        -7.877278546344413
      ],
      [
        "क्ष",
        -7.878561370043235
      ],
      [
        "टा",
        -7.878945421587573
      ],
      [
        "वापर",
        -7.882273390052435
      ],
      [
        "ङ्कुडार",
        -7.884769868722704
      ],
      [
        "्मा",
        -7.887816274403429
      ],
      [
        "विशी",
        -7.888369950045346
      ],
      [
        "देव",
        -7.8887190690066475
      ],
      [
        "पक्ष",
        -7.890719073731962
      ],
      [
        "उत्तर",
        -7.892361240832386
      ],
      [
        "रेल्वे",
        -7.893343263275492
      ],
      [
        "गा",
        -7.89678487747588
      ],
      [
        "सं",
        -7.899812342615385
      ],
      [
        "सुरक्षा",
        -7.903853558315415
      ],
      [
        "प्रधानमंत्र्यांन",
        -7.904767266743474
      ],
      [
        "यत्न",
        -7.906363645637774
      ],
      [
        "पुरस्कार",
        -7.906807934025846
      ],
      [
        "आशिल्लो",
        -7.90706146211542
      ],
      [
        "सांजे",
        -7.90832529288327
      ],
      [
        "खा",
        -7.911351481199809
      ],
      [
        "पाक",
        -7.9119639070287855
      ],
      [
        "ष",
        -7.913046491745129
      ],
      [
        "दिसता",
        -7.913079093637816
      ],
      [
        "घेतलो",
        -7.914026635170242
      ],
      [
        "मु",
        -7.916447889107541
      ],
      [
        "खासा",
        -7.918088332510862
      ],
      [
        "वाड",
        -7.918861943947127
      ],
      [
        "वरां",
        -7.922169394320806
      ],
      [
        "निर्णय",
        -7.923561915078346
      ],
      [
        "साहित्य",
        -7.924006182982804
      ],
      [
        "दु",
        -7.926780315757353
      ],
      [
        "कोण",
        -7.92746718042683
      ],
      [
        "जाले",
        -7.927557680528555
      ],
      [
        "झ",
        -7.928878313839839
      ],
      [
        "आसता",
        -7.928961189315777
      ],
      [
        "सावं",
        -7.932883603404588
      ],
      [
        "सकाळी",
        -7.9344598139299745
      ],
      [
        "ंग",
        -7.940058727482195
      ],
      [
        "ांच्या",
        -7.941514995487834
      ],
      [
        "सगळ्या",
        -7.947904809806791
      ],
      [
        "म्हळ्यार",
        -7.955441872267137
      ],
      [
        "मतदान",
        -7.955544025897598
      ],
      [
        "जावन",
        -7.964306970352658
      ],
      [
        "पांच",
        -7.96580163275048
      ],
      [
        "आयलो",
        -7.966700030123512
      ],
      [
        "वेळ",
        -7.976574925515204
      ],
      [
        "बंद",
        -7.976613030911232
      ],
      [
        "हांका",
        -7.9788497505133
      ],
      [
        "तांका",
        -7.979095198645228
      ],
      [
        "घड",
        -7.981278784351611
      ],
      [
        "सांग",
        -7.986357611556124
      ],
      [
        "तरे",
        -7.988447038556063
      ],
      [
        "व्हड",
        -7.991495136326257
      ],
      [
        "दा",
        -7.992684174906508
      ],
      [
        "येरादारी",
        -7.997265326674338
      ],
      [
        "संस्था",
        -7.997292251405016
      ],
      [
        "समाज",
        -7.998734689074729
      ],
      [
        "वाठारांत",
        -8.00123003441719
      ],
      [
        "बे",
        -8.002082560841224
      ],
      [
        "एम",
        -8.008323533500906
      ],
      [
        "काँग्रेस",
        -8.012060101268366
      ],
      [
        "उक्तावण",
        -8.014082512721863
      ],
      [
        "वाट",
        -8.014464166607357
      ],
      [
        "लोकां",
        -8.018551229464961
      ],
      [
        "ै",
        -8.019823941550442
      ],
      [
        "एस",
        -8.020283084360567
      ],
      [
        "खात्या",
        -8.021351930345567
      ],
      [
        "मागीर",
        -8.02173699940434
      ],
      [
        "दी",
        -8.023888579366332
      ],
      [
        "सात",
        -8.029588712252181
      ],
      [
        "ताजे",
        -8.029914997349055
      ],
      [
        "आदार",
        -8.031683029110127
      ],
      [
        "सुवात",
        -8.035618232841237
      ],
      [
        "ऱ",
        -8.03612750252261
      ],
      [
        "ति",
        -8.041418581154304
      ],
      [
        "बदल",
        -8.044426438193907
      ],
      [
        "सगल्या",
        -8.04502164760974
      ],
      [
        "लागलो",
        -8.045513195280474
      ],
      [
        "दि",
        -8.048572491060959
      ],
      [
        "ढ",
        -8.048760428956665
      ],
      [
        "पूण",
        -8.052265116728186
      ],
      [
        "राव",
        -8.052812229606687
      ],
      [
        "पि",
        -8.052974422314115
      ],
      [
        "विकास",
        -8.057355062272798
      ],
      [
        "नव्या",
        -8.057587476373822
      ],
      [
        "अधिकारी",
        -8.057634538539268
      ],
      [
        "आर",
        -8.057946398514703
      ],
      [
        "पुर",
        -8.058641273018601
      ],
      [
        "दितले",
        -8.060472335267383
      ],
      [
        "तुका",
        -8.06237894492019
      ],
      [
        "वावर",
        -8.065865970659438
      ],
      [
        "ोविंद",
        -8.066666240601153
      ],
      [
        "बो",
        -8.066997073658914
      ],
      [
        "ऩा",
        -8.067911369061292
      ],
      [
        "भा",
        -8.067931553188094
      ],
      [
        "केल्ली",
        -8.069343445027126
      ],
      [
        "विद्याथ्र्यां",
        -8.071001827947153
      ],
      [
        "वय",
        -8.071053564737074
      ],
      [
        "ळे",
        -8.072746390955167
      ],
      [
        "आशिल्ली",
        -8.07702640296629
      ],
      [
        "ङ्काटल्या",
        -8.077466255960688
      ],
      [
        "यु",
        -8.081868409193348
      ],
      [
        "आकाशवाणी",
        -8.082626727928115
      ],
      [
        "ांचो",
        -8.083453236421757
      ],
      [
        "तशें",
        -8.085652358954656
      ],
      [
        "वांगड",
        -8.090177560549439
      ],
      [
        "शि",
        -8.094992038361099
      ],
      [
        "जो",
        -8.095312544829948
      ],
      [
        "डे",
        -8.097703235284287
      ],
      [
        "भितर",
        -8.101149455536284
      ],
      [
        "ल्यान",
        -8.101569870591087
      ],
      [
        "णा",
        -8.104411278638338
      ],
      [
        "पयली",
        -8.104439519133647
      ],
      [
        "दिता",
        -8.104656504069036
      ],
      [
        "्न",
        -8.105379112205638
      ],
      [
        "ुय",
        -8.109568602192073
      ],
      [
        "उलो",
        -8.114199557798003
      ],
      [
        "उमेदवार",
        -8.114540728744824
      ],
      [
        "दिवप",
        -8.115922445433874
      ],
      [
        "वेंचणूक",
        -8.117198411290117
      ],
      [
        "वेचणूक",
        -8.125238625772164
      ],
      [
        "रामनाथ",
        -8.12699907938958
      ],
      [
        "ताज्या",
        -8.128058621528513
      ],
      [
        "बरो",
        -8.129184491156236
      ],
      [
        "बरे",
        -8.13273631779288
      ],
      [
        "पणान",
        -8.133248286904625
      ],
      [
        "ष्ट",
        -8.133793488340196
      ],
      [
        "विज्ञान",
        -8.133956123545154
      ],
      [
        "सुरु",
        -8.135051771654902
      ],
      [
        "जावपा",
        -8.136310100853827
      ],
      [
        "ल्ल्या",
        -8.136580809744189
      ],
      [
        "दोनू",
        -8.137173929076605
      ],
      [
        "प्रदेश",
        -8.140340931170034
      ],
      [
        "फा",
        -8.141402810718692
      ],
      [
        "वेव्हार",
        -8.142734550896334
      ],
      [
        "कला",
        -8.145697575497877
      ],
      [
        "ॊ",
        -8.146214768920212
      ],
      [
        "ुन",
        -8.149397144498502
      ],
      [
        "नियाळ",
        -8.151384932162383
      ],
      [
        "व्ह",
        -8.153358304857264
      ],
      [
        "मरण",
        -8.154133447965297
      ],
      [
        "आवय",
        -8.156496450029222
      ],
      [
        "आसपाव",
        -8.160845071983344
      ],
      [
        "नाका",
        -8.161485812863742
      ],
      [
        "आसतले",
        -8.166816628120628
      ],
      [
        "सुरवात",
        -8.168669697906818
      ],
      [
        "उदरगत",
        -8.168748091344582
      ],
      [
        "तल्या",
        -8.171248349197525
      ],
      [
        "बसकें",
        -8.172109953573653
      ],
      [
        "्र",
        -8.173440967653363
      ],
      [
        "येवजणे",
        -8.17464642948961
      ],
      [
        "ळा",
        -8.175020042708637
      ],
      [
        "गेलो",
        -8.179582062204489
      ],
      [
        "आमी",
        -8.179598713853748
      ],
      [
        "आठ",
        -8.184440654220493
      ],
      [
        "म्हजे",
        -8.184567750570439
      ],
      [
        "जावंक",
        -8.185422546800783
      ],
      [
        "रात",
        -8.18641089580417
      ],
      [
        "आपू",
        -8.190527731129155
      ],
      [
        "कित्याक",
        -8.19780560561405
      ],
      [
        "ह्मा",
        -8.200064165359413
      ],
      [
        "पण",
        -8.201452867713508
      ],
      [
        "मदीं",
        -8.204334591386075
      ],
      [
        ":",
        -8.204709002068974
      ],
      [
        "दिलो",
        -8.207117928882717
      ],
      [
        "ङ्काल्यां",
        -8.209975562712465
      ],
      [
        "आपली",
        -8.21292019171773
      ],
      [
        "केल्ले",
        -8.21333557249707
      ],
      [
        "सध्या",
        -8.214116151155418
      ],
      [
        "आयला",
        -8.219185254448915
      ],
      [
        "वार",
        -8.219446767222648
      ],
      [
        "आदले",
        -8.22481015518832
      ],
      [
        "वेल्या",
        -8.228148803420375
      ],
      [
        "मेळ",
        -8.231737120867002
      ],
      [
        "उलयतना",
        -8.23251420753217
      ],
      [
        "घेतली",
        -8.233016390448693
      ],
      [
        "कणी",
        -8.233559210012407
      ],
      [
        "वल",
        -8.235452946211765
      ],
      [
        "मळार",
        -8.236428398696699
      ],
      [
        "येवजण",
        -8.23729406481886
      ],
      [
        "सि",
        -8.241586199384582
      ],
      [
        "स्ट",
        -8.241734922300239
      ],
      [
        "महा",
        -8.244275054649787
      ],
      [
        "ळी",
        -8.250251911831022
      ],
      [
        "सभा",
        -8.250736940888807
      ],
      [
        "कोरोना",
        -8.251449041990453
      ],
      [
        "लागुन",
        -8.253574279466484
      ],
      [
        "राजकी",
        -8.254019029461785
      ],
      [
        "तिका",
        -8.254612684658335
      ],
      [
        "पूर",
        -8.256967583939463
      ],
      [
        "लोकांनी",
        -8.25769323974708
      ],
      [
        "खबर",
        -8.259050992572359
      ],
      [
        "भास",
        -8.259809450252135
      ],
      [
        "गांधी",
        -8.26088124661461
      ],
      [
        "बसके",
        -8.264003687997251
      ],
      [
        "नदर",
        -8.26607785972819
      ],
      [
        "ल्लो",
        -8.269419794464406
      ],
      [
        "हा",
        -8.270217147023168
      ],
      [
        "दार",
        -8.270915696407215
      ],
      [
        "कडल्या",
        -8.271201541297403
      ],
      [
        "करुन",
        -8.272088569937965
      ],
      [
        "अशा",
        -8.273640926082038
      ],
      [
        "हांकां",
        -8.273812529005607
      ],
      [
        "आता",
        -8.274778539819373
      ],
      [
        "प्रमो",
        -8.275278693026053
      ],
      [
        "रि",
        -8.276141694258165
      ],
      [
        "पे",
        -8.277969179513061
      ],
      [
        "कथासंग्रह",
        -8.280958663017877
      ],
      [
        "कुमार",
        -8.281712046795821
      ],
      [
        "वी",
        -8.282648733772092
      ],
      [
        "लां",
        -8.283438645375984
      ],
      [
        "जन",
        -8.283909441904257
      ],
      [
        "वळ",
        -8.28415700653866
      ],
      [
        "बस",
        -8.284460544698772
      ],
      [
        "राम",
        -8.285296002268389
      ],
      [
        "गांव",
        -8.286745397867895
      ],
      [
        "करूंक",
        -8.28808964947632
      ],
      [
        "उप",
        -8.288128729142883
      ],
      [
        "सयत",
        -8.288378410020256
      ],
      [
        "पक्षाचे",
        -8.288458798595354
      ],
      [
        "ूंक",
        -8.289582118992616
      ],
      [
        "ल्",
        -8.290668205672404
      ],
      [
        "राज्यपाल",
        -8.291459771096084
      ],
      [
        "मुंबय",
        -8.29190350766082
      ],
      [
        "पयले",
        -8.293909804173586
      ],
      [
        "खूब",
        -8.299247224904496
      ],
      [
        "खर",
        -8.29924773311205
      ],
      [
        "गोंयांत",
        -8.299802702252304
      ],
      [
        "सांगलां",
        -8.301598712671122
      ],
      [
        "संवसारीक",
        -8.305364908002923
      ],
      [
        "पो",
        -8.308768542065987
      ],
      [
        "ॉ",
        -8.309398108893667
      ],
      [
        "जय",
        -8.310347920192118
      ],
      [
        "सादर",
        -8.310363194240198
      ],
      [
        "“",
        -8.310576183683432
      ],
      [
        "संवाद",
        -8.310912916633667
      ],
      [
        "मो",
        -8.312379172152006
      ],
      [
        "्य",
        -8.31356879543159
      ],
      [
        "न्यायालयान",
        -8.313983948345385
      ],
      [
        "घडोव",
        -8.317129370644938
      ],
      [
        "घेवपा",
        -8.317370135135343
      ],
      [
        "भाव",
        -8.317747075584439
      ],
      [
        "जायत",
        -8.318097298095447
      ],
      [
        "पंगड",
        -8.322105909786448
      ],
      [
        "छ",
        -8.325355334679433
      ],
      [
        "िल्ल्या",
        -8.327495190151959
      ],
      [
        "करपाचे",
        -8.330630100559851
      ],
      [
        "स्त",
        -8.330985202086767
      ],
      [
        "दुसऱ्या",
        -8.33121515853416
      ],
      [
        "इतले",
        -8.332131549658733
      ],
      [
        "ताचे",
        -8.332773252859294
      ],
      [
        "करपाचो",
        -8.334695456689044
      ],
      [
        "बायल",
        -8.337352548438183
      ],
      [
        "हर",
        -8.340970068756398
      ],
      [
        "ूक",
        -8.342113330617911
      ],
      [
        "प्रसार",
        -8.34380046586771
      ],
      [
        "एकठां",
        -8.344630785486952
      ],
      [
        "वांटे",
        -8.34799651933712
      ],
      [
        "ातल्या",
        -8.352045711188193
      ],
      [
        "उलोवप",
        -8.353746071686011
      ],
      [
        "हु",
        -8.357545612193523
      ],
      [
        "दे",
        -8.357824707687584
      ],
      [
        "ांतल्यान",
        -8.360246688987306
      ],
      [
        "गु",
        -8.361050069964087
      ],
      [
        "एन",
        -8.361706200741258
      ],
      [
        "विरोध",
        -8.366975313402115
      ],
      [
        "तोंड",
        -8.367325777563137
      ],
      [
        "खंय",
        -8.369811432899727
      ],
      [
        "लोकसभ",
        -8.371425634775179
      ],
      [
        "जाल्ली",
        -8.37397263991597
      ],
      [
        "लागली",
        -8.374392765247629
      ],
      [
        "अर्ज",
        -8.374920667982863
      ],
      [
        "कार्यावळींत",
        -8.377625594861962
      ],
      [
        "पंच",
        -8.380669056703521
      ],
      [
        "णव",
        -8.384021806630122
      ],
      [
        "साबा",
        -8.38545276868204
      ],
      [
        "उद्देग",
        -8.389209375791047
      ],
      [
        "कें",
        -8.389995340112296
      ],
      [
        "जाप",
        -8.390799403129261
      ],
      [
        "तातूंत",
        -8.391135247570698
      ],
      [
        "फुडें",
        -8.396438005497185
      ],
      [
        "कळ",
        -8.396651831476921
      ],
      [
        "जीव",
        -8.39689671908379
      ],
      [
        "आस",
        -8.400518636886712
      ],
      [
        "प्रधानंत्र",
        -8.40085902187935
      ],
      [
        "करचे",
        -8.40435717530379
      ],
      [
        "पयल्या",
        -8.406419095789122
      ],
      [
        "चालू",
        -8.408192749712637
      ],
      [
        "ीण",
        -8.409371723673567
      ],
      [
        "येवन",
        -8.41500941454429
      ],
      [
        "मागण",
        -8.417482368979385
      ],
      [
        "सगळे",
        -8.417904352612704
      ],
      [
        "पड",
        -8.418582731532563
      ],
      [
        "उदका",
        -8.419034183050087
      ],
      [
        "आपलो",
        -8.419410820668332
      ],
      [
        "ायडू",
        -8.426601614919392
      ],
      [
        "उर्बा",
        -8.428994438444914
      ],
      [
        "सचीव",
        -8.429453016531124
      ],
      [
        "विधानसभ",
        -8.434358044568661
      ],
      [
        "तात",
        -8.435144370228038
      ],
      [
        "पर",
        -8.435394231231882
      ],
      [
        "मनीस",
        -8.436506348210836
      ],
      [
        "ल्यात",
        -8.437429047695021
      ],
      [
        "जाण",
        -8.437690382884735
      ],
      [
        "ज्य",
        -8.439514752522594
      ],
      [
        "संचालक",
        -8.440048887283883
      ],
      [
        "पुलीस",
        -8.440542294916142
      ],
      [
        "दुसरे",
        -8.440903640721594
      ],
      [
        "आंतरराष्",
        -8.44130029196228
      ],
      [
        "तु",
        -8.442104863191354
      ],
      [
        "वचून",
        -8.442534167336888
      ],
      [
        "लि",
        -8.443317066355338
      ],
      [
        "लागले",
        -8.444592279796291
      ],
      [
        "एके",
        -8.44678280224279
      ],
      [
        "ट्रीय",
        -8.446797578912566
      ],
      [
        "बि",
        -8.450895054963063
      ],
      [
        "वता",
        -8.450909534868913
      ],
      [
        "संबंद",
        -8.451366054205655
      ],
      [
        "ऊ",
        -8.453057089518065
      ],
      [
        "चौ",
        -8.453682939048848
      ],
      [
        "खातीय",
        -8.456442271534709
      ],
      [
        "लक्ष",
        -8.456635000898942
      ],
      [
        "पावस",
        -8.457163304746757
      ],
      [
        "ेश",
        -8.457578753062322
      ],
      [
        "मनांत",
        -8.458677058718749
      ],
      [
        "त्",
        -8.459053011743702
      ],
      [
        "ाचें",
        -8.460851639128705
      ],
      [
        "संरक्षण",
        -8.463925127338939
      ],
      [
        "हाका",
        -8.465163600712913
      ],
      [
        "पावसा",
        -8.467027557992738
      ],
      [
        "सर्ती",
        -8.471004063451225
      ],
      [
        "अंतर",
        -8.471966789017063
      ],
      [
        "वाद",
        -8.472905937866784
      ],
      [
        "ांतल्या",
        -8.473502520695234
      ],
      [
        "रु",
        -8.473738231392444
      ],
      [
        "विचाल्ले",
        -8.475786790183388
      ],
      [
        "डा",
        -8.479896513452463
      ],
      [
        "ांचेर",
        -8.482618955788354
      ],
      [
        "ऽ",
        -8.48383325092971
      ],
      [
        "पाची",
        -8.4839350848803
      ],
      [
        "परस",
        -8.483938593468977
      ],
      [
        "सुवाते",
        -8.484218813094854
      ],
      [
        "शणै",
        -8.484541546357185
      ],
      [
        "वेचणुक",
        -8.485045133236056
      ],
      [
        "घालून",
        -8.485244422482364
      ],
      [
        "म्हुण",
        -8.48783394765673
      ],
      [
        "आयल्या",
        -8.489142111015992
      ],
      [
        "प्रस्न",
        -8.490362679608143
      ],
      [
        "नवे",
        -8.490812815554008
      ],
      [
        "ूट",
        -8.492082267690606
      ],
      [
        "दिवपा",
        -8.494480815794748
      ],
      [
        "बळ",
        -8.495662940056377
      ],
      [
        "तां",
        -8.496557887403029
      ],
      [
        "चाली",
        -8.497054847112262
      ],
      [
        "पयलो",
        -8.497412311478843
      ],
      [
        "त्यो",
        -8.49764235655558
      ],
      [
        "आम",
        -8.497751647554594
      ],
      [
        "आदेश",
        -8.499156825173756
      ],
      [
        "उलयता",
        -8.50078650184804
      ],
      [
        "आवाहन",
        -8.501254989918898
      ],
      [
        "सुमार",
        -8.501435859866307
      ],
      [
        "तल्यान",
        -8.502625581247566
      ],
      [
        "जायना",
        -8.502867328444776
      ],
      [
        "सर्वो",
        -8.504181658801473
      ],
      [
        "सुविधा",
        -8.50615598735442
      ],
      [
        "वो",
        -8.507617907297004
      ],
      [
        "बरी",
        -8.50815130086021
      ],
      [
        "आरोप",
        -8.508214269114891
      ],
      [
        "भारताचे",
        -8.508332220174639
      ],
      [
        "संस्थे",
        -8.51088227368533
      ],
      [
        "भासाभास",
        -8.512378109845297
      ],
      [
        "राती",
        -8.512926126063242
      ],
      [
        "मजत",
        -8.514434292268378
      ],
      [
        "पावल",
        -8.516281442611604
      ],
      [
        "ेळ",
        -8.519268111290108
      ],
      [
        "प्रचार",
        -8.520513417634225
      ],
      [
        "ोदी",
        -8.521858189017983
      ],
      [
        "प्रकल्प",
        -8.521872397924632
      ],
      [
        "चंद्र",
        -8.525930055531449
      ],
      [
        "गेले",
        -8.52608446192033
      ],
      [
        "ेंद्र",
        -8.526686310574192
      ],
      [
        "शाह",
        -8.527431440397645
      ],
      [
        "हां",
        -8.527513739979792
      ],
      [
        "वण",
        -8.530765598502096
      ],
      [
        "ंच",
        -8.531242095021724
      ],
      [
        "धर",
        -8.534582149959734
      ],
      [
        "उतर",
        -8.536148309314676
      ],
      [
        "बु",
        -8.536297331443361
      ],
      [
        "देशां",
        -8.537648517464902
      ],
      [
        "भशेन",
        -8.53765627577727
      ],
      [
        "हेतान",
        -8.54007793172568
      ],
      [
        "राय",
        -8.540232465068822
      ],
      [
        "आंग",
        -8.541397224290797
      ],
      [
        "वांट",
        -8.545944470469959
      ],
      [
        "हस्तुकी",
        -8.550352364263981
      ],
      [
        "स्पश्ट",
        -8.550353445727414
      ],
      [
        "ताची",
        -8.550829753026024
      ],
      [
        "देखून",
        -8.551165310333737
      ],
      [
        "ल्ली",
        -8.551732272729172
      ],
      [
        "गे",
        -8.553156234939046
      ],
      [
        "दो",
        -8.553362250963723
      ],
      [
        "जैत",
        -8.554214047416572
      ],
      [
        "साद",
        -8.555992315057665
      ],
      [
        "घेतल्या",
        -8.556297690311997
      ],
      [
        "हांचो",
        -8.558199409318583
      ],
      [
        "पत्रकार",
        -8.56041063992986
      ],
      [
        "लाख",
        -8.560887004314381
      ],
      [
        "वन",
        -8.56177303128932
      ],
      [
        "आयिल्ल्या",
        -8.561806738514289
      ],
      [
        "घरांत",
        -8.56188434658474
      ],
      [
        "आणि",
        -8.563858785686266
      ],
      [
        "मेळटा",
        -8.56398314806516
      ],
      [
        "व्या",
        -8.564808866154053
      ],
      [
        "सचिव",
        -8.564936660350305
      ],
      [
        "म्हज",
        -8.566860143045146
      ],
      [
        "बरें",
        -8.567816293309194
      ],
      [
        "शें",
        -8.568546561562385
      ],
      [
        "भाग",
        -8.56999966837474
      ],
      [
        "ल्मा",
        -8.570054350485591
      ],
      [
        "यार",
        -8.57027735576515
      ],
      [
        "विशय",
        -8.575536960949577
      ],
      [
        "जम्मू",
        -8.576497295418879
      ],
      [
        "राष्ट्राध्यक्ष",
        -8.576710184881803
      ],
      [
        "शेती",
        -8.576952110173794
      ],
      [
        "नेम",
        -8.577247226478066
      ],
      [
        "ाडून",
        -8.578073893404724
      ],
      [
        "उपाय",
        -8.579697050743334
      ],
      [
        "समिती",
        -8.580480572918415
      ],
      [
        "ाच्यो",
        -8.580697836765872
      ],
      [
        "सोद",
        -8.581426696783211
      ],
      [
        "नेट",
        -8.58304177193694
      ],
      [
        "वाटे",
        -8.583635475522977
      ],
      [
        "ताय",
        -8.584119520900241
      ],
      [
        "मुखेली",
        -8.58619819157738
      ],
      [
        "कार्य",
        -8.586708669339002
      ],
      [
        "कि",
        -8.587172070588863
      ],
      [
        "भाजपाचे",
        -8.587249009913824
      ],
      [
        "ताजी",
        -8.58801615645088
      ],
      [
        "आस्पाव",
        -8.589858067271226
      ],
      [
        "उच्च",
        -8.590537865304311
      ],
      [
        "ेंत",
        -8.592234987529793
      ],
      [
        "राया",
        -8.593085791908928
      ],
      [
        "आप",
        -8.594831378835165
      ],
      [
        "नदरेन",
        -8.595075802701029
      ],
      [
        "संवसार",
        -8.595481405734672
      ],
      [
        "ींग",
        -8.596831428424027
      ],
      [
        "ंतल्यान",
        -8.597464984194325
      ],
      [
        "िय",
        -8.597719217106961
      ],
      [
        "द्र",
        -8.598844689644105
      ],
      [
        "्व",
        -8.601863396243129
      ],
      [
        "आयलें",
        -8.602060105221934
      ],
      [
        "डो",
        -8.602293605164466
      ],
      [
        "त्र",
        -8.6031081440867
      ],
      [
        "ंड",
        -8.60470211607353
      ],
      [
        "परिशदें",
        -8.605776130491154
      ],
      [
        "म्हणला",
        -8.606108004867913
      ],
      [
        "काळ",
        -8.60646558201526
      ],
      [
        "वयल्या",
        -8.606721011586806
      ],
      [
        "उदक",
        -8.607974988887124
      ],
      [
        "ताचो",
        -8.60820705234389
      ],
      [
        "कोटी",
        -8.609417958851118
      ],
      [
        "रंग",
        -8.609831792826078
      ],
      [
        "खात्यान",
        -8.614185746224123
      ],
      [
        "ङ्काव",
        -8.615537077834695
      ],
      [
        "प्रधानमंत्र्यान",
        -8.615594652350687
      ],
      [
        "पाल",
        -8.61574866215146
      ],
      [
        "निर्माण",
        -8.61711605684469
      ],
      [
        "पाय",
        -8.617537947347104
      ],
      [
        "घेतला",
        -8.617732796226061
      ],
      [
        "राज्यां",
        -8.61825786766366
      ],
      [
        "दळ",
        -8.619292721099702
      ],
      [
        "ङ्कावट",
        -8.619610944066503
      ],
      [
        "श्र",
        -8.620466546100431
      ],
      [
        "बाय",
        -8.621203926192972
      ],
      [
        "पाद",
        -8.622291771807578
      ],
      [
        "केन्ना",
        -8.62293386094789
      ],
      [
        "पुलिस",
        -8.625683744838863
      ],
      [
        "खासदार",
        -8.626767548132834
      ],
      [
        "गेली",
        -8.627404542040384
      ],
      [
        "जावपाची",
        -8.628028261555247
      ],
      [
        "ॅ",
        -8.628196096970388
      ],
      [
        "तशी",
        -8.629028727356454
      ],
      [
        "तलो",
        -8.629354234637823
      ],
      [
        "दिल्ल्या",
        -8.629839010916147
      ],
      [
        "इंडिया",
        -8.630931795037846
      ],
      [
        "मनोहर",
        -8.630994964141227
      ],
      [
        "विधेयक",
        -8.631794335946331
      ],
      [
        "जाल्लो",
        -8.631876569912446
      ],
      [
        "2",
        -8.631910793645691
      ],
      [
        "नेटा",
        -8.63403930331933
      ],
      [
        "घटम",
        -8.63494933799941
      ],
      [
        "ट्ट",
        -8.635182059497396
      ],
      [
        "आवा",
        -8.636031112553066
      ],
      [
        "गोंयच्या",
        -8.63653252540276
      ],
      [
        "न्",
        -8.637077060406579
      ],
      [
        "सर्तीत",
        -8.63719599730766
      ],
      [
        "कडे",
        -8.63723618680009
      ],
      [
        "ेर",
        -8.637566701148758
      ],
      [
        "दू",
        -8.638298429014462
      ],
      [
        "ल्यार",
        -8.640226695810982
      ],
      [
        "जाल",
        -8.642987440654473
      ],
      [
        "सार",
        -8.643146730368619
      ],
      [
        "पडटा",
        -8.643544614652036
      ],
      [
        "दरेक",
        -8.643812554391827
      ],
      [
        "श्",
        -8.64625762689871
      ],
      [
        "वच",
        -8.646374973370552
      ],
      [
        "पाव",
        -8.647137412087062
      ],
      [
        "सर्तींत",
        -8.64933884252589
      ],
      [
        "आमदार",
        -8.650200532794099
      ],
      [
        "जि",
        -8.651746353987031
      ],
      [
        "भार",
        -8.652595099426392
      ],
      [
        "न्न",
        -8.65423749871833
      ],
      [
        "आमच्या",
        -8.656049652391376
      ],
      [
        "उपकार",
        -8.661361449391723
      ],
      [
        "ोवन",
        -8.661780420817145
      ],
      [
        "आवाज",
        -8.661787577661173
      ],
      [
        "ल्हान",
        -8.662506445201853
      ],
      [
        "केळी",
        -8.662613925802642
      ],
      [
        "जागृताय",
        -8.66351629828733
      ],
      [
        "सू",
        -8.669110061351457
      ],
      [
        "प्रसारण",
        -8.669546935293742
      ],
      [
        "ाॊ",
        -8.669996617812334
      ],
      [
        "परबी",
        -8.670390710279975
      ],
      [
        "अळें",
        -8.672968822085682
      ],
      [
        "लग्न",
        -8.673310400371745
      ],
      [
        "तुमी",
        -8.67394797513233
      ],
      [
        "ऑङ्क",
        -8.674732674001731
      ],
      [
        "क्त",
        -8.674980852525554
      ],
      [
        "वाठारांनी",
        -8.67499414907026
      ],
      [
        "वीस",
        -8.681628302129784
      ],
      [
        "भि",
        -8.682853060175262
      ],
      [
        "परिस्थिती",
        -8.683737427958015
      ],
      [
        "आतंकवाद",
        -8.683953009634859
      ],
      [
        "3",
        -8.68850027159353
      ],
      [
        "परिशदे",
        -8.688571799392635
      ],
      [
        "जाहीर",
        -8.688615429617691
      ],
      [
        "िं",
        -8.688741359610791
      ],
      [
        "था",
        -8.689207455014348
      ],
      [
        "्स",
        -8.693349005460146
      ],
      [
        "कामा",
        -8.694053307702411
      ],
      [
        "आयली",
        -8.69664999336861
      ],
      [
        "5",
        -8.700265194886613
      ],
      [
        "शेतकारां",
        -8.701896711214617
      ],
      [
        "आदी",
        -8.702037252119549
      ],
      [
        "तांचो",
        -8.702805371806177
      ],
      [
        "उकतावण",
        -8.703426275918345
      ],
      [
        "प्रकाश",
        -8.70356859748145
      ],
      [
        "हवामान",
        -8.703575772599319
      ],
      [
        "सगळी",
        -8.703599610460966
      ],
      [
        "कारवाय",
        -8.704661118631932
      ],
      [
        "भोव",
        -8.70577553189258
      ],
      [
        "गोवा",
        -8.707707455898028
      ],
      [
        "हाचे",
        -8.708010484724852
      ],
      [
        "ंची",
        -8.708504222880084
      ],
      [
        "भारतांत",
        -8.708777444633235
      ],
      [
        "संस्कृती",
        -8.711357602193353
      ],
      [
        "पणजे",
        -8.71284453220073
      ],
      [
        "ल्लें",
        -8.714484094898953
      ],
      [
        "बग",
        -8.715369269379252
      ],
      [
        "थळाव्या",
        -8.718661278700427
      ],
      [
        "संबंदी",
        -8.71885221092566
      ],
      [
        "येवकार",
        -8.719576691162848
      ],
      [
        "तली",
        -8.719812411602565
      ],
      [
        "प्रशिक्षण",
        -8.72088737124639
      ],
      [
        "इतिहास",
        -8.721581099637106
      ],
      [
        "दोळे",
        -8.722179638756623
      ],
      [
        "खेळां",
        -8.722620432080188
      ],
      [
        "सांगला",
        -8.722696322667687
      ],
      [
        "पळोवन",
        -8.72305650443937
      ],
      [
        "उत्सव",
        -8.723698489526626
      ],
      [
        "ल्ड",
        -8.723763938772455
      ],
      [
        "पयलीं",
        -8.724351526640948
      ],
      [
        "हय",
        -8.725491319101355
      ],
      [
        "दिल्लीत",
        -8.726915321194198
      ],
      [
        "वळख",
        -8.727776328997015
      ],
      [
        "शांबा",
        -8.728205329521842
      ],
      [
        "पाट",
        -8.72844352423823
      ],
      [
        "मेळटली",
        -8.728450297675394
      ],
      [
        "जातल्य",
        -8.730145830763622
      ],
      [
        "माध्यम",
        -8.730398439987535
      ],
      [
        "उदरगती",
        -8.731231025897479
      ],
      [
        "तिणे",
        -8.7349804753587
      ],
      [
        "कायदो",
        -8.735171466026799
      ],
      [
        "सांगू",
        -8.735203165105395
      ],
      [
        "मत",
        -8.735639770966511
      ],
      [
        "मदी",
        -8.735933839975516
      ],
      [
        "हल्ल्या",
        -8.7372965990447
      ],
      [
        "मंत्रालय",
        -8.739818493513807
      ],
      [
        "पट",
        -8.741348135385984
      ],
      [
        ".....",
        -8.745645401235778
      ],
      [
        "अमित",
        -8.74962871929883
      ],
      [
        "कामकाज",
        -8.749715421861197
      ],
      [
        "आर्गा",
        -8.749718906400467
      ],
      [
        "सकयल",
        -8.75084702629605
      ],
      [
        "वेंचणुके",
        -8.751762284854683
      ],
      [
        "उणे",
        -8.752133641530628
      ],
      [
        "घाल",
        -8.753217463568603
      ],
      [
        "उतरां",
        -8.753327600559238
      ],
      [
        "गोंयचे",
        -8.753714406477183
      ],
      [
        "अर्थि",
        -8.757667637595565
      ],
      [
        "श्ट",
        -8.760478625972377
      ],
      [
        "्यांत",
        -8.760959802511373
      ],
      [
        "शंकर",
        -8.761545777671914
      ],
      [
        "म्हा",
        -8.762251398305285
      ],
      [
        "एङ्क",
        -8.764251930920354
      ],
      [
        "संसदे",
        -8.764854225031772
      ],
      [
        "मेळटल",
        -8.765359835388367
      ],
      [
        "पुष्पा",
        -8.765459807245966
      ],
      [
        "दुसरो",
        -8.765501181118436
      ],
      [
        "किदें",
        -8.768282488638057
      ],
      [
        "काँग्रेसी",
        -8.7696996891181
      ],
      [
        "हार",
        -8.771866048696605
      ],
      [
        "सुवाती",
        -8.771891287823463
      ],
      [
        "ंत्री",
        -8.77306363981803
      ],
      [
        "सोप",
        -8.774023161122788
      ],
      [
        "दाखल",
        -8.774053922391179
      ],
      [
        "हातांत",
        -8.77457855907505
      ],
      [
        "सगले",
        -8.774784756421303
      ],
      [
        "तांक",
        -8.776025524579442
      ],
      [
        "काळांत",
        -8.777376421285059
      ],
      [
        "धरू",
        -8.777589609713115
      ],
      [
        "रक्षा",
        -8.779374155576605
      ],
      [
        "ऴ",
        -8.780920184393436
      ],
      [
        "दिसू",
        -8.78104033973062
      ],
      [
        "झा",
        -8.781377834659734
      ],
      [
        "अभ्यास",
        -8.781561489375921
      ],
      [
        "पर्यटन",
        -8.781589893888853
      ],
      [
        "उपेग",
        -8.781613579996296
      ],
      [
        "म्हण्टा",
        -8.781777907503422
      ],
      [
        "आसतली",
        -8.783659862342912
      ],
      [
        "गोरवां",
        -8.78404257718229
      ],
      [
        "आस्त",
        -8.785088066371369
      ],
      [
        "सोड",
        -8.785837371188283
      ],
      [
        "मान्यताय",
        -8.78715328279397
      ],
      [
        "घेता",
        -8.788049594777195
      ],
      [
        "गजाली",
        -8.788370204975863
      ],
      [
        "ेस्त",
        -8.788976849255384
      ],
      [
        "हाचेर",
        -8.78952637437
      ],
      [
        "ंतल्या",
        -8.789660111381611
      ],
      [
        "पळय",
        -8.790600112310566
      ],
      [
        "पद",
        -8.797836789957493
      ],
      [
        "स्पष्ट",
        -8.797985314313323
      ],
      [
        "गड",
        -8.798116563513023
      ],
      [
        "बर",
        -8.798272468688427
      ],
      [
        "वैजकी",
        -8.798441263828181
      ],
      [
        "एल",
        -8.801393218845853
      ],
      [
        "तेच",
        -8.801731533551758
      ],
      [
        "सर्त",
        -8.804432453393156
      ],
      [
        "पळोव",
        -8.805408139535787
      ],
      [
        "दिल्ले",
        -8.805812582036193
      ],
      [
        "फट",
        -8.805819263646988
      ],
      [
        "दान",
        -8.806524197904478
      ],
      [
        "याद",
        -8.807297727668725
      ],
      [
        "विमान",
        -8.807959651569295
      ],
      [
        "पाकिस्ताना",
        -8.809694851463156
      ],
      [
        "प्रसाद",
        -8.809937474917707
      ],
      [
        "मांड",
        -8.809984719992638
      ],
      [
        "हांगासर",
        -8.813598434563723
      ],
      [
        "दिवपाक",
        -8.814263705466264
      ],
      [
        "क्रिकेट",
        -8.814650728750792
      ],
      [
        "तू",
        -8.814916697660944
      ],
      [
        "वेपार",
        -8.814967825314032
      ],
      [
        "कायद्या",
        -8.814973732607339
      ],
      [
        "आयोजन",
        -8.815611477079138
      ],
      [
        "ूंय",
        -8.816812447443738
      ],
      [
        "येवं",
        -8.818129792605303
      ],
      [
        "ँ",
        -8.818723666061878
      ],
      [
        "जालां",
        -8.81923706685619
      ],
      [
        "दिले",
        -8.819585219767529
      ],
      [
        "गाव",
        -8.821246908699989
      ],
      [
        "विजय",
        -8.822158808010176
      ],
      [
        "क्र",
        -8.823732256057465
      ],
      [
        "्ट",
        -8.824973174320352
      ],
      [
        "ेचे",
        -8.825622213244085
      ],
      [
        "कशें",
        -8.825870673842148
      ],
      [
        "धाड",
        -8.828559607360955
      ],
      [
        "यता",
        -8.829482848313237
      ],
      [
        "कॉ",
        -8.830606950605963
      ],
      [
        "पाकिस्तान",
        -8.831450355189368
      ],
      [
        "अकादमी",
        -8.831598207614245
      ],
      [
        "सभापती",
        -8.831691575009206
      ],
      [
        "येवप",
        -8.831828358115875
      ],
      [
        "पयस",
        -8.832574762449834
      ],
      [
        "वेवस्था",
        -8.83441218221302
      ],
      [
        "सांगता",
        -8.836773329203858
      ],
      [
        "आसतना",
        -8.837958846548975
      ],
      [
        "अळे",
        -8.838063007490007
      ],
      [
        "तयारी",
        -8.838084210317017
      ],
      [
        "पाच",
        -8.839908711646608
      ],
      [
        "सुवाळ्या",
        -8.842000953704735
      ],
      [
        "देवा",
        -8.842124726554948
      ],
      [
        "संसद",
        -8.843533455201047
      ],
      [
        "भेटे",
        -8.843976308177034
      ],
      [
        "ज्या",
        -8.847319219753238
      ],
      [
        "गट",
        -8.847670636029306
      ],
      [
        "जावच",
        -8.848052532094488
      ],
      [
        "बँक",
        -8.848662245878643
      ],
      [
        "दक्षिण",
        -8.848843284983573
      ],
      [
        "चित्रपट",
        -8.848919646616732
      ],
      [
        "योगदान",
        -8.848960684723874
      ],
      [
        "श्नयताय",
        -8.849200221723457
      ],
      [
        "शार",
        -8.849412283934004
      ],
      [
        "खेळा",
        -8.850732763978806
      ],
      [
        "फु",
        -8.85193337451696
      ],
      [
        "राग",
        -8.85217552025261
      ],
      [
        "ौ",
        -8.852316790922032
      ],
      [
        "दिसले",
        -8.858675781333044
      ],
      [
        "सदांच",
        -8.861523906534822
      ],
      [
        "युव",
        -8.865002391405275
      ],
      [
        ";",
        -8.866383336438812
      ],
      [
        "्म",
        -8.867052800994394
      ],
      [
        "पासून",
        -8.870824217902229
      ],
      [
        "उर",
        -8.871829863138847
      ],
      [
        "व्ही",
        -8.874417734730683
      ],
      [
        "िका",
        -8.874687871974077
      ],
      [
        "वर",
        -8.876016866662841
      ],
      [
        "बांद",
        -8.877594305668056
      ],
      [
        "ाखातीर",
        -8.877907528702833
      ],
      [
        "भट",
        -8.878430476437362
      ],
      [
        "अश",
        -8.879738838715785
      ],
      [
        "निमाणे",
        -8.87975769627767
      ],
      [
        "रण",
        -8.880941240672794
      ],
      [
        "म्",
        -8.881521195398395
      ],
      [
        "अल",
        -8.881726319759306
      ],
      [
        "नगर",
        -8.881988040816646
      ],
      [
        "सेवे",
        -8.883811023866107
      ],
      [
        "सरकाराच्या",
        -8.884068850929406
      ],
      [
        "वातावरण",
        -8.884241254270922
      ],
      [
        "सांबाळ",
        -8.884321906039784
      ],
      [
        "आघाडी",
        -8.884383513699401
      ],
      [
        "पर्रीक",
        -8.884751250694347
      ],
      [
        "करतना",
        -8.884824890582365
      ],
      [
        "सां",
        -8.885662156721919
      ],
      [
        "ीकरण",
        -8.886041863207442
      ],
      [
        "म्ह",
        -8.886916932491891
      ],
      [
        "पक्षा",
        -8.887044555255464
      ],
      [
        "तुजे",
        -8.88740701910175
      ],
      [
        "शारांत",
        -8.887842497031219
      ],
      [
        "बेट",
        -8.887970371262735
      ],
      [
        "हाड",
        -8.888203127020361
      ],
      [
        "निकाल",
        -8.888448096130814
      ],
      [
        "लाल",
        -8.888750759684214
      ],
      [
        "सून",
        -8.888793090654055
      ],
      [
        "निमाण",
        -8.88942194777702
      ],
      [
        "वै",
        -8.88991662698199
      ],
      [
        "बेगीन",
        -8.891649078736934
      ],
      [
        "गाय",
        -8.89313807333129
      ],
      [
        "िल्लें",
        -8.89553392770722
      ],
      [
        "पावला",
        -8.895841079166118
      ],
      [
        "सरकारा",
        -8.896879398550348
      ],
      [
        "म्हळ",
        -8.898503889510135
      ],
      [
        "शन",
        -8.899191593152928
      ],
      [
        "िल्लो",
        -8.899352136332851
      ],
      [
        "राज्यांत",
        -8.900849809952565
      ],
      [
        "म्हत्वाच",
        -8.901612903448655
      ],
      [
        "उपलब्ध",
        -8.902422298273859
      ],
      [
        "निधी",
        -8.903122987050871
      ],
      [
        "आशिल्ल्यान",
        -8.903376541868658
      ],
      [
        "जु",
        -8.90444483825284
      ],
      [
        "सोयर",
        -8.905464045216357
      ],
      [
        "मती",
        -8.905503900748371
      ],
      [
        "आदीं",
        -8.905661891704371
      ],
      [
        "शेतकार",
        -8.906333024757103
      ],
      [
        "जाणा",
        -8.906391313357997
      ],
      [
        "गोंयात",
        -8.906432147091529
      ],
      [
        "सम",
        -8.90765958534169
      ],
      [
        "येत",
        -8.907788895080802
      ],
      [
        "वरी",
        -8.908212056990283
      ],
      [
        "नात",
        -8.909634694827947
      ],
      [
        "लागता",
        -8.91004483936158
      ],
      [
        "कां",
        -8.910209556247267
      ],
      [
        "पालव",
        -8.91133927629495
      ],
      [
        "नाशिल्लो",
        -8.911374251118907
      ],
      [
        "ांव",
        -8.916687854875086
      ],
      [
        "ङ्कुडाऱ्यां",
        -8.916750754145783
      ],
      [
        "संद",
        -8.917555143990722
      ],
      [
        "करचो",
        -8.919302309490448
      ],
      [
        "आसले",
        -8.919863720656434
      ],
      [
        "देसाय",
        -8.920430765785543
      ],
      [
        "साडे",
        -8.921517924885281
      ],
      [
        "प्रस्ताव",
        -8.92153786037994
      ],
      [
        "दवरून",
        -8.922035612920697
      ],
      [
        "ुट",
        -8.92275639316805
      ],
      [
        "6",
        -8.924338817428472
      ],
      [
        "दक्ष",
        -8.925089637591757
      ],
      [
        "ीश",
        -8.925845777008426
      ],
      [
        "देशांतल्या",
        -8.926973140879346
      ],
      [
        "दिवपाचे",
        -8.930548122501168
      ],
      [
        "भु",
        -8.930808399164173
      ],
      [
        "रस्त",
        -8.932177821705086
      ],
      [
        "माल्ल",
        -8.933255375614738
      ],
      [
        "कसो",
        -8.9354744633082
      ],
      [
        "गजाल",
        -8.93617989526139
      ],
      [
        "न्यायालया",
        -8.93749583855163
      ],
      [
        "विधानसभे",
        -8.938227539637131
      ],
      [
        "1",
        -8.939646335646321
      ],
      [
        "ट्रम्प",
        -8.939809017803686
      ],
      [
        "काड",
        -8.940105813888646
      ],
      [
        "ग्राम",
        -8.94095779226055
      ],
      [
        "स्व",
        -8.94111254665913
      ],
      [
        "धोरण",
        -8.943427142027957
      ],
      [
        "ह्य",
        -8.943512108700578
      ],
      [
        "विन",
        -8.944932057688508
      ],
      [
        "लागू",
        -8.946583152072026
      ],
      [
        "दळा",
        -8.94744176553898
      ],
      [
        "लाय",
        -8.94864263820738
      ],
      [
        "करतलो",
        -8.949665292940432
      ],
      [
        "बसकेत",
        -8.953171135611658
      ],
      [
        "ांच्यो",
        -8.955618488133121
      ],
      [
        "ंचो",
        -8.955629637279543
      ],
      [
        "भो",
        -8.955846109941117
      ],
      [
        "कड",
        -8.955911163421728
      ],
      [
        "बाल",
        -8.95749677091252
      ],
      [
        "हाडपा",
        -8.95764620483132
      ],
      [
        "ऋ",
        -8.958983069465335
      ],
      [
        "संशोधन",
        -8.959039579040173
      ],
      [
        "द्री",
        -8.959061367376027
      ],
      [
        "संघटने",
        -8.959268300232004
      ],
      [
        "न्हंय",
        -8.959403914679257
      ],
      [
        "कारण",
        -8.959816830693022
      ],
      [
        "्यांनी",
        -8.959826141506376
      ],
      [
        "धर्म",
        -8.960025681452791
      ],
      [
        "जांव",
        -8.962408462491704
      ],
      [
        "आमकां",
        -8.963378001077919
      ],
      [
        "आसत",
        -8.964036545120955
      ],
      [
        "उजवाड",
        -8.964280584136452
      ],
      [
        "केंद्रा",
        -8.966670971046337
      ],
      [
        "दिवपाची",
        -8.970393087027974
      ],
      [
        "वयल्यान",
        -8.971301917453012
      ],
      [
        "डि",
        -8.97177589930042
      ],
      [
        "ट्विट",
        -8.97369756029575
      ],
      [
        "पावलां",
        -8.97570355798798
      ],
      [
        "म्हजो",
        -8.975956328454231
      ],
      [
        "वांगड्यां",
        -8.976299414789032
      ],
      [
        "म्हत्व",
        -8.97634811895708
      ],
      [
        "डाय",
        -8.976833283000234
      ],
      [
        "पंगडान",
        -8.977392811144131
      ],
      [
        "विधेयका",
        -8.97742691353595
      ],
      [
        "0",
        -8.977678522662684
      ],
      [
        "कथे",
        -8.977846500521945
      ],
      [
        "वर्धन",
        -8.978282977176004
      ],
      [
        "i",
        -8.97858387724366
      ],
      [
        "आकडो",
        -8.978709488955483
      ],
      [
        "प्रक्रिया",
        -8.978805675514705
      ],
      [
        "प्रभाण",
        -8.979028975050255
      ],
      [
        "पुरवण",
        -8.979948620940798
      ],
      [
        "संदर्भांत",
        -8.982652626579519
      ],
      [
        "स्थ",
        -8.98395808002348
      ],
      [
        "शेतक",
        -8.984516323276639
      ],
      [
        "ङ्कुड",
        -8.985909835922744
      ],
      [
        "दास",
        -8.98612153311307
      ],
      [
        "खेळटल",
        -8.988034215176086
      ],
      [
        "देशांत",
        -8.989049863714545
      ],
      [
        "स्थापन",
        -8.989362448383801
      ],
      [
        "चुक",
        -8.990613133085885
      ],
      [
        "टर",
        -8.990733001304898
      ],
      [
        "तालो",
        -8.9915880372648
      ],
      [
        "मोग",
        -8.99161738979441
      ],
      [
        "मडगांव",
        -8.992209359075229
      ],
      [
        "तेंको",
        -8.995325503511506
      ],
      [
        "ङ्का",
        -8.99592430671904
      ],
      [
        "दम",
        -8.995938687551199
      ],
      [
        "घोशणा",
        -8.998834239881182
      ],
      [
        "रान",
        -8.998850063218471
      ],
      [
        "रुपया",
        -8.999372960301654
      ],
      [
        "बाद",
        -9.001778303864581
      ],
      [
        "येव",
        -9.004005682221695
      ],
      [
        "१",
        -9.005071248336986
      ],
      [
        "नाटक",
        -9.005670389306399
      ],
      [
        "थाराव",
        -9.005685030461228
      ],
      [
        "दिसां",
        -9.006211328898996
      ],
      [
        "पणजेंत",
        -9.007778342953932
      ],
      [
        "माग",
        -9.00903701250978
      ],
      [
        "शो",
        -9.010406169606016
      ],
      [
        "घे",
        -9.012164615608771
      ],
      [
        "जावचो",
        -9.015540645441149
      ],
      [
        "ॊत",
        -9.016785467071617
      ],
      [
        "वती",
        -9.017573736587922
      ],
      [
        "पोट",
        -9.018711712716293
      ],
      [
        "सिन्हा",
        -9.01905784034972
      ],
      [
        "ङ्काटभुंये",
        -9.019061291318014
      ],
      [
        "अणकार",
        -9.019096549298968
      ],
      [
        "विश्वास",
        -9.01910195545524
      ],
      [
        "भयण",
        -9.01992058719942
      ],
      [
        "सल्लो",
        -9.020515878982167
      ],
      [
        "ल्ले",
        -9.02065815496881
      ],
      [
        "उकतायल",
        -9.021264684764503
      ],
      [
        "गुण",
        -9.021280505297526
      ],
      [
        "गांवकार",
        -9.021904839135388
      ],
      [
        "येक",
        -9.023272233147543
      ],
      [
        "भाग्या",
        -9.023515612667444
      ],
      [
        "परी",
        -9.024077072750185
      ],
      [
        "ौशीक",
        -9.02409698142467
      ],
      [
        "आयकू",
        -9.025056817060296
      ],
      [
        "उब",
        -9.026670013598743
      ],
      [
        "पेट",
        -9.026734141503558
      ],
      [
        "कमी",
        -9.028793842391039
      ],
      [
        "कयऩा",
        -9.028955343702544
      ],
      [
        "ताच्या",
        -9.029577680131451
      ],
      [
        "मोद",
        -9.031788573750744
      ],
      [
        "िंग",
        -9.033555386585068
      ],
      [
        "मंडळान",
        -9.033813327629748
      ],
      [
        "नांव",
        -9.033873677427739
      ],
      [
        "फाटी",
        -9.036748960899939
      ],
      [
        "जीण",
        -9.037243620220874
      ],
      [
        "त्व",
        -9.03734649329462
      ],
      [
        "भाशे",
        -9.037440894790501
      ],
      [
        "घा",
        -9.038036453819208
      ],
      [
        "निती",
        -9.038232771313378
      ],
      [
        "दर्शन",
        -9.039054385238389
      ],
      [
        "खरें",
        -9.039191198926229
      ],
      [
        "आंगा",
        -9.039769211711054
      ],
      [
        "कंपनी",
        -9.039904653565412
      ],
      [
        "तोखणा",
        -9.039928325285302
      ],
      [
        "हजर",
        -9.040152554333401
      ],
      [
        "अजून",
        -9.041127908182093
      ],
      [
        "अधिकाऱ्यां",
        -9.041718128906565
      ],
      [
        "रीत",
        -9.043035301229207
      ],
      [
        "ताज",
        -9.043085709402279
      ],
      [
        "संदेशा",
        -9.044563152543168
      ],
      [
        "उकते",
        -9.04587632985089
      ],
      [
        "लागी",
        -9.045892111543903
      ],
      [
        "चर्चे",
        -9.046134179758464
      ],
      [
        "खण",
        -9.047227274318514
      ],
      [
        "फाट",
        -9.047628538094912
      ],
      [
        "खे",
        -9.047790048394187
      ],
      [
        "वाठारांतल्या",
        -9.048343598625024
      ],
      [
        "ेल्लो",
        -9.04908933504943
      ],
      [
        "श्य",
        -9.050650516547584
      ],
      [
        "मल",
        -9.052984603635029
      ],
      [
        "वाल",
        -9.05299181904053
      ],
      [
        "प्रा",
        -9.053069966091021
      ],
      [
        "कामां",
        -9.054778884913794
      ],
      [
        "मंडळ",
        -9.055580999161311
      ],
      [
        "आधार",
        -9.055646834240521
      ],
      [
        "सुट",
        -9.056620372578703
      ],
      [
        "ेची",
        -9.058211370181834
      ],
      [
        "बोट",
        -9.059663475618512
      ],
      [
        "रावता",
        -9.060103155000817
      ],
      [
        "4",
        -9.060973497940441
      ],
      [
        "मॅगी",
        -9.06120145256569
      ],
      [
        "निर्",
        -9.061613754116607
      ],
      [
        "विस्वास",
        -9.061717750355914
      ],
      [
        "धु",
        -9.061760513925812
      ],
      [
        "राणे",
        -9.06184003881403
      ],
      [
        "पाचो",
        -9.062185871066328
      ],
      [
        "उपराष्ट्रपती",
        -9.06241092782852
      ],
      [
        "मनशां",
        -9.062680065402795
      ],
      [
        "थंयच",
        -9.062716291082525
      ],
      [
        "त्री",
        -9.06349465165327
      ],
      [
        "वाठार",
        -9.065924942851943
      ],
      [
        "शहा",
        -9.066574853378311
      ],
      [
        "भांगरा",
        -9.067697441491408
      ],
      [
        "सुर",
        -9.069653910942712
      ],
      [
        "साय",
        -9.07033141273741
      ],
      [
        "खो",
        -9.071209970322201
      ],
      [
        "प्रकार",
        -9.071767576185177
      ],
      [
        "ऱा",
        -9.07208272937167
      ],
      [
        "गर",
        -9.072584014472444
      ],
      [
        "वाडोवपा",
        -9.07260678218708
      ],
      [
        "गणू",
        -9.074451333520834
      ],
      [
        "गटांत",
        -9.077027789165951
      ],
      [
        "तिच्या",
        -9.078570160527773
      ],
      [
        "संघा",
        -9.080281916497826
      ],
      [
        "व्यवस्था",
        -9.081584205042605
      ],
      [
        "मोड",
        -9.081652836572186
      ],
      [
        "मराठी",
        -9.082905143927906
      ],
      [
        "प्रतिनिधी",
        -9.08299227028849
      ],
      [
        "प्रवेश",
        -9.083040057658366
      ],
      [
        "अस्तंत",
        -9.083408516170685
      ],
      [
        "मार्गदर्शन",
        -9.08351520709206
      ],
      [
        "हाल",
        -9.084318615203411
      ],
      [
        "पडल",
        -9.084517954095226
      ],
      [
        "शकता",
        -9.084710990480897
      ],
      [
        "मोख",
        -9.085233587591098
      ],
      [
        "वायट",
        -9.085253994819931
      ],
      [
        "दाय",
        -9.08535757993403
      ],
      [
        "परिषदे",
        -9.08734379483015
      ],
      [
        "़",
        -9.087686038198045
      ],
      [
        "पत्र",
        -9.088858682879339
      ],
      [
        "सभाघरांत",
        -9.089577037136511
      ],
      [
        "आयिल्ले",
        -9.090091781646088
      ],
      [
        "वडी",
        -9.092102878187408
      ],
      [
        "िया",
        -9.092814656925128
      ],
      [
        "लाग",
        -9.094220520823342
      ],
      [
        "रावलो",
        -9.095227304357257
      ],
      [
        "मनयता",
        -9.098278800138267
      ],
      [
        "ंचे",
        -9.099091309639423
      ],
      [
        "सोडू",
        -9.099312819775001
      ],
      [
        "पडले",
        -9.099814393727106
      ],
      [
        "उजवाडा",
        -9.099922324728357
      ],
      [
        "भावना",
        -9.100252293498352
      ],
      [
        "टो",
        -9.100363348516249
      ],
      [
        "फूल",
        -9.101263433330061
      ],
      [
        "वाज",
        -9.101735314014292
      ],
      [
        "समज",
        -9.104401494020493
      ],
      [
        "जाग",
        -9.104474426638333
      ],
      [
        "नोंद",
        -9.104815694919878
      ],
      [
        "o",
        -9.105126797892943
      ],
      [
        "उ्नतावण",
        -9.105126798654043
      ],
      [
        "अणभव",
        -9.105128521384788
      ],
      [
        "भुमिक",
        -9.105186238588942
      ],
      [
        "संसार",
        -9.105962496280434
      ],
      [
        "दोनु",
        -9.107645895314036
      ],
      [
        "आसतलो",
        -9.107984947997068
      ],
      [
        "गवेत",
        -9.109476371302984
      ],
      [
        "अर",
        -9.1102452984718
      ],
      [
        "जर",
        -9.110276770211899
      ],
      [
        "बारा",
        -9.110681048647631
      ],
      [
        "रिती",
        -9.111322522543043
      ],
      [
        "चली",
        -9.111731662169545
      ],
      [
        "जावचे",
        -9.112249380982073
      ],
      [
        "फटया",
        -9.112735318960095
      ],
      [
        "च्मो",
        -9.112923513372518
      ],
      [
        "ंद",
        -9.113246653825946
      ],
      [
        "मण",
        -9.113594143421992
      ],
      [
        "बसून",
        -9.11445282062526
      ],
      [
        "घट",
        -9.11475825898635
      ],
      [
        "वर्सां",
        -9.117429195565752
      ],
      [
        "िल्ली",
        -9.117519205647833
      ],
      [
        "गोय",
        -9.117525657669978
      ],
      [
        "संग",
        -9.11915333045035
      ],
      [
        "फाव",
        -9.119777138026002
      ],
      [
        "ळो",
        -9.120091903019954
      ],
      [
        "थार",
        -9.120196489853631
      ],
      [
        "नाशिल्ल",
        -9.121332547838461
      ],
      [
        "संदेशांत",
        -9.121519623667202
      ],
      [
        "साव",
        -9.122672471909741
      ],
      [
        "कर्नाटक",
        -9.124733028894049
      ],
      [
        "वाय",
        -9.125443799666069
      ],
      [
        "ददर",
        -9.12745487692059
      ],
      [
        "परिणाम",
        -9.127879375098875
      ],
      [
        "आदर्श",
        -9.127888237410053
      ],
      [
        "सुंदर",
        -9.127945290706462
      ],
      [
        "नेपाळ",
        -9.128011561101593
      ],
      [
        "हातूंत",
        -9.12856206316222
      ],
      [
        "कल्याण",
        -9.12887117784558
      ],
      [
        "लोकसभे",
        -9.129800337472778
      ],
      [
        "भौशि",
        -9.131329065537434
      ],
      [
        "वां",
        -9.13277888353892
      ],
      [
        "थारला",
        -9.134001082764808
      ],
      [
        "संबंधी",
        -9.13476178177669
      ],
      [
        "पार",
        -9.135684733339495
      ],
      [
        "अदी",
        -9.13602897179015
      ],
      [
        "ऱे",
        -9.136749098452226
      ],
      [
        "सुवाळ्यां",
        -9.13778193423152
      ],
      [
        "येतात",
        -9.143472344629318
      ],
      [
        "गजा",
        -9.143769865046844
      ],
      [
        "उत्पादन",
        -9.144637501835167
      ],
      [
        "उठ",
        -9.145840942660392
      ],
      [
        "इनास",
        -9.14959421096765
      ],
      [
        "गोंम",
        -9.150731121273996
      ],
      [
        "केन्नाच",
        -9.150788753442452
      ],
      [
        "लमा",
        -9.150814558386156
      ],
      [
        "वटेन",
        -9.150948882347299
      ],
      [
        "*",
        -9.151109884573703
      ],
      [
        "198",
        -9.151109894091064
      ],
      [
        "पंजाब",
        -9.15111247374024
      ],
      [
        "लश्कर",
        -9.151131905342847
      ],
      [
        "मानेस्त",
        -9.152142923696374
      ],
      [
        "योग्य",
        -9.153164746776465
      ],
      [
        "कसली",
        -9.153555067569815
      ],
      [
        "ङ्कातर",
        -9.15372401784401
      ],
      [
        "ङ्कुडल्या",
        -9.15447054390726
      ],
      [
        "बाब",
        -9.155698597536679
      ],
      [
        "मोठ",
        -9.155930772608045
      ],
      [
        "उल्ल",
        -9.156081707013799
      ],
      [
        "पंचायत",
        -9.157479393903813
      ],
      [
        "गडकर",
        -9.158376178390068
      ],
      [
        "ात्मक",
        -9.161101744284279
      ],
      [
        "वेगवेगळ",
        -9.161881281766616
      ],
      [
        "गेल्या",
        -9.161982733056286
      ],
      [
        "मेळोव",
        -9.163538852847092
      ],
      [
        "न्याय",
        -9.165579276823086
      ],
      [
        "सरकाराक",
        -9.165748498705955
      ],
      [
        "पाळ",
        -9.169336933353822
      ],
      [
        "ुला",
        -9.170719819991046
      ],
      [
        "अप",
        -9.17082931485329
      ],
      [
        "करपाखातीर",
        -9.172548236599901
      ],
      [
        "गती",
        -9.173674348225283
      ],
      [
        "बोवाळ",
        -9.174003432323616
      ],
      [
        "पदक",
        -9.174619918056289
      ],
      [
        "विद्यार्थी",
        -9.174920076368906
      ],
      [
        "उर्जा",
        -9.17493187668881
      ],
      [
        "महिला",
        -9.174966598989265
      ],
      [
        "जतनाय",
        -9.174969860032979
      ],
      [
        "खाजगी",
        -9.17505752654274
      ],
      [
        "खास",
        -9.176040033891304
      ],
      [
        "आयुक्त",
        -9.176208203636358
      ],
      [
        "पास",
        -9.176947891916821
      ],
      [
        "संस्थेचे",
        -9.177826381333938
      ],
      [
        "योग",
        -9.178457176124413
      ],
      [
        "केरळ",
        -9.178829382843103
      ],
      [
        "सहकार्य",
        -9.17909446191181
      ],
      [
        "ेटली",
        -9.180044729302182
      ],
      [
        "तुळसू",
        -9.180383944196828
      ],
      [
        "दिवंक",
        -9.180865729892421
      ],
      [
        "नीला",
        -9.181772518570254
      ],
      [
        "िल्ल्यान",
        -9.183600593150109
      ],
      [
        "बात",
        -9.184456920722809
      ],
      [
        "सूर",
        -9.186496640482686
      ],
      [
        "ऑस्ट्रेलिया",
        -9.187102549962411
      ],
      [
        "दवर",
        -9.18784231162938
      ],
      [
        "व्यक्ती",
        -9.18808391925069
      ],
      [
        "रातीं",
        -9.18832503157682
      ],
      [
        "तंत्रज्ञान",
        -9.18852368445629
      ],
      [
        "उड",
        -9.188893365037872
      ],
      [
        "म्हयन्या",
        -9.189800634847161
      ],
      [
        "उज",
        -9.189916427375614
      ],
      [
        "अन्न",
        -9.190257334148233
      ],
      [
        "उल",
        -9.19063820787908
      ],
      [
        "तंत्रगिन्यान",
        -9.191256405606023
      ],
      [
        "ॠ",
        -9.192949331183458
      ],
      [
        "दुयेंती",
        -9.193045265531168
      ],
      [
        "पाचे",
        -9.193733409328818
      ],
      [
        "आयले",
        -9.1960693576785
      ],
      [
        "ट्र",
        -9.196124434085554
      ],
      [
        "्यानी",
        -9.196702264555379
      ],
      [
        "राख",
        -9.198295109554783
      ],
      [
        "ावन",
        -9.1989529064626
      ],
      [
        "२",
        -9.199121037298143
      ],
      [
        "बांगलादेश",
        -9.199309774481103
      ],
      [
        "थारायला",
        -9.199313664839444
      ],
      [
        "वेंकय्य",
        -9.199445218718145
      ],
      [
        "हाची",
        -9.1995976942279
      ],
      [
        "सुरक्ष",
        -9.200339719752314
      ],
      [
        "उपचार",
        -9.201728149080726
      ],
      [
        "संगीत",
        -9.202834754004535
      ],
      [
        "मध्य",
        -9.202918984533328
      ],
      [
        "मतदार",
        -9.204037422100019
      ],
      [
        "मनशा",
        -9.204449670627795
      ],
      [
        "कशी",
        -9.20569569611613
      ],
      [
        "परिक्षा",
        -9.207811957523614
      ],
      [
        "दव",
        -9.208185810432923
      ],
      [
        "ेच्या",
        -9.21048523256468
      ],
      [
        "मेळ्ळे",
        -9.211790516624703
      ],
      [
        "वर्स",
        -9.212800207582434
      ],
      [
        "प्रभावी",
        -9.213252091262264
      ],
      [
        "पक्षान",
        -9.214483910723274
      ],
      [
        "आसलो",
        -9.214682475556621
      ],
      [
        "हाता",
        -9.215391685169566
      ],
      [
        "मारू",
        -9.215647160794468
      ],
      [
        "सगली",
        -9.216175735939649
      ],
      [
        "करी",
        -9.216261555142086
      ],
      [
        "जाव",
        -9.216396439776144
      ],
      [
        "्मो",
        -9.217444987449538
      ],
      [
        "द्रा",
        -9.218139197436471
      ],
      [
        "ंट",
        -9.21832859670971
      ],
      [
        "साधन",
        -9.218690898153024
      ],
      [
        "आयच्या",
        -9.219169000781408
      ],
      [
        "अमेरिके",
        -9.221137468357696
      ],
      [
        "बू",
        -9.221659693196113
      ],
      [
        "वर्",
        -9.221775451116363
      ],
      [
        "शिक",
        -9.221881222895151
      ],
      [
        "येना",
        -9.222536233380564
      ],
      [
        "एकशे",
        -9.224044707392565
      ],
      [
        "९",
        -9.224309652285667
      ],
      [
        "पुलवामा",
        -9.224311547586833
      ],
      [
        "नितळसाण",
        -9.224347839935328
      ],
      [
        "खर्च",
        -9.224364656314439
      ],
      [
        "नुस्तेमार",
        -9.224680328522687
      ],
      [
        "दितना",
        -9.224753611764207
      ],
      [
        "गावड",
        -9.22482782203654
      ],
      [
        "बार",
        -9.224972706456846
      ],
      [
        "आशिया",
        -9.22498484653866
      ],
      [
        "मुख्यमंत्री",
        -9.225216497966066
      ],
      [
        "वेवस्थे",
        -9.225217491617983
      ],
      [
        "मळ",
        -9.22646187256928
      ],
      [
        "काश्मीर",
        -9.22661800279606
      ],
      [
        "ताले",
        -9.226757408672631
      ],
      [
        "कर्मचा",
        -9.227735236253807
      ],
      [
        "करतल",
        -9.229521018916468
      ],
      [
        "प्राण",
        -9.230227731754404
      ],
      [
        "संवसारा",
        -9.232014106538134
      ],
      [
        "उक्तायला",
        -9.23539641922799
      ],
      [
        "दवरपा",
        -9.236780506925655
      ],
      [
        "घेवप",
        -9.236950344835176
      ],
      [
        "रुप",
        -9.237219613084745
      ],
      [
        "घेवं",
        -9.23765533236189
      ],
      [
        "ृ",
        -9.238265723192367
      ],
      [
        "लांब",
        -9.238561379886391
      ],
      [
        "ावेल्या",
        -9.238567697563779
      ],
      [
        "भुरग्यां",
        -9.23874976413354
      ],
      [
        "बिहार",
        -9.239196340603598
      ],
      [
        "पळेत",
        -9.239306373611328
      ],
      [
        "खरे",
        -9.239480352559493
      ],
      [
        "सुरक्षे",
        -9.24028413689319
      ],
      [
        "तरणाट्यां",
        -9.241769118181356
      ],
      [
        "जल्म",
        -9.242255989383223
      ],
      [
        "काना",
        -9.243706635817777
      ],
      [
        "अदमास",
        -9.245128263571281
      ],
      [
        "तिन",
        -9.245714041332933
      ],
      [
        "प्रधानमंत्र्या",
        -9.245802715451457
      ],
      [
        "काळा",
        -9.247089348141449
      ],
      [
        "नाई",
        -9.247154494842444
      ],
      [
        "ेचो",
        -9.248339638380738
      ],
      [
        "कुल",
        -9.249815548482292
      ],
      [
        "पूर्ण",
        -9.249843139914299
      ],
      [
        "तेरेजमाना",
        -9.24995078205463
      ],
      [
        "कोवीड",
        -9.249957971130092
      ],
      [
        "समाधान",
        -9.24996035438545
      ],
      [
        "केळयां",
        -9.250048694040942
      ],
      [
        "रॅली",
        -9.25020201286153
      ],
      [
        "जयंती",
        -9.250236912824958
      ],
      [
        "अहवाल",
        -9.250678736003598
      ],
      [
        "फावट",
        -9.251116973781308
      ],
      [
        "उलयल",
        -9.252168488657281
      ],
      [
        "न्स",
        -9.252353521038717
      ],
      [
        "आतंकवादा",
        -9.253273386909521
      ],
      [
        "त्रास",
        -9.25414256109511
      ],
      [
        "यान",
        -9.255863505033293
      ],
      [
        "नाशिल्लें",
        -9.256849031112374
      ],
      [
        "गुजरात",
        -9.257352810212852
      ],
      [
        "उक्तायल",
        -9.257855371699723
      ],
      [
        "रू",
        -9.260112204538295
      ],
      [
        "मेळटले",
        -9.261371511766567
      ],
      [
        "ङ्कुडे",
        -9.261504565226458
      ],
      [
        "लयली",
        -9.263623070652066
      ],
      [
        "िल्ले",
        -9.263753225960333
      ],
      [
        "जाल्य",
        -9.263768408079319
      ],
      [
        "फुडे",
        -9.264016309473929
      ],
      [
        "कार्यालया",
        -9.26421711297985
      ],
      [
        "उद",
        -9.264574074438693
      ],
      [
        "भुरगे",
        -9.265306084433703
      ],
      [
        "केस",
        -9.266001272609563
      ],
      [
        "ुच",
        -9.266223897503636
      ],
      [
        "रोजगार",
        -9.267456802772209
      ],
      [
        "बंदी",
        -9.267643601310686
      ],
      [
        "रें",
        -9.268087825013518
      ],
      [
        "म्हाल",
        -9.26943093456907
      ],
      [
        "नागरिकां",
        -9.270053615415499
      ],
      [
        "मंडळा",
        -9.27016323101902
      ],
      [
        "तोंडा",
        -9.270846553569498
      ],
      [
        "कॅ",
        -9.27322933393119
      ],
      [
        "वड",
        -9.274048951180163
      ],
      [
        "मुद्द",
        -9.276122697676598
      ],
      [
        "सिंड्रेला",
        -9.27626646740864
      ],
      [
        "डिजीट",
        -9.276295110021174
      ],
      [
        "शर्मा",
        -9.276342819468109
      ],
      [
        "बरामक",
        -9.276392441124283
      ],
      [
        "तपासणी",
        -9.276744332194635
      ],
      [
        "वीज",
        -9.277729301823888
      ],
      [
        "नियंत्रण",
        -9.279561159630791
      ],
      [
        "प्रवास",
        -9.279779187454583
      ],
      [
        "ङ्केरयेंत",
        -9.279959063486213
      ],
      [
        "मारता",
        -9.280319433663806
      ],
      [
        "मंजुर",
        -9.281197613609642
      ],
      [
        "जिख",
        -9.281264397390055
      ],
      [
        "विस्तार",
        -9.281461634547014
      ],
      [
        "व्हडा",
        -9.2822447076047
      ],
      [
        "जग",
        -9.282367597812481
      ],
      [
        "दाखयल",
        -9.282522246370942
      ],
      [
        "बँके",
        -9.28262621445614
      ],
      [
        "मरे",
        -9.283543024675318
      ],
      [
        "ुल",
        -9.284271217342853
      ],
      [
        "संबंध",
        -9.286818586428733
      ],
      [
        "अधिवेशना",
        -9.287049861417962
      ],
      [
        "फाटल्यान",
        -9.28825035586975
      ],
      [
        "निर्मल",
        -9.288324763226143
      ],
      [
        "जें",
        -9.289457198358818
      ],
      [
        "मंत्रीमंडळा",
        -9.290191141115365
      ],
      [
        "दारा",
        -9.292459279705229
      ],
      [
        "ांग",
        -9.293684698259458
      ],
      [
        "माण",
        -9.295373353061287
      ],
      [
        "कामत",
        -9.296120505739742
      ],
      [
        "वान",
        -9.296483335719016
      ],
      [
        "गीत",
        -9.296661568062804
      ],
      [
        "घालो",
        -9.297065296498308
      ],
      [
        "भुरग्यांक",
        -9.297330377860614
      ],
      [
        "ङ",
        -9.297864470072959
      ],
      [
        "दद",
        -9.298088604199961
      ],
      [
        "वेगळ्या",
        -9.300412226514352
      ],
      [
        "कृ",
        -9.301457803977112
      ],
      [
        "जावं",
        -9.301524354304195
      ],
      [
        "देख",
        -9.301862014225117
      ],
      [
        "ावरवी",
        -9.301969751231972
      ],
      [
        "टीचर",
        -9.302016439896194
      ],
      [
        "तिचे",
        -9.302247481530175
      ],
      [
        "9",
        -9.303196584831113
      ],
      [
        "पिक",
        -9.303386102958296
      ],
      [
        "वेवस्थापन",
        -9.30359723276787
      ],
      [
        "नोंदणी",
        -9.30405952141237
      ],
      [
        "ताये",
        -9.304203012216671
      ],
      [
        "थेट",
        -9.305270925968385
      ],
      [
        "आसल",
        -9.305863021245212
      ],
      [
        "पळेता",
        -9.30606669338011
      ],
      [
        "निर्देश",
        -9.306320594456857
      ],
      [
        "ऱ्या",
        -9.306472341526542
      ],
      [
        "ंचेर",
        -9.306863835004265
      ],
      [
        "उक्तायल्या",
        -9.306905475783758
      ],
      [
        "बसकेक",
        -9.307494088778956
      ],
      [
        "दवरल्या",
        -9.308060261642474
      ],
      [
        "मू",
        -9.3081425036345
      ],
      [
        "पडिल्ल्या",
        -9.30820641075913
      ],
      [
        "देशाचे",
        -9.308468680309552
      ],
      [
        "चि",
        -9.311904330916116
      ],
      [
        "खंड",
        -9.31201911833956
      ],
      [
        "अनु",
        -9.313684761135674
      ],
      [
        "फुलां",
        -9.314324998619242
      ],
      [
        "खेळांत",
        -9.31451828360977
      ],
      [
        "ङ्काटी",
        -9.314613853928082
      ],
      [
        "लोका",
        -9.315108281712417
      ],
      [
        "अमेरिक",
        -9.316673756673152
      ],
      [
        "बाग",
        -9.31785980933693
      ],
      [
        "वेगळे",
        -9.317903382759539
      ],
      [
        "सांवळ",
        -9.319028442616542
      ],
      [
        "घेवपाची",
        -9.319585552692645
      ],
      [
        "काभ",
        -9.319782585838004
      ],
      [
        "देळ",
        -9.320680798137616
      ],
      [
        "मेज",
        -9.32211243947015
      ],
      [
        "शिर",
        -9.322887606464977
      ],
      [
        "युक्त",
        -9.323318779113507
      ],
      [
        "पडलो",
        -9.323712597522373
      ],
      [
        "शाळा",
        -9.323740876450685
      ],
      [
        "बाळ",
        -9.323962556481689
      ],
      [
        "गेर",
        -9.32556644406642
      ],
      [
        "परतू",
        -9.328558284062503
      ],
      [
        "यंत्रणा",
        -9.328638575887402
      ],
      [
        "संपर्क",
        -9.331080414378038
      ],
      [
        "अधिकृत",
        -9.331098078089235
      ],
      [
        "खूप",
        -9.331480845457829
      ],
      [
        "इराण",
        -9.331558737963338
      ],
      [
        "सुदारणा",
        -9.331652234163625
      ],
      [
        "साहित्या",
        -9.33363651951886
      ],
      [
        "ब्र",
        -9.333920506108335
      ],
      [
        "दर्या",
        -9.333983057715178
      ],
      [
        "उरतल",
        -9.335191337337783
      ],
      [
        "घरमंत्र",
        -9.335643768816645
      ],
      [
        "खबराकारांक",
        -9.336742936918098
      ],
      [
        "फाल्यां",
        -9.337227723091791
      ],
      [
        "कासय",
        -9.337492168908504
      ],
      [
        "वेचणुके",
        -9.337596870990339
      ],
      [
        "कसले",
        -9.338672142505413
      ],
      [
        "क्षी",
        -9.339152416485414
      ],
      [
        "ंब",
        -9.339431756096516
      ],
      [
        "खबराकारां",
        -9.339619233059185
      ],
      [
        "तसो",
        -9.33983146882219
      ],
      [
        "शस्त्र",
        -9.340162963207876
      ],
      [
        "हाडू",
        -9.34108081985815
      ],
      [
        "ञ्च्",
        -9.341896880731722
      ],
      [
        "चेय",
        -9.342733227668255
      ],
      [
        "ङ्काल्या",
        -9.345182916450932
      ],
      [
        "इं",
        -9.345386337376407
      ],
      [
        "ातल्यान",
        -9.34633083476851
      ],
      [
        "पडटल",
        -9.346811426926712
      ],
      [
        "गण",
        -9.347403229255079
      ],
      [
        "बायले",
        -9.34831631884198
      ],
      [
        "रस्त्या",
        -9.348737756402368
      ],
      [
        "बळी",
        -9.34908369918659
      ],
      [
        "तरेक",
        -9.350147934308477
      ],
      [
        "भाय",
        -9.35247814719834
      ],
      [
        "तेन्नां",
        -9.352818342931966
      ],
      [
        "हाडल",
        -9.353289680377403
      ],
      [
        "पावले",
        -9.354282285371125
      ],
      [
        "ओप",
        -9.354480449216016
      ],
      [
        "पळे",
        -9.355347886418954
      ],
      [
        "दहशतवाद",
        -9.35625235242054
      ],
      [
        "इन",
        -9.35682538445572
      ],
      [
        "प्रदेशांत",
        -9.356868387970685
      ],
      [
        "ग्र",
        -9.35742603493138
      ],
      [
        "ऑ",
        -9.357977435244727
      ],
      [
        "भंत्री",
        -9.358217521306592
      ],
      [
        "धाव",
        -9.359444833101065
      ],
      [
        "मतमेजणी",
        -9.359642861815185
      ],
      [
        "मार्गदर्शक",
        -9.359656827782693
      ],
      [
        "संविधान",
        -9.359717297672848
      ],
      [
        "जनरल",
        -9.359848676129383
      ],
      [
        "गुरू",
        -9.360154355371417
      ],
      [
        "उप्रांत",
        -9.360393432955817
      ],
      [
        "घोव",
        -9.360953022449664
      ],
      [
        "जाग्या",
        -9.361065973950256
      ],
      [
        "महाराष्ट्र",
        -9.361176834354197
      ],
      [
        "पळ",
        -9.361392713727438
      ],
      [
        "जेव",
        -9.362179517196761
      ],
      [
        "जम",
        -9.362214773478446
      ],
      [
        "भारताक",
        -9.362248303516733
      ],
      [
        "आत्म",
        -9.362867675648221
      ],
      [
        "सपन",
        -9.363681867323487
      ],
      [
        "म्हामती",
        -9.364240836890252
      ],
      [
        "यतले",
        -9.364428958443932
      ],
      [
        "म्हत्वाचे",
        -9.364518591690754
      ],
      [
        "ल्ल",
        -9.364906959309563
      ],
      [
        "देशातल्या",
        -9.365301679356135
      ],
      [
        "नामनेचे",
        -9.365677602928642
      ],
      [
        "जिव",
        -9.36615649053069
      ],
      [
        "िल",
        -9.367167734287115
      ],
      [
        "लेखक",
        -9.367676207186841
      ],
      [
        "मदत",
        -9.370040005176321
      ],
      [
        "र्स",
        -9.370753879323054
      ],
      [
        "ुंक",
        -9.37163913198163
      ],
      [
        "र्ज",
        -9.37205165023672
      ],
      [
        "कार्यशाळ",
        -9.372948484902135
      ],
      [
        "येवजण्य",
        -9.374001749264139
      ],
      [
        "लागल्या",
        -9.374107582095228
      ],
      [
        "करच",
        -9.37533936146683
      ],
      [
        "उबे",
        -9.375485459920817
      ],
      [
        "तरेची",
        -9.375486336051353
      ],
      [
        "वास",
        -9.376846334720703
      ],
      [
        "हाय",
        -9.37763952491227
      ],
      [
        "तिची",
        -9.379160806163952
      ],
      [
        "करपाचेर",
        -9.379422551856509
      ],
      [
        "प्रदर्शन",
        -9.380370618048126
      ],
      [
        "साल",
        -9.380638839096498
      ],
      [
        "शाणी",
        -9.38410248338392
      ],
      [
        "येतले",
        -9.384133682307432
      ],
      [
        "प्रस्ना",
        -9.384221975716853
      ],
      [
        "काडपा",
        -9.384936600327192
      ],
      [
        "दळां",
        -9.385433867544013
      ],
      [
        "्ला",
        -9.385812070999686
      ],
      [
        "खेळगड",
        -9.386000857065982
      ],
      [
        "लम",
        -9.386997894693042
      ],
      [
        "कोट",
        -9.387061846628757
      ],
      [
        "8",
        -9.388828078085297
      ],
      [
        "बल",
        -9.388915254695327
      ],
      [
        "डिसेंबर",
        -9.389054530785236
      ],
      [
        "चंपावती",
        -9.389057182409713
      ],
      [
        "वितरावण",
        -9.38909090663641
      ],
      [
        "वाणि",
        -9.389107523641728
      ],
      [
        "नगराध्यक्ष",
        -9.38913526930342
      ],
      [
        "हिंदी",
        -9.389148064454398
      ],
      [
        "प्रभू",
        -9.389327612650018
      ],
      [
        "भारताची",
        -9.389413398961908
      ],
      [
        "ऩय",
        -9.389793761648164
      ],
      [
        "रूप",
        -9.390245472754879
      ],
      [
        "म्हजें",
        -9.390463744451795
      ],
      [
        "रावप",
        -9.390608368667746
      ],
      [
        "वेले",
        -9.390854406344147
      ],
      [
        "नासतना",
        -9.390904723083931
      ],
      [
        "संदर्भात",
        -9.391199227702682
      ],
      [
        "वावुरता",
        -9.391374737271049
      ],
      [
        "कवी",
        -9.392504259759137
      ],
      [
        "न्हिद",
        -9.392898273166145
      ],
      [
        "परिशद",
        -9.394643592753674
      ],
      [
        "समाजा",
        -9.396002067816234
      ],
      [
        "अश्या",
        -9.396698039717581
      ],
      [
        "ज्ञ",
        -9.39727988057182
      ],
      [
        "दल",
        -9.397317360096865
      ],
      [
        "डाव",
        -9.399021362166929
      ],
      [
        "आयिल्लो",
        -9.39964088725248
      ],
      [
        "कितल्याश",
        -9.4008521042367
      ],
      [
        "श्या",
        -9.400964763475574
      ],
      [
        "सत्य",
        -9.40181350808648
      ],
      [
        "गोम",
        -9.402643566524802
      ],
      [
        "राज्यात",
        -9.40269938653572
      ],
      [
        "ळ्ळ",
        -9.402825266789572
      ],
      [
        "पल",
        -9.403454484020454
      ],
      [
        "अळी",
        -9.40460255501328
      ],
      [
        "महोत्सव",
        -9.405314565214553
      ],
      [
        "सकाळ",
        -9.406081786134418
      ],
      [
        "ेचाळीस",
        -9.4063563317413
      ],
      [
        "टया",
        -9.406819579171021
      ],
      [
        "सुख",
        -9.407474222471393
      ],
      [
        "भाशा",
        -9.407568209700868
      ],
      [
        "डू",
        -9.407785875930308
      ],
      [
        "मना",
        -9.408693569988804
      ],
      [
        "्याची",
        -9.411060934757092
      ],
      [
        "नाग",
        -9.413983481974455
      ],
      [
        "मुळाव्य",
        -9.41462272232608
      ],
      [
        "वाडत",
        -9.416042908727636
      ],
      [
        "कुडीत",
        -9.416900972592648
      ],
      [
        "लावप",
        -9.417108517967055
      ],
      [
        "बेग",
        -9.418187677237011
      ],
      [
        "हू",
        -9.41820445419513
      ],
      [
        "स्थान",
        -9.418614643362845
      ],
      [
        "बऱ्या",
        -9.418960577458607
      ],
      [
        "”",
        -9.419357495785523
      ],
      [
        "इत्सा",
        -9.419359253649146
      ],
      [
        "जम्मु",
        -9.419359279537133
      ],
      [
        "सुनावणी",
        -9.419360472959289
      ],
      [
        "राहुल",
        -9.419373939064354
      ],
      [
        "ङ्किल्म",
        -9.419396255482775
      ],
      [
        "नारायण",
        -9.419402420885856
      ],
      [
        "वेगळी",
        -9.419470624770266
      ],
      [
        "तुज्या",
        -9.419781261725579
      ],
      [
        "लुकसाण",
        -9.419984957636709
      ],
      [
        "श्नय",
        -9.4200879300517
      ],
      [
        "आपणे",
        -9.420507101747061
      ],
      [
        "हुंवार",
        -9.421242100845056
      ],
      [
        "पावलो",
        -9.421560422712895
      ],
      [
        "फो",
        -9.421807202175835
      ],
      [
        "आयुष",
        -9.422178743807777
      ],
      [
        "जवान",
        -9.422182875058919
      ],
      [
        "दुख",
        -9.4224512281666
      ],
      [
        "प्प",
        -9.422707456368395
      ],
      [
        "थे",
        -9.422773245355398
      ],
      [
        "साठ",
        -9.423008405340264
      ],
      [
        "आद",
        -9.423038270796358
      ],
      [
        "विभाग",
        -9.424098242311295
      ],
      [
        "वयकाया",
        -9.424926030027926
      ],
      [
        "आयतारा",
        -9.425334687155015
      ],
      [
        "आव",
        -9.425341970732141
      ],
      [
        "आशय",
        -9.42647487413698
      ],
      [
        "वयले",
        -9.427336121614974
      ],
      [
        "सान",
        -9.427937444652969
      ],
      [
        "रावन",
        -9.42847937832255
      ],
      [
        "बांदकाम",
        -9.428699087554548
      ],
      [
        "प्रशासना",
        -9.429149674955388
      ],
      [
        "जिणे",
        -9.42927829313297
      ],
      [
        "भुरगीं",
        -9.429551254019117
      ],
      [
        "कुडी",
        -9.429654826861013
      ],
      [
        "पै",
        -9.431396677611547
      ],
      [
        "नाम",
        -9.432841650133271
      ],
      [
        "कोविड",
        -9.433204292779916
      ],
      [
        "ऑन",
        -9.43330690902425
      ],
      [
        "महात्म",
        -9.433613065017123
      ],
      [
        "माय",
        -9.433715366026462
      ],
      [
        "संवसारांत",
        -9.433728088166768
      ],
      [
        "रंजन",
        -9.43378005684214
      ],
      [
        "यू",
        -9.43595332804695
      ],
      [
        "करूं",
        -9.436800464231869
      ],
      [
        "न्ही",
        -9.437604485101609
      ],
      [
        "शांती",
        -9.439620085209668
      ],
      [
        "उबार",
        -9.440200605479244
      ],
      [
        "गळ",
        -9.440529660603572
      ],
      [
        "इतल्या",
        -9.441273303840438
      ],
      [
        "सर्ग",
        -9.442093699881099
      ],
      [
        "भुरग्या",
        -9.442703946949168
      ],
      [
        "पुस्तक",
        -9.445320963889548
      ],
      [
        "मुखेलमंत्र्यां",
        -9.44546073350503
      ],
      [
        "गडे",
        -9.446115856921761
      ],
      [
        "कोणे",
        -9.446275006604333
      ],
      [
        "पालिका",
        -9.446566406128241
      ],
      [
        "स्थिती",
        -9.447766201672723
      ],
      [
        "वेंच",
        -9.448010981098477
      ],
      [
        "घालू",
        -9.44834963886509
      ],
      [
        "कायम",
        -9.449727357081631
      ],
      [
        "५",
        -9.45048044802575
      ],
      [
        "समारोप",
        -9.450655148427979
      ],
      [
        "वें",
        -9.450872549653798
      ],
      [
        "आनंद",
        -9.450981900502228
      ],
      [
        "सरदेसाय",
        -9.451891779463137
      ],
      [
        "लायल",
        -9.451956571540778
      ],
      [
        "पळौ",
        -9.452170454827353
      ],
      [
        "पणजी",
        -9.452591928108717
      ],
      [
        "सारको",
        -9.453269486319117
      ],
      [
        "म्हणटा",
        -9.453429779730483
      ],
      [
        "म्हामार्ग",
        -9.453737842459837
      ],
      [
        "धी",
        -9.45484611391702
      ],
      [
        "मोठ्या",
        -9.455263344941994
      ],
      [
        "वु",
        -9.455689656141324
      ],
      [
        "वचूंक",
        -9.456349222615994
      ],
      [
        "निक",
        -9.456763464664405
      ],
      [
        "आयकुपा",
        -9.456769255999234
      ],
      [
        "शकू",
        -9.457726780382496
      ],
      [
        "नागरीक",
        -9.458909536122409
      ],
      [
        "म्हणपाच",
        -9.46127129166926
      ],
      [
        "ष्ठ",
        -9.46158714866467
      ],
      [
        "दनपारां",
        -9.462186081376261
      ],
      [
        "गेल्ले",
        -9.462283609223464
      ],
      [
        "दिसना",
        -9.462595359063336
      ],
      [
        "मोहिमे",
        -9.463397762830995
      ],
      [
        "दोळयां",
        -9.463468231708214
      ],
      [
        "चाळीस",
        -9.464108148020685
      ],
      [
        "जून",
        -9.464912488998829
      ],
      [
        "देशी",
        -9.4650644751522
      ],
      [
        "सगळ्यां",
        -9.465694387372462
      ],
      [
        "दय",
        -9.465820744594957
      ],
      [
        "सामान्य",
        -9.46680385381271
      ],
      [
        "वाठारात",
        -9.46692475903506
      ],
      [
        "घात",
        -9.467831173362066
      ],
      [
        "लेख",
        -9.46880394583043
      ],
      [
        "येवपा",
        -9.46905561092445
      ],
      [
        "उद्देगीक",
        -9.469428316463441
      ],
      [
        "वाह",
        -9.4703576660465
      ],
      [
        "्यांक",
        -9.470439241888025
      ],
      [
        "दुमेंती",
        -9.471757837947012
      ],
      [
        "उलय",
        -9.473746651233832
      ],
      [
        "राजस्थान",
        -9.474434893456387
      ],
      [
        "तरणाट्यांक",
        -9.475155691387679
      ],
      [
        "दें",
        -9.475717370729509
      ],
      [
        "जागो",
        -9.475989149148447
      ],
      [
        "सुदार",
        -9.476613352507428
      ],
      [
        "ताल",
        -9.477384445173898
      ],
      [
        "चल्ल्या",
        -9.47790960184915
      ],
      [
        "दाखोव",
        -9.478255535572892
      ],
      [
        "दिसांच",
        -9.478294761514473
      ],
      [
        "ॅट",
        -9.478349073029097
      ],
      [
        "प्रधानमंत्र्यां",
        -9.478915274650095
      ],
      [
        "्त",
        -9.478921937361193
      ],
      [
        "वाच",
        -9.479731748140079
      ],
      [
        "वेचणूके",
        -9.480857691312178
      ],
      [
        "सुचोवणी",
        -9.481716502362689
      ],
      [
        "बय",
        -9.48240379237783
      ],
      [
        "३",
        -9.48273691537516
      ],
      [
        "व्दिप",
        -9.482867827754898
      ],
      [
        "शिटकावणी",
        -9.482890273472641
      ],
      [
        "चांचण",
        -9.482900149793181
      ],
      [
        "ेश्ठ",
        -9.482947024315138
      ],
      [
        "स्वामी",
        -9.482986305130495
      ],
      [
        "तुमका",
        -9.483003415937667
      ],
      [
        "उदेंत",
        -9.483756896064332
      ],
      [
        "पैशे",
        -9.483850768043594
      ],
      [
        "विषय",
        -9.484123912119033
      ],
      [
        "निवड",
        -9.484275960468803
      ],
      [
        "राजकारण",
        -9.484802325190698
      ],
      [
        "जिल्हो",
        -9.484824547195235
      ],
      [
        "स्वा",
        -9.484851499402792
      ],
      [
        "मतां",
        -9.485615875639247
      ],
      [
        "यांनी",
        -9.485661547666627
      ],
      [
        "गोड",
        -9.485801428751143
      ],
      [
        "वेच",
        -9.486322784731913
      ],
      [
        "तंत्र",
        -9.486659246666953
      ],
      [
        "कुळ",
        -9.487375745205023
      ],
      [
        "सह",
        -9.48774421640301
      ],
      [
        "सर्व",
        -9.487883422572779
      ],
      [
        "विकस",
        -9.488254068060776
      ],
      [
        "बापाय",
        -9.488380049081353
      ],
      [
        "प्रधान",
        -9.489110434423274
      ],
      [
        "कुटुंब",
        -9.489516193341123
      ],
      [
        "सऱ्या",
        -9.490474088745975
      ],
      [
        "ूम",
        -9.49069691691288
      ],
      [
        "बरोव",
        -9.491494749452066
      ],
      [
        "रोह",
        -9.492299493023062
      ],
      [
        "कथाकार",
        -9.493344794662402
      ],
      [
        "यांत",
        -9.493778952398909
      ],
      [
        "खु",
        -9.494307041499
      ],
      [
        "पक्षांच",
        -9.494873052367268
      ],
      [
        "अभियाना",
        -9.495356061876873
      ],
      [
        "चलये",
        -9.496834592898932
      ],
      [
        "महाराष्ट्रांत",
        -9.497328781946646
      ],
      [
        "थंड",
        -9.497629741298539
      ],
      [
        "अंदू",
        -9.497723129193883
      ],
      [
        "केशी",
        -9.497740615245586
      ],
      [
        "ाल",
        -9.498704755739183
      ],
      [
        "प्रकल्पा",
        -9.499000618670092
      ],
      [
        "दादल्यांच्य",
        -9.499020264805441
      ],
      [
        "थंयच्या",
        -9.49974438952447
      ],
      [
        "दीप",
        -9.499997274392074
      ],
      [
        "मैदाना",
        -9.500751846683658
      ],
      [
        "देवळांत",
        -9.50108354229329
      ],
      [
        "वाशिना",
        -9.501105535652291
      ],
      [
        "पुस्तकां",
        -9.501517254898541
      ],
      [
        "ग्",
        -9.50159469763894
      ],
      [
        "स्वच्छ",
        -9.501921707747062
      ],
      [
        "पात्र",
        -9.502369039786656
      ],
      [
        "सुवाळ",
        -9.50290068305266
      ],
      [
        "सोदता",
        -9.503519004975423
      ],
      [
        "सव",
        -9.505353388362392
      ],
      [
        "क्षेत्रांत",
        -9.505388428852974
      ],
      [
        "खंयच्या",
        -9.505394705976464
      ],
      [
        "पदा",
        -9.505448258116097
      ],
      [
        "साक",
        -9.507568526748594
      ],
      [
        "स्ती",
        -9.507680055219435
      ],
      [
        "आमचे",
        -9.507955976688086
      ],
      [
        "कशे",
        -9.510287699736953
      ],
      [
        "मार्ग",
        -9.512257080286012
      ],
      [
        "कांत",
        -9.51264223347132
      ],
      [
        "ळीत",
        -9.513112427701273
      ],
      [
        "निवेदना",
        -9.513362999167667
      ],
      [
        "्यु",
        -9.514739032536745
      ],
      [
        "श्रीम",
        -9.515411158666467
      ],
      [
        "शु",
        -9.515461849114782
      ],
      [
        "स्वता",
        -9.515828851690546
      ],
      [
        "८",
        -9.516071165519763
      ],
      [
        "पर्यावरण",
        -9.516199360545594
      ],
      [
        "तेंडुलक",
        -9.516202196176431
      ],
      [
        "मु्नत",
        -9.516257308101352
      ],
      [
        "राठो",
        -9.516278164146884
      ],
      [
        "सोपुत",
        -9.516283155087674
      ],
      [
        "भाषेतल",
        -9.516331113843354
      ],
      [
        "उलोवणी",
        -9.51644979043203
      ],
      [
        "तुळशी",
        -9.516518413383345
      ],
      [
        "निश्चीत",
        -9.51654208248183
      ],
      [
        "नवो",
        -9.516647119783045
      ],
      [
        "च्ये",
        -9.516674916514507
      ],
      [
        "ज्ञान",
        -9.517105023582731
      ],
      [
        "लीं",
        -9.517252442702766
      ],
      [
        "माम",
        -9.517339809696695
      ],
      [
        "तुमच्या",
        -9.517794178624499
      ],
      [
        "नव्यान",
        -9.518047664631528
      ],
      [
        "एकोड",
        -9.518490684186585
      ],
      [
        "आंकडो",
        -9.518659077618441
      ],
      [
        "वचपाक",
        -9.518756928452063
      ],
      [
        "बेबी",
        -9.518845752359958
      ],
      [
        "दिवचल",
        -9.520414614768065
      ],
      [
        "लोकांचे",
        -9.52132771637412
      ],
      [
        "भलायके",
        -9.521817842371771
      ],
      [
        "कीर",
        -9.522011763687065
      ],
      [
        "गांवा",
        -9.522076210034403
      ],
      [
        "देड",
        -9.523175904721171
      ],
      [
        "डून",
        -9.523643874136589
      ],
      [
        "हाचो",
        -9.524498953196474
      ],
      [
        "पोर",
        -9.524508724340855
      ],
      [
        "निर्णयाक",
        -9.525116726043919
      ],
      [
        "िर",
        -9.525259654187622
      ],
      [
        "कथेत",
        -9.525336427134514
      ],
      [
        "सोमारा",
        -9.52538540295347
      ],
      [
        "वसंत",
        -9.525717064559071
      ],
      [
        "संघटना",
        -9.525817872816605
      ],
      [
        "रवी",
        -9.526683985708571
      ],
      [
        "a",
        -9.527836765929154
      ],
      [
        "पळयता",
        -9.528105025828696
      ],
      [
        "समुदाया",
        -9.528547638884866
      ],
      [
        "खाते",
        -9.5289358515419
      ],
      [
        "ब्",
        -9.529138593202966
      ],
      [
        "देवाक",
        -9.52915723581666
      ],
      [
        "्याचो",
        -9.532239026468194
      ],
      [
        "िश",
        -9.532846892560366
      ],
      [
        "दावो",
        -9.533232843185129
      ],
      [
        "क्क",
        -9.533392558422362
      ],
      [
        "पुरो",
        -9.534042037922747
      ],
      [
        "माल",
        -9.53487973374339
      ],
      [
        "प्रति",
        -9.535242004058262
      ],
      [
        "व्य",
        -9.535962027792465
      ],
      [
        "तीस",
        -9.538335124430844
      ],
      [
        "राज्यांतल्या",
        -9.53890905278999
      ],
      [
        "उत्सवा",
        -9.539092722149281
      ],
      [
        "सयकाया",
        -9.54009096044577
      ],
      [
        "आजये",
        -9.540924635345633
      ],
      [
        "लोकांची",
        -9.541842515423905
      ],
      [
        "दोळयांत",
        -9.542293462453422
      ],
      [
        "नाटकां",
        -9.543960598973133
      ],
      [
        "करताले",
        -9.545086770658287
      ],
      [
        "चित",
        -9.54528174487734
      ],
      [
        "पंगडा",
        -9.545391569798708
      ],
      [
        "बसल",
        -9.549569487156157
      ],
      [
        "संदी",
        -9.54976172910096
      ],
      [
        "भोद",
        -9.550203638644001
      ],
      [
        "जैतिवंत",
        -9.550682451604763
      ],
      [
        "हरयाणा",
        -9.55068646204325
      ],
      [
        "राजधानी",
        -9.550698294989008
      ],
      [
        "सावयकार",
        -9.550709167561381
      ],
      [
        "रेडियो",
        -9.550758915935253
      ],
      [
        "लोकशाय",
        -9.550770990826553
      ],
      [
        "ट्रंप",
        -9.550833315358716
      ],
      [
        "मोलाद",
        -9.550980324729522
      ],
      [
        "शेनवार",
        -9.551031140168018
      ],
      [
        "सारखे",
        -9.551039800617493
      ],
      [
        "भोंवडी",
        -9.551061156890455
      ],
      [
        "वेली",
        -9.55119902471864
      ],
      [
        "सहयोग",
        -9.551319041771755
      ],
      [
        "दुसरी",
        -9.55159590191464
      ],
      [
        "झगड",
        -9.551831770274816
      ],
      [
        "सज्ज",
        -9.55190040134875
      ],
      [
        "फुडल्या",
        -9.55218826740185
      ],
      [
        "घोश",
        -9.552213958907675
      ],
      [
        "प्रादेश",
        -9.552829797553937
      ],
      [
        "बायला",
        -9.553059162960341
      ],
      [
        "दूरदर्शना",
        -9.553231955584987
      ],
      [
        "आयटी",
        -9.554201472706092
      ],
      [
        "कार्यकार",
        -9.554430154531694
      ],
      [
        "विशयाचे",
        -9.554562842101541
      ],
      [
        "न्यायाधिश",
        -9.555032235940192
      ],
      [
        "माळ",
        -9.556136550810265
      ],
      [
        "जिल्लो",
        -9.557542775856279
      ],
      [
        "आमज",
        -9.55774699056486
      ],
      [
        "अॅ",
        -9.55860555814166
      ],
      [
        "जावडेकर",
        -9.559369043899276
      ],
      [
        "देळा",
        -9.559471858158405
      ],
      [
        "केल्यो",
        -9.55993854921604
      ],
      [
        "अधिकार",
        -9.560906225121226
      ],
      [
        "रद्द",
        -9.561280425386348
      ],
      [
        "मता",
        -9.562317436378994
      ],
      [
        "आयिल्ल",
        -9.562480207001256
      ],
      [
        "अर्",
        -9.563225360992805
      ],
      [
        "भेटी",
        -9.563289612043526
      ],
      [
        "धन",
        -9.563586509407662
      ],
      [
        "उपक्रम",
        -9.56447034377088
      ],
      [
        "ताळ",
        -9.566111583696728
      ],
      [
        "सरकाराचे",
        -9.567424673598975
      ],
      [
        "अड",
        -9.567525196371644
      ],
      [
        "मळा",
        -9.567548276607646
      ],
      [
        "अव",
        -9.567654015456732
      ],
      [
        "काळजा",
        -9.568309810771549
      ],
      [
        "नाशिल्ल्या",
        -9.568460201441447
      ],
      [
        "तेल",
        -9.568714105794934
      ],
      [
        "वेळा",
        -9.569937206189811
      ],
      [
        "ल्म",
        -9.570691488722066
      ],
      [
        "श्रम",
        -9.571391480563076
      ],
      [
        "रावपा",
        -9.571397109413802
      ],
      [
        "मारला",
        -9.572024076000034
      ],
      [
        "द्द",
        -9.572057628182412
      ],
      [
        "जारा",
        -9.573486282312473
      ],
      [
        "7",
        -9.57514765583254
      ],
      [
        "तपास",
        -9.575363714173855
      ],
      [
        "येन",
        -9.575736159250582
      ],
      [
        "मेळू",
        -9.57607594069544
      ],
      [
        "बका",
        -9.576490501289857
      ],
      [
        "रावतल",
        -9.578601554824274
      ],
      [
        "ताली",
        -9.579154732290519
      ],
      [
        "पाड",
        -9.579567933276632
      ],
      [
        "त्तर",
        -9.579697910530454
      ],
      [
        "यादी",
        -9.579775773663087
      ],
      [
        "ङ्कोन",
        -9.580557225497945
      ],
      [
        "येर",
        -9.581396616186892
      ],
      [
        "करपाचें",
        -9.582532862201809
      ],
      [
        "दिवचो",
        -9.582902889261307
      ],
      [
        "लाठाया",
        -9.58385585566137
      ],
      [
        "ओड",
        -9.584099877709171
      ],
      [
        "घया",
        -9.58454944948066
      ],
      [
        "जाती",
        -9.584810107793619
      ],
      [
        "आव्हान",
        -9.58496370499368
      ],
      [
        "बड",
        -9.585581080991453
      ],
      [
        "रॉ",
        -9.58558585503989
      ],
      [
        "४",
        -9.586268570408238
      ],
      [
        "गंभीर",
        -9.586396249728237
      ],
      [
        "कुशळटाय",
        -9.586401505094862
      ],
      [
        "गर्दी",
        -9.586402663136669
      ],
      [
        "टक्के",
        -9.586411017141696
      ],
      [
        "मृद",
        -9.586434348183616
      ],
      [
        "तजवीज",
        -9.586457495388778
      ],
      [
        "उणो",
        -9.586662121062483
      ],
      [
        "वस्तादपण",
        -9.58670267806329
      ],
      [
        "सोपूत",
        -9.586760558210738
      ],
      [
        "वित्त",
        -9.587032668636414
      ],
      [
        "जाहिर",
        -9.58716175309696
      ],
      [
        "दोळ",
        -9.58728172451679
      ],
      [
        "चीना",
        -9.587361328981642
      ],
      [
        "मुजत",
        -9.587487586104574
      ],
      [
        "पोस्ट",
        -9.587582835159083
      ],
      [
        "लग्ना",
        -9.587770293693065
      ],
      [
        "ङ्काटल",
        -9.588154442531248
      ],
      [
        "वाठारानी",
        -9.58884601023366
      ],
      [
        "चालु",
        -9.589249744323308
      ],
      [
        "चाय",
        -9.589273883676313
      ],
      [
        "म्हणयार",
        -9.589754095542876
      ],
      [
        "पट्ट",
        -9.590278775688807
      ],
      [
        "ङया",
        -9.590303181860335
      ],
      [
        "लेऱा",
        -9.590315357427682
      ],
      [
        "मतदारसंघा",
        -9.59050633890539
      ],
      [
        "हांवे",
        -9.59101557120364
      ],
      [
        "ओंपली",
        -9.591217845174448
      ],
      [
        "टु",
        -9.59196122154422
      ],
      [
        "कडच्यान",
        -9.592572252476334
      ],
      [
        "एकोण",
        -9.592608376902621
      ],
      [
        "फे",
        -9.593116548497507
      ],
      [
        "सप्तकां",
        -9.594674224649486
      ],
      [
        "साहित्यीक",
        -9.594905903942228
      ],
      [
        "सर्वा",
        -9.59529248601649
      ],
      [
        "जाल्मा",
        -9.595418599531616
      ],
      [
        "वाई",
        -9.596184663923335
      ],
      [
        "घालता",
        -9.596451678454452
      ],
      [
        "दिशा",
        -9.596785070153926
      ],
      [
        "अशोक",
        -9.597079089843195
      ],
      [
        "निर्म",
        -9.597328319044067
      ],
      [
        "परब",
        -9.597397641390195
      ],
      [
        "तकली",
        -9.597573046047822
      ],
      [
        "र्ट",
        -9.598964802730585
      ],
      [
        "त्याच",
        -9.599624543364463
      ],
      [
        "अटक",
        -9.599905949694588
      ],
      [
        "आजून",
        -9.600937590733821
      ],
      [
        "शास",
        -9.601170739394185
      ],
      [
        "सण",
        -9.601902176614374
      ],
      [
        "केंद्रि",
        -9.603219631778154
      ],
      [
        "कोयसांवा",
        -9.603328385544744
      ],
      [
        "इमारती",
        -9.603899053797903
      ],
      [
        "गय",
        -9.604838005856925
      ],
      [
        "अतिर",
        -9.604986084146047
      ],
      [
        "सप्तक",
        -9.605868634822393
      ],
      [
        "दोग",
        -9.605933986086608
      ],
      [
        "सोंप",
        -9.606125284517805
      ],
      [
        "चडांत",
        -9.607749314946112
      ],
      [
        "प्त",
        -9.60805497404916
      ],
      [
        "सांस्कृती",
        -9.608415029797348
      ],
      [
        "माड",
        -9.608896868722649
      ],
      [
        "वांग",
        -9.610823230753113
      ],
      [
        "डूंक",
        -9.611668201345813
      ],
      [
        "जपान",
        -9.611723804347557
      ],
      [
        "जैता",
        -9.612454516535477
      ],
      [
        "आपुण",
        -9.61422826685232
      ],
      [
        "ाऱ्या",
        -9.614810604852531
      ],
      [
        "ताचेर",
        -9.614847852300635
      ],
      [
        "बॉल",
        -9.61528475218329
      ],
      [
        "चित्र",
        -9.615752458698474
      ],
      [
        "पडल्या",
        -9.616079313919595
      ],
      [
        "मॅ",
        -9.616405427849148
      ],
      [
        "पय",
        -9.61643813768344
      ],
      [
        "काडले",
        -9.6190699420971
      ],
      [
        "प्रकरणा",
        -9.619636547820754
      ],
      [
        "कोणाक",
        -9.620089061603329
      ],
      [
        "ऩाल",
        -9.620234976497235
      ],
      [
        "दत्तू",
        -9.62046661199406
      ],
      [
        "मंत्र",
        -9.62068539586626
      ],
      [
        "सारकी",
        -9.620811835446279
      ],
      [
        "संबोध",
        -9.62140126341732
      ],
      [
        "पसू",
        -9.622212818237124
      ],
      [
        "आयोग",
        -9.6224232477459
      ],
      [
        "याचिका",
        -9.622903887237225
      ],
      [
        "सिं",
        -9.622904347039391
      ],
      [
        "आळ",
        -9.623172896028938
      ],
      [
        "वर्सु",
        -9.623186965931728
      ],
      [
        "अकादेमी",
        -9.623432976800576
      ],
      [
        "भाशेन",
        -9.623433303684592
      ],
      [
        "न्यायमुर्ती",
        -9.62343355643807
      ],
      [
        "निर्मिती",
        -9.623465703735016
      ],
      [
        "चवकशी",
        -9.62347419484044
      ],
      [
        "प्रत्येक",
        -9.623491713644093
      ],
      [
        "नेमणूक",
        -9.6234987916228
      ],
      [
        "पावंड्या",
        -9.623532817407018
      ],
      [
        "शिवा",
        -9.623604573428683
      ],
      [
        "गरीब",
        -9.623640172258408
      ],
      [
        "माध्यमां",
        -9.624068653340213
      ],
      [
        "विशयांचेर",
        -9.624109066070957
      ],
      [
        "कितली",
        -9.624279576460873
      ],
      [
        "मोबायल",
        -9.6246118227894
      ],
      [
        "सगल्यां",
        -9.624683511705552
      ],
      [
        "डार",
        -9.624791999719012
      ],
      [
        "इनाम",
        -9.624883058908443
      ],
      [
        "भोवमान",
        -9.625100580412804
      ],
      [
        "वळेरे",
        -9.625304805653442
      ],
      [
        "इतली",
        -9.62548049247274
      ],
      [
        "इतलो",
        -9.62555421452657
      ],
      [
        "वात",
        -9.625630503018394
      ],
      [
        "बापू",
        -9.625911466497806
      ],
      [
        "समस्य",
        -9.626689884569986
      ],
      [
        "जातक",
        -9.627903330786292
      ],
      [
        "भोग",
        -9.628044908200854
      ],
      [
        "पळयत",
        -9.628329288618122
      ],
      [
        "म्हन्यांत",
        -9.629409265475987
      ],
      [
        "लों",
        -9.630432741344169
      ],
      [
        "ोवप",
        -9.6317272546199
      ],
      [
        "वर्ग",
        -9.632053515130501
      ],
      [
        "सप्तका",
        -9.632799850767425
      ],
      [
        "वतले",
        -9.632949756736625
      ],
      [
        "कोंकण",
        -9.633501113354294
      ],
      [
        "खबरो",
        -9.633514142862019
      ],
      [
        "क्रि",
        -9.63565046031503
      ],
      [
        "सयकाय",
        -9.63583031674547
      ],
      [
        "पुर्व",
        -9.637817614963122
      ],
      [
        "अमी",
        -9.638531903391229
      ],
      [
        "पळोवं",
        -9.638715468490936
      ],
      [
        "भाज",
        -9.6394329546633
      ],
      [
        "बाजार",
        -9.640644928382926
      ],
      [
        "मोल",
        -9.64071826839611
      ],
      [
        "कोणा",
        -9.6409791628947
      ],
      [
        "ङ्कुडाऱ्यान",
        -9.641257063946068
      ],
      [
        "ल्हवू",
        -9.641445815958688
      ],
      [
        "भूत",
        -9.64221147983694
      ],
      [
        "लायन",
        -9.642393062946885
      ],
      [
        "उमेदी",
        -9.642827008688581
      ],
      [
        "भवनांत",
        -9.644655941807523
      ],
      [
        "दोनशे",
        -9.644849259132458
      ],
      [
        "बसलो",
        -9.644900049876789
      ],
      [
        "कोविडा",
        -9.644960915763903
      ],
      [
        "घेवची",
        -9.645190000785272
      ],
      [
        "शेख",
        -9.645454552069245
      ],
      [
        "मेळची",
        -9.645646194357374
      ],
      [
        "कठी",
        -9.645854870738168
      ],
      [
        "आसूं",
        -9.646013967461313
      ],
      [
        "संदेश",
        -9.648204189492555
      ],
      [
        "ाांणी",
        -9.649572042109526
      ],
      [
        "प्रशासन",
        -9.649912297431097
      ],
      [
        "लु",
        -9.649992645023122
      ],
      [
        "नाच",
        -9.650298686329576
      ],
      [
        "भवन",
        -9.650839605236676
      ],
      [
        "र्क",
        -9.65206601976884
      ],
      [
        "म्हणले",
        -9.653323738690624
      ],
      [
        "हातान",
        -9.65336798549112
      ],
      [
        "त्त्आ",
        -9.655806706705429
      ],
      [
        "कृती",
        -9.65665633797148
      ],
      [
        "दिसांचे",
        -9.656681328351896
      ],
      [
        "ळय",
        -9.656842477554868
      ],
      [
        "भांत्री",
        -9.658903711212027
      ],
      [
        "ट्",
        -9.659241710044828
      ],
      [
        "सरी",
        -9.65959877565328
      ],
      [
        "गव",
        -9.65978535962399
      ],
      [
        "भान",
        -9.660022262054007
      ],
      [
        "घोष",
        -9.660326365849526
      ],
      [
        "व्यो",
        -9.66127577074719
      ],
      [
        "आसू",
        -9.661597170397222
      ],
      [
        "६",
        -9.661765878556006
      ],
      [
        "७",
        -9.66176637383778
      ],
      [
        "m",
        -9.66181082799761
      ],
      [
        "भुखेर",
        -9.661812067057886
      ],
      [
        "s",
        -9.661827509766127
      ],
      [
        "व्हिडिओ",
        -9.661894586808826
      ],
      [
        "घरकान्न",
        -9.661896393256336
      ],
      [
        "विद्यापीठ",
        -9.661909682371274
      ],
      [
        "प्राधान्य",
        -9.66192606641637
      ],
      [
        "हर्ष",
        -9.661964594529914
      ],
      [
        "कोयोना",
        -9.662009329335069
      ],
      [
        "कोंयसांव",
        -9.6620411250814
      ],
      [
        "सुरळीत",
        -9.662059470842507
      ],
      [
        "प्रतिसाद",
        -9.662118371157392
      ],
      [
        "सुभाष",
        -9.662317025506578
      ],
      [
        "उल्लेख",
        -9.66235625206208
      ],
      [
        "वाशीन",
        -9.662427091071029
      ],
      [
        "नितळ",
        -9.662432592963324
      ],
      [
        "विशाणू",
        -9.662495413429825
      ],
      [
        "व्हाय",
        -9.66251356079809
      ],
      [
        "बचाव",
        -9.662642226003353
      ],
      [
        "विधी",
        -9.663003919166021
      ],
      [
        "इकरा",
        -9.663029161460319
      ],
      [
        "मात्स",
        -9.66342621958843
      ],
      [
        "अश्यो",
        -9.663613524933906
      ],
      [
        "वकील",
        -9.663624746781025
      ],
      [
        "धांव",
        -9.664790338326894
      ],
      [
        "ङ्कावटी",
        -9.664928906100378
      ],
      [
        "आनिक",
        -9.664931449021942
      ],
      [
        "विक",
        -9.665012486753536
      ],
      [
        "उंचेल",
        -9.665315343872223
      ],
      [
        "वादी",
        -9.666181390935362
      ],
      [
        "गुळ",
        -9.666182559125028
      ],
      [
        "मोट",
        -9.667090346810618
      ],
      [
        "ांड",
        -9.667217170281916
      ],
      [
        "लायता",
        -9.667693819969383
      ],
      [
        "अकरा",
        -9.66792349662146
      ],
      [
        "पावोवपा",
        -9.66805497832272
      ],
      [
        "चल्ला",
        -9.668311747892494
      ],
      [
        "मॅच",
        -9.668590008187628
      ],
      [
        "सेंट",
        -9.669312939893157
      ],
      [
        "रशिया",
        -9.669429790655085
      ],
      [
        "शिमे",
        -9.669880923784426
      ],
      [
        "वयली",
        -9.670018619010873
      ],
      [
        "गोविंद",
        -9.670323473093223
      ],
      [
        "ङ्केर",
        -9.67080261849889
      ],
      [
        "दाख",
        -9.671500834116316
      ],
      [
        "ङ्कुडारपणा",
        -9.671933395448612
      ],
      [
        "झुजा",
        -9.672054578761982
      ],
      [
        "चडश",
        -9.673772992670001
      ],
      [
        "ज्यो",
        -9.673929522407569
      ],
      [
        "पणा",
        -9.674008836027387
      ],
      [
        "विभागा",
        -9.67449470090785
      ],
      [
        "कृत",
        -9.677459951208077
      ],
      [
        "येवज",
        -9.679533954901643
      ],
      [
        "विमानतळ",
        -9.67997748130661
      ],
      [
        "पर्",
        -9.680558822421652
      ],
      [
        "डटा",
        -9.680607503254372
      ],
      [
        "अमेरिकेचे",
        -9.682213831812373
      ],
      [
        "रोप",
        -9.68339185995022
      ],
      [
        "कान",
        -9.685156422983333
      ],
      [
        "उऩ",
        -9.685525905389026
      ],
      [
        "आतंकवाद्यां",
        -9.686653200963327
      ],
      [
        "दक्षता",
        -9.686862194427992
      ],
      [
        "शेजार",
        -9.686968831062654
      ],
      [
        "नासले",
        -9.687116743042905
      ],
      [
        "जातल",
        -9.687335429194558
      ],
      [
        "०",
        -9.68760350824563
      ],
      [
        "रावले",
        -9.687625495369462
      ],
      [
        "मोगा",
        -9.688394167907994
      ],
      [
        "यादव",
        -9.688620356812145
      ],
      [
        "भानुदास",
        -9.689074079091522
      ],
      [
        "भंग",
        -9.689119297177534
      ],
      [
        "वचप",
        -9.689498670437715
      ],
      [
        "काळी",
        -9.68970477578032
      ],
      [
        "दाद",
        -9.690221817072924
      ],
      [
        "दिवचे",
        -9.690222112630302
      ],
      [
        "उलोवपांत",
        -9.690255662430378
      ],
      [
        "ूल",
        -9.690885464556363
      ],
      [
        "आयुश",
        -9.691928796642781
      ],
      [
        "मेळोवपा",
        -9.691934184796262
      ],
      [
        "वरा",
        -9.692332370688712
      ],
      [
        "त्रि",
        -9.692789212886103
      ],
      [
        "ोरा",
        -9.693403764564483
      ],
      [
        "शिव",
        -9.694231819387022
      ],
      [
        "मद",
        -9.69589045872901
      ],
      [
        "ळेच",
        -9.695929390141394
      ],
      [
        "ानंद",
        -9.696911153026893
      ],
      [
        "दळान",
        -9.697122934874523
      ],
      [
        "कोलो",
        -9.697314092500646
      ],
      [
        "मंत्र्यान",
        -9.698276286160496
      ],
      [
        "आमच",
        -9.70048998258255
      ],
      [
        "न्यायाध",
        -9.70108914585291
      ],
      [
        "राण",
        -9.701824352948364
      ],
      [
        "गुंतवणूक",
        -9.701851600619978
      ],
      [
        "अभिनंदन",
        -9.7018945824701
      ],
      [
        "दामोदर",
        -9.701902872316168
      ],
      [
        "संस्कार",
        -9.701903031464322
      ],
      [
        "विद्यापिठा",
        -9.701909071288773
      ],
      [
        "सुद्धा",
        -9.701957255472575
      ],
      [
        "खोलाये",
        -9.701964901456448
      ],
      [
        "म्हण्टक",
        -9.701973187356662
      ],
      [
        "घडणूक",
        -9.702030199079912
      ],
      [
        "रोखडे",
        -9.702049367377331
      ],
      [
        "बायता",
        -9.702207180163494
      ],
      [
        "यंत्रणे",
        -9.702223715488433
      ],
      [
        "लागसार",
        -9.702250772639522
      ],
      [
        "सामको",
        -9.702622422984039
      ],
      [
        "गरजेचें",
        -9.702792625241564
      ],
      [
        "सद्या",
        -9.702962994354317
      ],
      [
        "महोत्सवा",
        -9.70340436202554
      ],
      [
        "देशभरांत",
        -9.704166115395392
      ],
      [
        "सामाज",
        -9.70441556610156
      ],
      [
        "योगी",
        -9.704552668623938
      ],
      [
        "महोत्सवांत",
        -9.705078167190887
      ],
      [
        "ङ्कुडारपण",
        -9.705258572991792
      ],
      [
        "तुवें",
        -9.705330366718282
      ],
      [
        "घरां",
        -9.705505569469148
      ],
      [
        "दवरला",
        -9.705562602405749
      ],
      [
        "निवळ",
        -9.705812931473716
      ],
      [
        "ालय",
        -9.705900764241852
      ],
      [
        "अभि",
        -9.706027477218402
      ],
      [
        "िम",
        -9.706317861586726
      ],
      [
        "घेतिल्ल्या",
        -9.70763268243086
      ],
      [
        "वाठारातल्या",
        -9.708250081880404
      ],
      [
        "माथ्या",
        -9.708513014462971
      ],
      [
        "पांय",
        -9.708549513194932
      ],
      [
        "थारल्या",
        -9.709072973343252
      ],
      [
        "कयतर",
        -9.709624949783324
      ],
      [
        "तितले",
        -9.710290523922241
      ],
      [
        "दळाचे",
        -9.710346904366093
      ],
      [
        "रावत",
        -9.711937708743108
      ],
      [
        "राज्याचे",
        -9.712108341944692
      ],
      [
        "सतरा",
        -9.712493513057654
      ],
      [
        "वाडी",
        -9.712497350841673
      ],
      [
        "गया",
        -9.712915681132667
      ],
      [
        "कुशीक",
        -9.71298822166984
      ],
      [
        "राल",
        -9.714007875510429
      ],
      [
        "घाट",
        -9.714182335766075
      ],
      [
        "ांणी",
        -9.714475860975814
      ],
      [
        "वतना",
        -9.714751897092057
      ],
      [
        "वखदां",
        -9.715346598194488
      ],
      [
        "उटंगरा",
        -9.715381561137164
      ],
      [
        "श्रीलंके",
        -9.715466907683929
      ],
      [
        "उमेदवारां",
        -9.715753503740132
      ],
      [
        "िस",
        -9.716748936152532
      ],
      [
        "येतलो",
        -9.717354157809947
      ],
      [
        "दश",
        -9.717427906756148
      ],
      [
        "कबलाती",
        -9.71824210110892
      ],
      [
        "बंदर",
        -9.722116291323397
      ],
      [
        "बंगाल",
        -9.72218967988513
      ],
      [
        "घेत",
        -9.722257602448138
      ],
      [
        "वावरा",
        -9.722579534151214
      ],
      [
        "झारखंड",
        -9.722650221995716
      ],
      [
        "ध्य",
        -9.722752254498376
      ],
      [
        "उबी",
        -9.723099517951876
      ],
      [
        "वस्तू",
        -9.72397253280521
      ],
      [
        "दिवपाचो",
        -9.724156886716552
      ],
      [
        "कू",
        -9.724911456611542
      ],
      [
        "ऩी",
        -9.724958860884735
      ],
      [
        "भुरग",
        -9.725609375755209
      ],
      [
        "वेळे",
        -9.725707141577466
      ],
      [
        "कांनी",
        -9.72581999380272
      ],
      [
        "वलळी",
        -9.727165316494835
      ],
      [
        "दीन",
        -9.727706231545774
      ],
      [
        "घालपा",
        -9.72775777494402
      ],
      [
        "e",
        -9.728707870588789
      ],
      [
        "चाल",
        -9.73043208114645
      ],
      [
        "साळ",
        -9.731484002753078
      ],
      [
        "बॅ",
        -9.732037147108336
      ],
      [
        "एया",
        -9.733120504390083
      ],
      [
        "गिरायक",
        -9.733242669217367
      ],
      [
        "हान",
        -9.733646857617867
      ],
      [
        "आपल्याक",
        -9.733761510693263
      ],
      [
        "सत्रां",
        -9.734390521928958
      ],
      [
        "मेल",
        -9.734514288222483
      ],
      [
        "तिजे",
        -9.735094784929975
      ],
      [
        "सांत",
        -9.735625607933182
      ],
      [
        "वसंता",
        -9.735632092206036
      ],
      [
        "ूर",
        -9.736399001415005
      ],
      [
        "ऩु",
        -9.7371633801941
      ],
      [
        "भॊत्री",
        -9.737548856758707
      ],
      [
        "खै",
        -9.737869496574206
      ],
      [
        "ओंप",
        -9.738021708424359
      ],
      [
        "विसर",
        -9.738834132628476
      ],
      [
        "यतात",
        -9.739734842828241
      ],
      [
        "कसलो",
        -9.739748366302885
      ],
      [
        "भूंय",
        -9.739811347968894
      ],
      [
        "पुला",
        -9.740561962637909
      ],
      [
        "माद",
        -9.74069504818021
      ],
      [
        "गुंतवणुक",
        -9.741487419890362
      ],
      [
        "प्रत्यक्ष",
        -9.74166220213136
      ],
      [
        "पोर्ट",
        -9.741689768132527
      ],
      [
        "भौ",
        -9.742316127500965
      ],
      [
        "दिपक",
        -9.742335633565698
      ],
      [
        "भोंवडे",
        -9.7429060601461
      ],
      [
        "कल्पना",
        -9.743030585479312
      ],
      [
        "‘",
        -9.743561180135202
      ],
      [
        "पारंपार",
        -9.743565402864057
      ],
      [
        "रवींद्र",
        -9.743566073494412
      ],
      [
        "कोव्हीड",
        -9.743567780658742
      ],
      [
        "आडखळ",
        -9.743716469068794
      ],
      [
        "मुरगांव",
        -9.743720821530086
      ],
      [
        "ङ्कांटभुये",
        -9.74372195362057
      ],
      [
        "भोंवतण",
        -9.743751061267018
      ],
      [
        "सेना",
        -9.744003322602126
      ],
      [
        "सैम",
        -9.744566240184618
      ],
      [
        "ार्थ",
        -9.744716476013371
      ],
      [
        "याज्मा",
        -9.744808787685418
      ],
      [
        "वेवसायीक",
        -9.744886433500337
      ],
      [
        "पटेल",
        -9.745640421229142
      ],
      [
        "प्रमाणा",
        -9.746584753498734
      ],
      [
        "खासग",
        -9.746953775196861
      ],
      [
        "निवेदन",
        -9.74714507418949
      ],
      [
        "शांतीकाये",
        -9.747312874981686
      ],
      [
        "तल्यो",
        -9.747931997455535
      ],
      [
        "आपलें",
        -9.748783750428647
      ],
      [
        "बाबुल्या",
        -9.748857131386705
      ],
      [
        "शण",
        -9.74913203771692
      ],
      [
        "ऱी",
        -9.749637436661482
      ],
      [
        "वाढ",
        -9.750559533095936
      ],
      [
        "हारयल",
        -9.750711460456033
      ],
      [
        "चलता",
        -9.750943020888254
      ],
      [
        "15",
        -9.75188623330877
      ],
      [
        "छान",
        -9.753365247679811
      ],
      [
        "कोयर",
        -9.75362817099477
      ],
      [
        "र्ड",
        -9.753834581887935
      ],
      [
        "राबर",
        -9.753919374344758
      ],
      [
        "फुट",
        -9.754155749787243
      ],
      [
        "मेळ्ळ",
        -9.7542202377965
      ],
      [
        "खोस",
        -9.75589845637816
      ],
      [
        "पळेले",
        -9.755941890861688
      ],
      [
        "व्हडलो",
        -9.755946621269487
      ],
      [
        "येजमानक",
        -9.756909917404805
      ],
      [
        "प्रवाशां",
        -9.757264846681398
      ],
      [
        "क्षेत्र",
        -9.757745579459339
      ],
      [
        "नासता",
        -9.758261798937228
      ],
      [
        "पावता",
        -9.758282070978648
      ],
      [
        "ाविशी",
        -9.758331919062547
      ],
      [
        "ङ्क्र",
        -9.758410069827523
      ],
      [
        "यलें",
        -9.759340485002163
      ],
      [
        "दुयेंसा",
        -9.759611358207552
      ],
      [
        "कितलेश",
        -9.760367446329147
      ],
      [
        "वूय",
        -9.761265630529238
      ],
      [
        "झाडां",
        -9.76141791806704
      ],
      [
        "अं",
        -9.763247896047531
      ],
      [
        "राखपा",
        -9.767390459288823
      ],
      [
        "लू",
        -9.767437596031328
      ],
      [
        "हातार",
        -9.77022296661702
      ],
      [
        "परिशदेचे",
        -9.77076010225742
      ],
      [
        "मुळ",
        -9.771508198496248
      ],
      [
        "सगल",
        -9.77154403958398
      ],
      [
        "सकल",
        -9.771941528380117
      ],
      [
        "गावांत",
        -9.772357731779064
      ],
      [
        "पालवा",
        -9.772457494778777
      ],
      [
        "विस",
        -9.772847082673282
      ],
      [
        "ख्य",
        -9.773870129476347
      ],
      [
        "अपघात",
        -9.77393476060484
      ],
      [
        "शिक्षक",
        -9.774080975905752
      ],
      [
        "बाव",
        -9.774152548919961
      ],
      [
        "यां",
        -9.774204450076146
      ],
      [
        "काके",
        -9.774427789264436
      ],
      [
        "कितले",
        -9.775074734855824
      ],
      [
        "ूं",
        -9.776249604795511
      ],
      [
        "ंतले",
        -9.776880402150251
      ],
      [
        "र्थ",
        -9.777839453681013
      ],
      [
        "पातळ",
        -9.778704038379896
      ],
      [
        "देशभर",
        -9.780183504842377
      ],
      [
        "पद्दती",
        -9.780993049556276
      ],
      [
        "मंडळाचे",
        -9.781123363320102
      ],
      [
        "पडपाच",
        -9.781396493508332
      ],
      [
        "मंत्रीमंडळ",
        -9.782778334233576
      ],
      [
        "भात",
        -9.7829028923268
      ],
      [
        "पू",
        -9.783418101271547
      ],
      [
        "शांत",
        -9.783553623982002
      ],
      [
        "पांवड",
        -9.784184042543734
      ],
      [
        "बेगो",
        -9.784304484183782
      ],
      [
        "घाल्ल",
        -9.784947455673915
      ],
      [
        "वासू",
        -9.785045950547012
      ],
      [
        "हांस",
        -9.78510815496059
      ],
      [
        "घोवा",
        -9.785558681617164
      ],
      [
        "ल्ल्यान",
        -9.78662762127647
      ],
      [
        "ड्डा",
        -9.786736322564668
      ],
      [
        "फुडार",
        -9.787019749950428
      ],
      [
        "194",
        -9.787039466210203
      ],
      [
        "दिगंबर",
        -9.787039491897405
      ],
      [
        "अहमदाबाद",
        -9.787040148180076
      ],
      [
        "मुद्यांचेर",
        -9.787040429404778
      ],
      [
        "ट्वीट",
        -9.787042533525634
      ],
      [
        "येसस्वी",
        -9.787042741510923
      ],
      [
        "जखमी",
        -9.787044716073623
      ],
      [
        "काणकोण",
        -9.787059844541783
      ],
      [
        "पंदरा",
        -9.7870655874844
      ],
      [
        "उपरराष्ट्रपती",
        -9.787068800537426
      ],
      [
        "ख्यास्त",
        -9.7870990588975
      ],
      [
        "वळेरी",
        -9.787109225071617
      ],
      [
        "सिद्ध",
        -9.787113762425218
      ],
      [
        "वास्को",
        -9.787114890211656
      ],
      [
        "दिश्टी",
        -9.787118233202072
      ],
      [
        "काब्रा",
        -9.787155526079191
      ],
      [
        "याष्ट्र",
        -9.787156495625648
      ],
      [
        "उगडास",
        -9.787208610202109
      ],
      [
        "ढवळीक",
        -9.78729208350839
      ],
      [
        "शाणू",
        -9.787328503671091
      ],
      [
        "चाचणी",
        -9.787405449408626
      ],
      [
        "हिंदू",
        -9.787413053573683
      ],
      [
        "ङ्कोंडें",
        -9.78759786130394
      ],
      [
        "िज",
        -9.787621664248292
      ],
      [
        "कवासो",
        -9.787647322939488
      ],
      [
        "आसल्यार",
        -9.787896805940505
      ],
      [
        "मुक्त",
        -9.787980748553581
      ],
      [
        "सलोच",
        -9.7880617718644
      ],
      [
        "ावंक",
        -9.788257080405431
      ],
      [
        "बाबा",
        -9.788326517014353
      ],
      [
        "वुरू",
        -9.78835400036791
      ],
      [
        "उपाध्य",
        -9.788415210729847
      ],
      [
        "नारद",
        -9.788631461930317
      ],
      [
        "उलौ",
        -9.788736733623027
      ],
      [
        "व्यापार",
        -9.788874810618422
      ],
      [
        "गेल्ल्या",
        -9.789342375411161
      ],
      [
        "धोक",
        -9.789528634125158
      ],
      [
        "शुक्रारा",
        -9.789629866521787
      ],
      [
        "शकना",
        -9.789638056805506
      ],
      [
        "उगड",
        -9.789731162194375
      ],
      [
        "सागर",
        -9.789925809302177
      ],
      [
        "सुपर",
        -9.790063340164817
      ],
      [
        "धर्मीक",
        -9.790745472713331
      ],
      [
        "म्हयन्यांत",
        -9.791073982751255
      ],
      [
        "काडलो",
        -9.79215263737566
      ],
      [
        "तिज्या",
        -9.792451567564637
      ],
      [
        "फक्",
        -9.792872759577659
      ],
      [
        "कार्यालय",
        -9.793332022057212
      ],
      [
        "जेवण",
        -9.793493610073783
      ],
      [
        "मुख",
        -9.793590650450994
      ],
      [
        "घटक",
        -9.793748221506073
      ],
      [
        "हुंवारा",
        -9.79389748526241
      ],
      [
        "साहित्यांत",
        -9.79421875336566
      ],
      [
        "पथू",
        -9.794235065395455
      ],
      [
        "वेंचणुकेंत",
        -9.794504318232299
      ],
      [
        "आशिल्ल्य",
        -9.794675711239925
      ],
      [
        "लागला",
        -9.794781910777658
      ],
      [
        "लोकसभेंत",
        -9.794888540099562
      ],
      [
        "कुर",
        -9.799486933019503
      ],
      [
        "गोल",
        -9.799526596382735
      ],
      [
        "क्षेत्रा",
        -9.800002281421126
      ],
      [
        "मोटो",
        -9.800197434688345
      ],
      [
        "घालप",
        -9.800367345730766
      ],
      [
        "भागीदारी",
        -9.800440713153586
      ],
      [
        "्गत",
        -9.800526279789194
      ],
      [
        "असल",
        -9.80128230477148
      ],
      [
        "बद",
        -9.801507561698173
      ],
      [
        "सैनिकां",
        -9.801788434560441
      ],
      [
        "जड",
        -9.802500519798901
      ],
      [
        "क्षया",
        -9.803256421166257
      ],
      [
        "पूल",
        -9.803347911759236
      ],
      [
        "विकासा",
        -9.804538317411781
      ],
      [
        "समान",
        -9.805079548251655
      ],
      [
        "बेस",
        -9.806102255958628
      ],
      [
        "गांवांत",
        -9.806213137972822
      ],
      [
        "तोड",
        -9.806856581869564
      ],
      [
        "क्षेत्रात",
        -9.807219848150094
      ],
      [
        "भाशेंत",
        -9.808808042707827
      ],
      [
        "दसा",
        -9.811390219244508
      ],
      [
        "येंत",
        -9.811997006778178
      ],
      [
        "करण",
        -9.81226834126353
      ],
      [
        "तेलंगणा",
        -9.812275382849599
      ],
      [
        "नागरी",
        -9.812343211676037
      ],
      [
        "नांवा",
        -9.812475329439145
      ],
      [
        "दामबाबा",
        -9.813912226518134
      ],
      [
        "देशाक",
        -9.814148492092116
      ],
      [
        "बरीच",
        -9.814589502226447
      ],
      [
        "बायलांक",
        -9.815008601044097
      ],
      [
        "फट्या",
        -9.8150165868035
      ],
      [
        "जावपाचे",
        -9.815824863403094
      ],
      [
        "चचा",
        -9.81599622085622
      ],
      [
        "आवड",
        -9.816861501168582
      ],
      [
        "वेता",
        -9.817526143259283
      ],
      [
        "हाच्या",
        -9.817705316852782
      ],
      [
        "हॅ",
        -9.820243500502889
      ],
      [
        "भागा",
        -9.82108789633672
      ],
      [
        "आसून",
        -9.8226631785153
      ],
      [
        "ोवपा",
        -9.822924490308418
      ],
      [
        "सुधार",
        -9.824509729893217
      ],
      [
        "िव",
        -9.824753428033983
      ],
      [
        "सहकार",
        -9.824968739625415
      ],
      [
        "नामनेच",
        -9.825367709140108
      ],
      [
        "ळून",
        -9.825404955160952
      ],
      [
        "ॅल",
        -9.826374473842753
      ],
      [
        "पाचें",
        -9.828223920072418
      ],
      [
        "्यांचे",
        -9.829111504125787
      ],
      [
        "आदींच",
        -9.829444931552896
      ],
      [
        "खान",
        -9.829978780269355
      ],
      [
        "वयलो",
        -9.8306076442874
      ],
      [
        "कार्यक्रमा",
        -9.831988376234598
      ],
      [
        "r",
        -9.832345012582902
      ],
      [
        "आयुर्वेद",
        -9.832494051146345
      ],
      [
        "निर्बंध",
        -9.832494232709582
      ],
      [
        "निरीक्षक",
        -9.832494366382173
      ],
      [
        "सल्लागार",
        -9.832496327523693
      ],
      [
        "आरबीआय",
        -9.832498249932435
      ],
      [
        "ङ्कारपेट",
        -9.832499132243099
      ],
      [
        "हाजिर",
        -9.832507062784774
      ],
      [
        "पंडित",
        -9.832508770458276
      ],
      [
        "मंजूर",
        -9.832516123002465
      ],
      [
        "खबरदारी",
        -9.83253119777872
      ],
      [
        "चेन्नय",
        -9.832683588635659
      ],
      [
        "सगळो",
        -9.832714859001802
      ],
      [
        "लागीं",
        -9.832731270689305
      ],
      [
        "माचये",
        -9.833093734214714
      ],
      [
        "दोट्टी",
        -9.833101775937097
      ],
      [
        "गेल्ली",
        -9.833241501297003
      ],
      [
        "केंद्रशास",
        -9.833368267065946
      ],
      [
        "जाण्ट",
        -9.833478770401811
      ],
      [
        "वणी",
        -9.833537879715397
      ],
      [
        "अदिक",
        -9.833763128601358
      ],
      [
        "प्रसंग",
        -9.833979161349166
      ],
      [
        "अधिसुचोवण",
        -9.834277600352948
      ],
      [
        "भरू",
        -9.834281292782133
      ],
      [
        "वेस्ट",
        -9.834426064467046
      ],
      [
        "अरुण",
        -9.834464038858997
      ],
      [
        "प्रधानभंत्र",
        -9.834731286443553
      ],
      [
        "संबोधीत",
        -9.835156545351815
      ],
      [
        "अखेर",
        -9.83563861068343
      ],
      [
        "न्यायालय",
        -9.835686996202883
      ],
      [
        "बुन्यादी",
        -9.835701179048643
      ],
      [
        "अर्द",
        -9.836716334385752
      ],
      [
        "रागून",
        -9.836776024999518
      ],
      [
        "मेळ्ळ्या",
        -9.836992630357273
      ],
      [
        "निमणे",
        -9.837129995141456
      ],
      [
        "पाचशे",
        -9.837205482152886
      ],
      [
        "ुखेलंत्र",
        -9.837536723809864
      ],
      [
        "मिश्र",
        -9.837622038839482
      ],
      [
        "शीत",
        -9.837655886639505
      ],
      [
        "पुजा",
        -9.837813827459811
      ],
      [
        "ांतले",
        -9.83826841766707
      ],
      [
        "्ल",
        -9.838665967438125
      ],
      [
        "खेपे",
        -9.838681470043596
      ],
      [
        "पळोवया",
        -9.8389346979796
      ],
      [
        "झर",
        -9.839497624499447
      ],
      [
        "दर्जो",
        -9.839596789733335
      ],
      [
        "पत्रकारां",
        -9.840015080742045
      ],
      [
        "लड",
        -9.840293678568745
      ],
      [
        "दोगांय",
        -9.840627101265865
      ],
      [
        "हाणे",
        -9.840752466508297
      ],
      [
        "मैदानाचे",
        -9.840873300093502
      ],
      [
        "निर",
        -9.84140689380475
      ],
      [
        "गोंयकार",
        -9.84210344949448
      ],
      [
        "हाव",
        -9.842198407870193
      ],
      [
        "बहु",
        -9.842504210239294
      ],
      [
        "सौर",
        -9.842638967995011
      ],
      [
        "दिल्ल",
        -9.842947646894288
      ],
      [
        "मानव",
        -9.843083770119568
      ],
      [
        "आल्",
        -9.843855508482603
      ],
      [
        "ट्रक",
        -9.844407113844829
      ],
      [
        "घन",
        -9.844430279502236
      ],
      [
        "उखल",
        -9.845919832670537
      ],
      [
        "तसोच",
        -9.846038755416782
      ],
      [
        "उखल्ल",
        -9.84604245886273
      ],
      [
        "निस",
        -9.847031968170452
      ],
      [
        "अरब",
        -9.847096308498578
      ],
      [
        "लोकसभेच",
        -9.847566199275626
      ],
      [
        "दयाळ",
        -9.847885528280827
      ],
      [
        "वाठारा",
        -9.848385281609723
      ],
      [
        "फये",
        -9.849772622543515
      ],
      [
        "भया",
        -9.849825581698308
      ],
      [
        "उदय",
        -9.851333747375737
      ],
      [
        "भारतात",
        -9.851620786743323
      ],
      [
        "विश्व",
        -9.852241501835842
      ],
      [
        "साथ",
        -9.85547256333354
      ],
      [
        "वीर",
        -9.856412385084397
      ],
      [
        "परि",
        -9.856719402032533
      ],
      [
        "कोयसांव",
        -9.857977034438251
      ],
      [
        "ैना",
        -9.858903711544809
      ],
      [
        "समजू",
        -9.860343093566774
      ],
      [
        "घेतिल्ल",
        -9.860510010043646
      ],
      [
        "तांबड",
        -9.860536017688016
      ],
      [
        "पीए",
        -9.860627626751583
      ],
      [
        "बाजारांत",
        -9.863005971604501
      ],
      [
        "साण",
        -9.863080894251842
      ],
      [
        "डेन",
        -9.863855334455238
      ],
      [
        "शिकप",
        -9.864107602450066
      ],
      [
        "पालिके",
        -9.864334596405294
      ],
      [
        "बायलेक",
        -9.865172431522378
      ],
      [
        "मुद",
        -9.865188856717504
      ],
      [
        "टना",
        -9.865396918411404
      ],
      [
        "येवजणेखा",
        -9.865444767440264
      ],
      [
        "मोठे",
        -9.86608357324784
      ],
      [
        "ङ्कड",
        -9.866205280556546
      ],
      [
        "संस्थांच",
        -9.866325604675035
      ],
      [
        "पंगडाचे",
        -9.867288749294778
      ],
      [
        "विभागाचे",
        -9.867460066451066
      ],
      [
        "मेळयले",
        -9.867742500904809
      ],
      [
        "विश्वज",
        -9.867784482850471
      ],
      [
        "माला",
        -9.867944663941268
      ],
      [
        "सरता",
        -9.86806585187183
      ],
      [
        "हार्",
        -9.868599172916669
      ],
      [
        "नॉ",
        -9.869716979900279
      ],
      [
        "रत्न",
        -9.870207813429385
      ],
      [
        "आदर",
        -9.870660654041961
      ],
      [
        "कामाक",
        -9.871427455220076
      ],
      [
        "रोक",
        -9.872542884949617
      ],
      [
        "कार्यावळीचे",
        -9.872742790285418
      ],
      [
        "कट",
        -9.87275953919656
      ],
      [
        "कलाकार",
        -9.873885621577047
      ],
      [
        "दनपारा",
        -9.874579846177436
      ],
      [
        "कोंब",
        -9.875012561255302
      ],
      [
        "्याच्या",
        -9.875328088337907
      ],
      [
        "ढया",
        -9.875508045309251
      ],
      [
        "घडणुक",
        -9.875757725791392
      ],
      [
        "तत्वां",
        -9.876788909934564
      ],
      [
        "मुंबयत",
        -9.877483860180504
      ],
      [
        "लया",
        -9.877786440396022
      ],
      [
        "रमेश",
        -9.878519851820807
      ],
      [
        "तरनाट",
        -9.879417766403158
      ],
      [
        "भेऱ",
        -9.879516565181063
      ],
      [
        "आमदारां",
        -9.879670193066453
      ],
      [
        "जिल्ल्यांत",
        -9.879925275570645
      ],
      [
        "t",
        -9.87999943238044
      ],
      [
        "सर्वेक्षण",
        -9.880113047398343
      ],
      [
        "प्रतिबंध",
        -9.880113078714812
      ],
      [
        "वाराणसी",
        -9.88011375877305
      ],
      [
        "आङ्क्रिक",
        -9.88012068405863
      ],
      [
        "व्याप",
        -9.880124579590802
      ],
      [
        "उरमतारे",
        -9.880128404871531
      ],
      [
        "प्रणाली",
        -9.880142214847318
      ],
      [
        "अंतराळ",
        -9.880169864938456
      ],
      [
        "प्रश्न",
        -9.880189039288636
      ],
      [
        "शुन्य",
        -9.880204220945734
      ],
      [
        "सारखी",
        -9.880209094078982
      ],
      [
        "द्विपक्ष",
        -9.880236637322875
      ],
      [
        "खोश",
        -9.880255588216617
      ],
      [
        "मांडटले",
        -9.880270074330696
      ],
      [
        "शहीद",
        -9.880298817139145
      ],
      [
        "बुनयाद",
        -9.880316415293896
      ],
      [
        "गंगा",
        -9.88038878802031
      ],
      [
        "संकुला",
        -9.880466012465087
      ],
      [
        "लज",
        -9.880508164676607
      ],
      [
        "ॅशन",
        -9.88070567254405
      ],
      [
        "जाणां",
        -9.880779138608476
      ],
      [
        "ननभत",
        -9.880875296284145
      ],
      [
        "श्नती",
        -9.881032030108909
      ],
      [
        "आयु्नत",
        -9.881079512864346
      ],
      [
        "पार्क",
        -9.881506290587785
      ],
      [
        "कर्मचाऱ्यां",
        -9.88153730456248
      ],
      [
        "पाद्री",
        -9.882259334728895
      ],
      [
        "तुजी",
        -9.882564012312832
      ],
      [
        "ङ्कांट्या",
        -9.883204757446675
      ],
      [
        "राजांगणांत",
        -9.88342729649537
      ],
      [
        "उरिल्ल्या",
        -9.883444381644523
      ],
      [
        "सोळा",
        -9.883687099267227
      ],
      [
        "विमो",
        -9.883928939740724
      ],
      [
        "मुखेलमं",
        -9.884242543803014
      ],
      [
        "सुद",
        -9.884326485232357
      ],
      [
        "जोशी",
        -9.884342027965602
      ],
      [
        "रोड",
        -9.88546081345521
      ],
      [
        "जोडपालव",
        -9.885814799994106
      ],
      [
        "दरेका",
        -9.886668770449052
      ],
      [
        "मोट्या",
        -9.88670171881184
      ],
      [
        "त्रा",
        -9.88701692230066
      ],
      [
        "मध्यम",
        -9.88894349675772
      ],
      [
        "शेत",
        -9.889076751642502
      ],
      [
        "अथ",
        -9.889128520856959
      ],
      [
        "म्हटला",
        -9.89115000194924
      ],
      [
        "्टा",
        -9.892543236610608
      ],
      [
        "सांवळयान",
        -9.892777249610349
      ],
      [
        "नियोजन",
        -9.893114454053707
      ],
      [
        "गोयांत",
        -9.893402727648185
      ],
      [
        "तुमचे",
        -9.894151378385903
      ],
      [
        "खात",
        -9.89419210089905
      ],
      [
        "अमेरीके",
        -9.894771812294556
      ],
      [
        "पयलें",
        -9.895104267223397
      ],
      [
        "िंद",
        -9.895120756896882
      ],
      [
        "येवचे",
        -9.895837707444628
      ],
      [
        "नासलो",
        -9.895892540642276
      ],
      [
        "मनाक",
        -9.896174836056717
      ],
      [
        "पालो",
        -9.89726021943065
      ],
      [
        "मागला",
        -9.89754582048285
      ],
      [
        "हावें",
        -9.89779071954388
      ],
      [
        "ल्ला",
        -9.898627394165041
      ],
      [
        "बिर",
        -9.898884148545502
      ],
      [
        "ताम",
        -9.899446954714596
      ],
      [
        "थोड्या",
        -9.9002988276165
      ],
      [
        "ेरेन",
        -9.900572170269239
      ],
      [
        "फक",
        -9.900922714852511
      ],
      [
        "ुखेल",
        -9.901772827314403
      ],
      [
        "गोयल",
        -9.902092046799078
      ],
      [
        "दुखां",
        -9.90283135119992
      ],
      [
        "मिन",
        -9.9035207273458
      ],
      [
        "खांद",
        -9.903581023879607
      ],
      [
        "लाड",
        -9.903829919888246
      ],
      [
        "म्हणू",
        -9.904497108088202
      ],
      [
        "भुरगी",
        -9.905616931366314
      ],
      [
        "लिप",
        -9.90580834153059
      ],
      [
        "कोवलड",
        -9.90632573880767
      ],
      [
        "जाम",
        -9.906789323889592
      ],
      [
        "वेव",
        -9.907052878573186
      ],
      [
        "मोटे",
        -9.908110155297624
      ],
      [
        "ल्स",
        -9.908201247089881
      ],
      [
        "खात्मा",
        -9.908729134664789
      ],
      [
        "नांवान",
        -9.908860767836233
      ],
      [
        "शिष्टमंडळा",
        -9.909115185273508
      ],
      [
        "कश्मीर",
        -9.909169681746178
      ],
      [
        "गोंयांतल्या",
        -9.909865556870894
      ],
      [
        "पडप",
        -9.910711417466871
      ],
      [
        "फाटल्या",
        -9.911289404482197
      ],
      [
        "काडी",
        -9.911970687747806
      ],
      [
        "हिमा",
        -9.912111798110054
      ],
      [
        "खून",
        -9.912287445462818
      ],
      [
        "वास्तव",
        -9.912534797250546
      ],
      [
        "मिश",
        -9.912706733251198
      ],
      [
        "ज्ये",
        -9.912752650916836
      ],
      [
        "प्रकरणां",
        -9.913160221110749
      ],
      [
        "उपक्रमा",
        -9.913455374569665
      ],
      [
        "ल्रे",
        -9.9135415328694
      ],
      [
        "दिना",
        -9.914411910487336
      ],
      [
        "कयऩ",
        -9.91503222958104
      ],
      [
        "उबारपा",
        -9.915116399011893
      ],
      [
        "मोहीम",
        -9.915393161956603
      ],
      [
        "न्ह",
        -9.9162830963387
      ],
      [
        "सभाघरा",
        -9.916396470722365
      ],
      [
        "घेतर",
        -9.91729886033733
      ],
      [
        "हइ",
        -9.917628638696174
      ],
      [
        "शिख",
        -9.918993533280336
      ],
      [
        "हैदराबाद",
        -9.91908651182018
      ],
      [
        "कोळ",
        -9.919127488962992
      ],
      [
        "पावल्या",
        -9.919202617500664
      ],
      [
        "ल्ल्यो",
        -9.919443295993336
      ],
      [
        "ंडा",
        -9.92051259412227
      ],
      [
        "काश्मीरांत",
        -9.920741153830424
      ],
      [
        "ेकार",
        -9.921248257277725
      ],
      [
        "तज्ञ",
        -9.922739413861596
      ],
      [
        "शारी",
        -9.922959235049008
      ],
      [
        "सुमन",
        -9.922994346004753
      ],
      [
        "णाम",
        -9.924084486281034
      ],
      [
        "शळ",
        -9.924487122003105
      ],
      [
        "भेटयत",
        -9.925253688457573
      ],
      [
        "कथेच",
        -9.925715986419387
      ],
      [
        "सारकें",
        -9.92586630953354
      ],
      [
        "प्रक्रिये",
        -9.92700195850919
      ],
      [
        "म्हणपाचे",
        -9.92717209194161
      ],
      [
        "खेरी",
        -9.927908434125058
      ],
      [
        "सग",
        -9.928174939593069
      ],
      [
        "शेता",
        -9.928536756107183
      ],
      [
        "लऱी",
        -9.929990814635902
      ],
      [
        "बॅडमिंटन",
        -9.930113034078605
      ],
      [
        "गुवाहाटी",
        -9.930113037124306
      ],
      [
        "लष्कर",
        -9.930113107456595
      ],
      [
        "कार्यकत्र्यां",
        -9.930113237779654
      ],
      [
        "म्हयनाळ",
        -9.930115055679082
      ],
      [
        "उड्डाण",
        -9.930117482205603
      ],
      [
        "सिंधू",
        -9.930118218752938
      ],
      [
        "म्हयने",
        -9.93012029839436
      ],
      [
        "बुधवार",
        -9.930121158532625
      ],
      [
        "दुरुस्त",
        -9.930134053718538
      ],
      [
        "थोडो",
        -9.930140915069217
      ],
      [
        "वर्णन",
        -9.930223419139669
      ],
      [
        "वेवहार",
        -9.930283266098161
      ],
      [
        "स्वतंत्र",
        -9.930319893755202
      ],
      [
        "महामारी",
        -9.93040432722885
      ],
      [
        "भागिदार",
        -9.930495779891107
      ],
      [
        "विचारता",
        -9.930530618048238
      ],
      [
        "भाशण",
        -9.930533953101378
      ],
      [
        "एकवटीत",
        -9.930725522600406
      ],
      [
        "सर्वपक्ष",
        -9.930725704911595
      ],
      [
        "िश्ट",
        -9.93082645839992
      ],
      [
        "शिगमो",
        -9.931191155515362
      ],
      [
        "परवानग",
        -9.931229715401894
      ],
      [
        "भुतान",
        -9.93160609601263
      ],
      [
        "हाडटा",
        -9.931626559372205
      ],
      [
        "न्हू",
        -9.931906007603313
      ],
      [
        "दोंगर",
        -9.931964263532393
      ],
      [
        "ताचें",
        -9.931984764589103
      ],
      [
        "उदयगत",
        -9.932105267147131
      ],
      [
        "उत्",
        -9.932278156729124
      ],
      [
        "पूज",
        -9.932602239259467
      ],
      [
        "ङ्कर",
        -9.932768657817729
      ],
      [
        "हालींच",
        -9.93304366315818
      ],
      [
        "घट्ट",
        -9.933221894104907
      ],
      [
        "जिवा",
        -9.933228397103152
      ],
      [
        "टव",
        -9.933345851218387
      ],
      [
        "कसल्या",
        -9.933435279341701
      ],
      [
        "हिंस",
        -9.93362664423683
      ],
      [
        "म्हणचे",
        -9.933714545147438
      ],
      [
        "उद्देश",
        -9.934033552399482
      ],
      [
        "वर्सी",
        -9.934077037289532
      ],
      [
        "रावजी",
        -9.934127403633592
      ],
      [
        "जिवीत",
        -9.934490273405379
      ],
      [
        "गाडी",
        -9.934747505534688
      ],
      [
        "धांवत",
        -9.935427885076349
      ],
      [
        "वेवसाय",
        -9.935478286743695
      ],
      [
        "मूळ",
        -9.935665488827501
      ],
      [
        "कापड",
        -9.936233808305268
      ],
      [
        "सक्ती",
        -9.936451687726791
      ],
      [
        "खूबश",
        -9.936898116855993
      ],
      [
        "फेणो",
        -9.937324568331992
      ],
      [
        "अटल",
        -9.937345589288094
      ],
      [
        "संघ",
        -9.937731180443567
      ],
      [
        "हांच्यो",
        -9.937943298573547
      ],
      [
        "देशभरात",
        -9.938178991502632
      ],
      [
        "पुलिसान",
        -9.938584144015131
      ],
      [
        "जायते",
        -9.939112656882049
      ],
      [
        "जिणेंत",
        -9.939170298951717
      ],
      [
        "्यांच्या",
        -9.939714368138201
      ],
      [
        "ेशन",
        -9.940047056216757
      ],
      [
        "धानमं",
        -9.940495221673952
      ],
      [
        "आयकर",
        -9.940837201572887
      ],
      [
        "ऱो",
        -9.941003977086002
      ],
      [
        "ंत्र",
        -9.941056832653818
      ],
      [
        "पुलिसां",
        -9.941149688090515
      ],
      [
        "िंत",
        -9.94145523917855
      ],
      [
        "ङ्कक",
        -9.941703664288
      ],
      [
        "कार्या",
        -9.94215447666407
      ],
      [
        "ाव्या",
        -9.942345648851063
      ],
      [
        "बसयल",
        -9.944148758975679
      ],
      [
        "स्वरा",
        -9.945123307040616
      ],
      [
        "कस्म",
        -9.945722791826004
      ],
      [
        "नावा",
        -9.946605240578162
      ],
      [
        "ांतली",
        -9.946648529461626
      ],
      [
        "मुख्य",
        -9.94708455681715
      ],
      [
        "चिंत",
        -9.947230211420573
      ],
      [
        "ल्लमा",
        -9.94727434418408
      ],
      [
        "चाचण्य",
        -9.949049819369751
      ],
      [
        "व्यक्त",
        -9.949425277570423
      ],
      [
        "जण",
        -9.949773958177001
      ],
      [
        "अर्थमंत्र",
        -9.950218963162946
      ],
      [
        "अॅप",
        -9.950803966082812
      ],
      [
        "जिल्ल्या",
        -9.95126962061862
      ],
      [
        "जगती",
        -9.951400081698438
      ],
      [
        "ुक",
        -9.952076541353504
      ],
      [
        "रेड",
        -9.952496707552019
      ],
      [
        "जोडले",
        -9.952901101805459
      ],
      [
        "असल्या",
        -9.95291966065706
      ],
      [
        "टले",
        -9.953269133765316
      ],
      [
        "फां",
        -9.95342039683304
      ],
      [
        "मतदारां",
        -9.95343915078196
      ],
      [
        "थळा",
        -9.953923801453497
      ],
      [
        "उत्पादना",
        -9.95393605301119
      ],
      [
        "दया",
        -9.954472551414616
      ],
      [
        "त्तम",
        -9.954591990442868
      ],
      [
        "दांड",
        -9.954750913280005
      ],
      [
        "ओम",
        -9.955201154052727
      ],
      [
        "मल्मा",
        -9.955223100041081
      ],
      [
        "शक्ती",
        -9.955444992849232
      ],
      [
        "खोल",
        -9.95586723653561
      ],
      [
        "नाव",
        -9.95613375697156
      ],
      [
        "र्जी",
        -9.95651262549816
      ],
      [
        "जातरी",
        -9.956587419123002
      ],
      [
        "मिल",
        -9.956915766012273
      ],
      [
        "शेटी",
        -9.957696876563642
      ],
      [
        "फुड",
        -9.958083994883145
      ],
      [
        "आदल्य",
        -9.958331844936867
      ],
      [
        "नायड",
        -9.958633351808189
      ],
      [
        "शू",
        -9.959998632398085
      ],
      [
        "प्रल",
        -9.96006097569478
      ],
      [
        "तांचेर",
        -9.96008301251722
      ],
      [
        "अधिवेशन",
        -9.961241229276734
      ],
      [
        "जातरे",
        -9.961413151326617
      ],
      [
        "अंदूं",
        -9.96213158167481
      ],
      [
        "टू",
        -9.962826058070362
      ],
      [
        "सड",
        -9.963103414996851
      ],
      [
        "काद",
        -9.963612875334789
      ],
      [
        "मंच",
        -9.963902668646005
      ],
      [
        "विक्र",
        -9.964742668059635
      ],
      [
        "ॊग",
        -9.96517942053765
      ],
      [
        "ददल",
        -9.967634666187628
      ],
      [
        "वासी",
        -9.96794537947056
      ],
      [
        "लेखन",
        -9.968105738681228
      ],
      [
        "येस",
        -9.968119255075317
      ],
      [
        "दिसाचो",
        -9.96819407230998
      ],
      [
        "त्म",
        -9.968298006578104
      ],
      [
        "दवरता",
        -9.96864121304931
      ],
      [
        "भुरग्यांचे",
        -9.968961191842201
      ],
      [
        "भोंव",
        -9.970122798412334
      ],
      [
        "देवळा",
        -9.970133850779925
      ],
      [
        "म्हणत",
        -9.97057712102964
      ],
      [
        "मिर",
        -9.97071715930494
      ],
      [
        "एकठा",
        -9.971306657810771
      ],
      [
        "वृत्ती",
        -9.972202799828993
      ],
      [
        "राखण",
        -9.973654295816349
      ],
      [
        "व्हेल",
        -9.973923595199349
      ],
      [
        "ऩड",
        -9.974686556561872
      ],
      [
        "वाटेर",
        -9.975102457875925
      ],
      [
        "प्राधिकरणा",
        -9.975652742592931
      ],
      [
        "झुज",
        -9.97573929290553
      ],
      [
        "उफ",
        -9.97596573743718
      ],
      [
        "याज्म",
        -9.976532334531269
      ],
      [
        "जरी",
        -9.976625628934205
      ],
      [
        "वसा",
        -9.976640206737162
      ],
      [
        "ॊक",
        -9.978348363827724
      ],
      [
        "यंत्र",
        -9.978928877948658
      ],
      [
        "सत्ते",
        -9.97929248927796
      ],
      [
        "त्मा",
        -9.97942574294865
      ],
      [
        "वावुरप",
        -9.979947480046455
      ],
      [
        "मुखेलमंत्र्यान",
        -9.980520627724161
      ],
      [
        "नाल्ल",
        -9.9805763363184
      ],
      [
        "न्हेस",
        -9.981194486029047
      ],
      [
        "पैल",
        -9.981608061065657
      ],
      [
        "र्नांड",
        -9.981896988933144
      ],
      [
        "ळ्या",
        -9.982034161278328
      ],
      [
        "S",
        -9.982744613025732
      ],
      [
        "बंगळुरू",
        -9.982744621521858
      ],
      [
        "ऑ्नटोबर",
        -9.982744622486335
      ],
      [
        "समृद्ध",
        -9.982744632025529
      ],
      [
        "196",
        -9.982744648297464
      ],
      [
        "193",
        -9.982744657719966
      ],
      [
        "ऑगस्ट",
        -9.98274546547043
      ],
      [
        "थरथर",
        -9.982745548007365
      ],
      [
        "पराक्रम",
        -9.982748207604978
      ],
      [
        "प्रेरणा",
        -9.982749086168473
      ],
      [
        "विवेकानंद",
        -9.982763745790685
      ],
      [
        "सिताराम",
        -9.982764542076092
      ],
      [
        "हिप्पी",
        -9.982765431101013
      ],
      [
        "ङ्काटभुये",
        -9.982833173017603
      ],
      [
        "म्शामती",
        -9.982839085511722
      ],
      [
        "तळमळ",
        -9.982849139353323
      ],
      [
        "अभियंत",
        -9.982866780155096
      ],
      [
        "सागंल",
        -9.982870571858824
      ],
      [
        "सोबीत",
        -9.982886363823994
      ],
      [
        "अरूण",
        -9.982889737969971
      ],
      [
        "बायतीम",
        -9.982900842738676
      ],
      [
        "स्वागत",
        -9.982908525085552
      ],
      [
        "सार्नय",
        -9.983037757969301
      ],
      [
        "आमगेर",
        -9.983163777177548
      ],
      [
        "इनाभ",
        -9.983174011203177
      ],
      [
        "खड",
        -9.983223556813954
      ],
      [
        "तातुत",
        -9.983338818469466
      ],
      [
        "बांदावळ",
        -9.983445982663612
      ],
      [
        "झो",
        -9.983668739718727
      ],
      [
        "सुरवे",
        -9.983794036687065
      ],
      [
        "अंत",
        -9.983798946954293
      ],
      [
        "खरेदी",
        -9.983886525394931
      ],
      [
        "पूर्व",
        -9.983933697603387
      ],
      [
        "ोत्सव",
        -9.983998385641732
      ],
      [
        "पदवी",
        -9.984058302809784
      ],
      [
        "तुजो",
        -9.984274281630869
      ],
      [
        "दितलो",
        -9.984317174886218
      ],
      [
        "भजन",
        -9.984893868857503
      ],
      [
        "इश्ट",
        -9.985057701277777
      ],
      [
        "मार्च",
        -9.985486946881803
      ],
      [
        "गोंमा",
        -9.98580696921823
      ],
      [
        "मोहन",
        -9.986101921856754
      ],
      [
        "गूण",
        -9.986346736479547
      ],
      [
        "कौल",
        -9.98646026803393
      ],
      [
        "ङ्काय",
        -9.98695394494451
      ],
      [
        "ल्मात",
        -9.986969363894877
      ],
      [
        "जाळ्या",
        -9.987721608668018
      ],
      [
        "भाशी",
        -9.988153119187496
      ],
      [
        "गेल्लो",
        -9.98815694219166
      ],
      [
        "जमनी",
        -9.989065024185685
      ],
      [
        "परीषदे",
        -9.989225501634925
      ],
      [
        "सत्त्आ",
        -9.989532384109552
      ],
      [
        "विक्रम",
        -9.989692941059175
      ],
      [
        "सर्तीचे",
        -9.990746678868662
      ],
      [
        "प्रभो",
        -9.990808506826117
      ],
      [
        "ेंतल्या",
        -9.99137761908225
      ],
      [
        "बावट",
        -9.991629785935597
      ],
      [
        "पेड",
        -9.99284196386343
      ],
      [
        "थारता",
        -9.992855410455512
      ],
      [
        "थळ",
        -9.9933435597673
      ],
      [
        "संमेलना",
        -9.993543775517743
      ],
      [
        "व्हर",
        -9.993555838749948
      ],
      [
        "प्रभाव",
        -9.993865427307739
      ],
      [
        "सांवळ्या",
        -9.994349633895617
      ],
      [
        "शाॊ",
        -9.995241588680774
      ],
      [
        "घेलऩ",
        -9.995429381119735
      ],
      [
        "किर",
        -9.996229195168752
      ],
      [
        "घेल",
        -9.996613909210144
      ],
      [
        "भरिल्ल",
        -9.996898318389873
      ],
      [
        "षा",
        -9.997746480265128
      ],
      [
        "उठू",
        -9.998565443337919
      ],
      [
        "सामान",
        -9.999197562117356
      ],
      [
        "दोतोर",
        -9.99964233760132
      ],
      [
        "भूम",
        -10.000100675540267
      ],
      [
        "पध्दतीन",
        -10.000327814456206
      ],
      [
        "मडगांवां",
        -10.000405672281731
      ],
      [
        "उडय",
        -10.000609227650784
      ],
      [
        "िमण्या",
        -10.00106924358461
      ],
      [
        "उक्ता",
        -10.001578912760849
      ],
      [
        "सोश",
        -10.00163142565787
      ],
      [
        "गणूक",
        -10.002702390425371
      ],
      [
        "म्हणपाचें",
        -10.002928232437863
      ],
      [
        "शारात",
        -10.003041481096275
      ],
      [
        "हातात",
        -10.003809275896742
      ],
      [
        "ॅन",
        -10.003846147458386
      ],
      [
        "खरो",
        -10.00419933281367
      ],
      [
        "ाँ",
        -10.004549600221829
      ],
      [
        "आपणाक",
        -10.006976502183619
      ],
      [
        "ूरू",
        -10.008301031951177
      ],
      [
        "येतल",
        -10.008354683723063
      ],
      [
        "दां",
        -10.009098915969565
      ],
      [
        "राखू",
        -10.009188106877785
      ],
      [
        "संग्रह",
        -10.01069156845155
      ],
      [
        "घेतिल्ले",
        -10.01080077537741
      ],
      [
        "कागाळ",
        -10.011070422269375
      ],
      [
        "वाडट",
        -10.01136442924754
      ],
      [
        "मंत्र्या",
        -10.011693552551648
      ],
      [
        "खबरी",
        -10.011747982555564
      ],
      [
        "गटाच",
        -10.012324391339618
      ],
      [
        "मतदारसंघां",
        -10.012369500835739
      ],
      [
        "शणैल",
        -10.012510712074825
      ],
      [
        "अजाप",
        -10.012536776028158
      ],
      [
        "दायज",
        -10.01320720519856
      ],
      [
        "व्हडल्या",
        -10.013384107479572
      ],
      [
        "तिसरे",
        -10.013949801953949
      ],
      [
        "दिसांनी",
        -10.014099152926985
      ],
      [
        "पालकां",
        -10.014425819785526
      ],
      [
        "येवजणेच",
        -10.0153737743492
      ],
      [
        "लाद",
        -10.015736494231192
      ],
      [
        "आशे",
        -10.01595627093415
      ],
      [
        "प्रिय",
        -10.016197590110721
      ],
      [
        "उडयल",
        -10.016522892884733
      ],
      [
        "आदेशा",
        -10.016791286499771
      ],
      [
        "भाजप",
        -10.0168080809043
      ],
      [
        "सांज",
        -10.01688850086113
      ],
      [
        "पैक",
        -10.019680458819677
      ],
      [
        "येतालो",
        -10.020538568628117
      ],
      [
        "व्हि",
        -10.02090650165647
      ],
      [
        "सावळ",
        -10.021907518468284
      ],
      [
        "पैली",
        -10.02307783584069
      ],
      [
        "संकल्प",
        -10.023344090901263
      ],
      [
        "शीम",
        -10.023410279428681
      ],
      [
        "शाळेत",
        -10.023580701742423
      ],
      [
        "पयश",
        -10.023704754558313
      ],
      [
        "ऩुय",
        -10.02384088353213
      ],
      [
        "नासल",
        -10.023913786179431
      ],
      [
        "ङ्कुडाऱ्या",
        -10.024669297476306
      ],
      [
        "परां",
        -10.025264667362908
      ],
      [
        "झे",
        -10.026177667138354
      ],
      [
        "गजालीं",
        -10.026909155729566
      ],
      [
        "पान",
        -10.02913702991982
      ],
      [
        "कृष्ण",
        -10.029203899124436
      ],
      [
        "ुरेश",
        -10.0311249327875
      ],
      [
        "हांचें",
        -10.031652080892927
      ],
      [
        "पर्व",
        -10.03200439112598
      ],
      [
        "नाफुडें",
        -10.032879055791293
      ],
      [
        "धुकल",
        -10.03456507380174
      ],
      [
        "सॅ",
        -10.03533129545459
      ],
      [
        "ाध्यक्ष",
        -10.035512977569205
      ],
      [
        "ङ्कुडल",
        -10.037451532931811
      ],
      [
        "आंध्र",
        -10.037957911712894
      ],
      [
        "18",
        -10.038108929394035
      ],
      [
        "शिक्षकां",
        -10.038282865960955
      ],
      [
        "सुचोवण्यो",
        -10.038300179695462
      ],
      [
        "व्हिडियो",
        -10.038300308921553
      ],
      [
        "व्यवसाय",
        -10.038301906319443
      ],
      [
        "पुरुष",
        -10.03830305196724
      ],
      [
        "पेद्रू",
        -10.038316756118066
      ],
      [
        "सीताराम",
        -10.038317515827751
      ],
      [
        "राजिनाम",
        -10.038328434877704
      ],
      [
        "जेन्ना",
        -10.038357643263364
      ],
      [
        "विंगड",
        -10.038361551531029
      ],
      [
        "क्रांती",
        -10.038505033652473
      ],
      [
        "हॉक",
        -10.038505272307194
      ],
      [
        "उऩाम",
        -10.038516770187831
      ],
      [
        "मया",
        -10.038629796721079
      ],
      [
        "यादस्ती",
        -10.038638474392528
      ],
      [
        "जमी",
        -10.038726057027032
      ],
      [
        "देखुन",
        -10.038955719884036
      ],
      [
        "वितराय",
        -10.039171607554438
      ],
      [
        "सुटाव",
        -10.039880154381095
      ],
      [
        "भाऊ",
        -10.03993224964943
      ],
      [
        "जनत",
        -10.040021128202762
      ],
      [
        "पंडीत",
        -10.040344813031062
      ],
      [
        "काश्मीरातल्या",
        -10.040996688692072
      ],
      [
        "ददस",
        -10.04115202034703
      ],
      [
        "करुं",
        -10.041324125631231
      ],
      [
        "कर्नाटकांत",
        -10.04133458671195
      ],
      [
        "यांक",
        -10.04151901880404
      ],
      [
        "निर्गत",
        -10.041726081930054
      ],
      [
        "वाग",
        -10.042031578307423
      ],
      [
        "एकूण",
        -10.042462545333212
      ],
      [
        "दिसताले",
        -10.042608606880432
      ],
      [
        "सोय",
        -10.043169069466057
      ],
      [
        "हड",
[...]
