{
  "version": "1.0",
  "truncation": null,
  "padding": null,
  "added_tokens": [
    {
      "id": 0,
      "content": "[PAD]",
      "single_word": false,
      "lstrip": false,
      "rstrip": false,
      "normalized": false,
      "special": true
    },
    {
      "id": 1,
      "content": "[UNK]",
      "single_word": false,
      "lstrip": false,
      "rstrip": false,
      "normalized": false,
      "special": true
    },
    {
      "id": 2,
      "content": "[CLS]",
      "single_word": false,
      "lstrip": false,
      "rstrip": false,
      "normalized": false,
      "special": true
    },
    {
      "id": 3,
      "content": "[SEP]",
      "single_word": false,
      "lstrip": false,
      "rstrip": false,
      "normalized": false,
      "special": true
    },
    {
      "id": 4,
      "content": "[MASK]",
      "single_word": false,
      "lstrip": false,
      "rstrip": false,
      "normalized": false,
      "special": true
    }
  ],
  "normalizer": null,
  "pre_tokenizer": {
    "type": "Whitespace"
  },
  "post_processor": null,
  "decoder": null,
  "model": {
    "type": "WordPiece",
    "unk_token": "<unk>",
    "continuing_subword_prefix": "##",
    "max_input_chars_per_word": 100,
    "vocab": {
      "[PAD]": 0,
      "[UNK]": 1,
      "[CLS]": 2,
      "[SEP]": 3,
      "[MASK]": 4,
      "!": 5,
      "\"": 6,
      "%": 7,
      "'": 8,
      "(": 9,
      ")": 10,
      "*": 11,
      ",": 12,
      "-": 13,
      ".": 14,
      "/": 15,
      "0": 16,
      "1": 17,
      "2": 18,
      "3": 19,
      "4": 20,
      "5": 21,
      "6": 22,
      "7": 23,
      "8": 24,
      "9": 25,
      ":": 26,
      ";": 27,
      "?": 28,
      "A": 29,
      "B": 30,
      "C": 31,
      "D": 32,
      "E": 33,
      "F": 34,
      "G": 35,
      "H": 36,
      "I": 37,
      "J": 38,
      "K": 39,
      "L": 40,
      "M": 41,
      "N": 42,
      "O": 43,
      "P": 44,
      "R": 45,
      "S": 46,
      "T": 47,
      "V": 48,
      "X": 49,
      "Y": 50,
      "[": 51,
      "\\": 52,
      "a": 53,
      "b": 54,
      "c": 55,
      "d": 56,
      "e": 57,
      "f": 58,
      "g": 59,
      "h": 60,
      "i": 61,
      "j": 62,
      "k": 63,
      "l": 64,
      "m": 65,
      "n": 66,
      "o": 67,
      "p": 68,
      "r": 69,
      "s": 70,
      "t": 71,
      "u": 72,
      "v": 73,
      "w": 74,
      "x": 75,
      "y": 76,
      "z": 77,
      "~": 78,
      "ँ": 79,
      "ं": 80,
      "ः": 81,
      "अ": 82,
      "आ": 83,
      "इ": 84,
      "ई": 85,
      "उ": 86,
      "ऊ": 87,
      "ऋ": 88,
      "ए": 89,
      "ऐ": 90,
      "ऑ": 91,
      "ओ": 92,
      "औ": 93,
      "क": 94,
      "ख": 95,
      "ग": 96,
      "घ": 97,
      "ङ": 98,
      "च": 99,
      "छ": 100,
      "ज": 101,
      "झ": 102,
      "ञ": 103,
      "ट": 104,
      "ठ": 105,
      "ड": 106,
      "ढ": 107,
      "ण": 108,
      "त": 109,
      "थ": 110,
      "द": 111,
      "ध": 112,
      "न": 113,
      "प": 114,
      "फ": 115,
      "ब": 116,
      "भ": 117,
      "म": 118,
      "य": 119,
      "र": 120,
      "ऱ": 121,
      "ल": 122,
      "ळ": 123,
      "व": 124,
      "श": 125,
      "ष": 126,
      "स": 127,
      "ह": 128,
      "ऺ": 129,
      "ऻ": 130,
      "़": 131,
      "ऽ": 132,
      "ा": 133,
      "ि": 134,
      "ी": 135,
      "ु": 136,
      "ू": 137,
      "ृ": 138,
      "ॅ": 139,
      "ॆ": 140,
      "े": 141,
      "ै": 142,
      "ॉ": 143,
      "ॊ": 144,
      "ो": 145,
      "ौ": 146,
      "्": 147,
      "ॠ": 148,
      "।": 149,
      "॥": 150,
      "०": 151,
      "१": 152,
      "२": 153,
      "३": 154,
      "४": 155,
      "५": 156,
      "६": 157,
      "७": 158,
      "८": 159,
      "९": 160,
      "ॲ": 161,
      "–": 162,
      "‘": 163,
      "’": 164,
      "“": 165,
      "”": 166,
      "에": 167,
      "##र": 168,
      "##क": 169,
      "##ा": 170,
      "##व": 171,
      "##ळ": 172,
      "##फ": 173,
      "##श": 174,
      "##ल": 175,
      "##्": 176,
      "##ह": 177,
      "##य": 178,
      "##न": 179,
      "##ो": 180,
      "##भ": 181,
      "##ं": 182,
      "##त": 183,
      "##ग": 184,
      "##ि": 185,
      "##ज": 186,
      "##ञ": 187,
      "##ख": 188,
      "##ी": 189,
      "##े": 190,
      "##ॉ": 191,
      "##ट": 192,
      "##ई": 193,
      "##छ": 194,
      "##ङ": 195,
      "##ध": 196,
      "##ु": 197,
      "##ड": 198,
      "##प": 199,
      "##स": 200,
      "##म": 201,
      "##च": 202,
      "##़": 203,
      "##इ": 204,
      "##घ": 205,
      "##द": 206,
      "##ए": 207,
      "##ॠ": 208,
      "##ृ": 209,
      "##ू": 210,
      "##ॅ": 211,
      "##0": 212,
      "##9": 213,
      "##ण": 214,
      "##ब": 215,
      "##थ": 216,
      "##ै": 217,
      "##ष": 218,
      "##ठ": 219,
      "##झ": 220,
      "##ँ": 221,
      "##आ": 222,
      "##७": 223,
      "##ॊ": 224,
      "##ओ": 225,
      "##ौ": 226,
      "##अ": 227,
      "##८": 228,
      "##ढ": 229,
      "##ऽ": 230,
      "##?": 231,
      "##उ": 232,
      "##ऱ": 233,
      "##e": 234,
      "##r": 235,
      "##o": 236,
      "##z": 237,
      "##s": 238,
      "##h": 239,
      "##a": 240,
      "##ऺ": 241,
      "##u": 242,
      "##t": 243,
      "##n": 244,
      "##i": 245,
      "##c": 246,
      "##y": 247,
      "##p": 248,
      "##४": 249,
      "##५": 250,
      "##!": 251,
      "##5": 252,
      "##ऊ": 253,
      "##7": 254,
      "##1": 255,
      "##4": 256,
      "##8": 257,
      "##ऋ": 258,
      "##d": 259,
      "##l": 260,
      "##१": 261,
      "##२": 262,
      "##०": 263,
      "##m": 264,
      "##3": 265,
      "##-": 266,
      "##ः": 267,
      "##.": 268,
      "##६": 269,
      "##2": 270,
      "##ऻ": 271,
      "##३": 272,
      "##6": 273,
      "##k": 274,
      "##ॆ": 275,
      "##w": 276,
      "##v": 277,
      "##E": 278,
      "##V": 279,
      "##I": 280,
      "##S": 281,
      "##D": 282,
      "##ऑ": 283,
      "##X": 284,
      "##g": 285,
      "##९": 286,
      "##f": 287,
      "##b": 288,
      "##x": 289,
      "##R": 290,
      "##C": 291,
      "##A": 292,
      "##H": 293,
      "##T": 294,
      "##Y": 295,
      "##औ": 296,
      "##ऐ": 297,
      "##N": 298,
      "##K": 299,
      "##M": 300,
      "##j": 301,
      "##*": 302,
      "##या": 303,
      "##्या": 304,
      "##ां": 305,
      "##ार": 306,
      "##्र": 307,
      "##ें": 308,
      "##ात": 309,
      "##नी": 310,
      "##ाच": 311,
      "##ाल": 312,
      "##ान": 313,
      "##ल्या": 314,
      "##ाय": 315,
      "##ल्": 316,
      "##ाव": 317,
      "##ंत": 318,
      "##्ह": 319,
      "आनी": 320,
      "##ली": 321,
      "##ले": 322,
      "##र्": 323,
      "##णी": 324,
      "##ाक": 325,
      "##ती": 326,
      "##चे": 327,
      "प्र": 328,
      "##ांत": 329,
      "##लो": 330,
      "म्ह": 331,
      "##्य": 332,
      "दि": 333,
      "##स्": 334,
      "हां": 335,
      "##्री": 336,
      "##च्या": 337,
      "##क्": 338,
      "कर": 339,
      "वि": 340,
      "के": 341,
      "##ाज": 342,
      "##ून": 343,
      "##कार": 344,
      "##का": 345,
      "अश": 346,
      "##ेर": 347,
      "##सा": 348,
      "##ेव": 349,
      "##ाग": 350,
      "जाल": 351,
      "##ची": 352,
      "सं": 353,
      "##ना": 354,
      "आय": 355,
      "##ेत": 356,
      "सु": 357,
      "##िल्": 358,
      "##ाम": 359,
      "##क्ष": 360,
      "##्क": 361,
      "##ंक": 362,
      "##ीर": 363,
      "##ेन": 364,
      "ह्या": 365,
      "##ेळ": 366,
      "##लें": 367,
      "##्ट": 368,
      "##चो": 369,
      "##ांग": 370,
      "##ेश": 371,
      "##ित": 372,
      "##ास": 373,
      "##ाचे": 374,
      "##ाद": 375,
      "##ंत्री": 376,
      "को": 377,
      "तां": 378,
      "##ला": 379,
      "##ीत": 380,
      "पु": 381,
      "अशें": 382,
      "##मा": 383,
      "##ाड": 384,
      "नि": 385,
      "##त्": 386,
      "##ता": 387,
      "##ंग": 388,
      "##ाची": 389,
      "मु": 390,
      "ङ्क": 391,
      "##दी": 392,
      "##ातीर": 393,
      "##री": 394,
      "हे": 395,
      "##ाच्या": 396,
      "##कां": 397,
      "एक": 398,
      "ते": 399,
      "भार": 400,
      "##ाळ": 401,
      "##्यां": 402,
      "आसा": 403,
      "हांणी": 404,
      "##धान": 405,
      "जात": 406,
      "##स्त": 407,
      "##ों": 408,
      "सांग": 409,
      "##ेग": 410,
      "##िक": 411,
      "##ोव": 412,
      "##ाचो": 413,
      "##ाणी": 414,
      "आस": 415,
      "##ीक": 416,
      "कार": 417,
      "##ंद": 418,
      "वा": 419,
      "मो": 420,
      "ना": 421,
      "राज": 422,
      "आप": 423,
      "##वी": 424,
      "पर": 425,
      "##ंत्र": 426,
      "##ेंद": 427,
      "उप": 428,
      "##ष्ट": 429,
      "दो": 430,
      "लाग": 431,
      "##ळी": 432,
      "सर": 433,
      "करप": 434,
      "##ाण": 435,
      "##ल्यान": 436,
      "##्न": 437,
      "##्यो": 438,
      "प्रधान": 439,
      "##शिल्": 440,
      "रा": 441,
      "##शी": 442,
      "##रो": 443,
      "##ेल": 444,
      "लो": 445,
      "##ांव": 446,
      "##ाका": 447,
      "##यो": 448,
      "##ेट": 449,
      "##मंत्री": 450,
      "##तले": 451,
      "##ेक": 452,
      "खातीर": 453,
      "मुख": 454,
      "##ंड": 455,
      "##की": 456,
      "ही": 457,
      "##ेच": 458,
      "##्म": 459,
      "भारत": 460,
      "##रा": 461,
      "##लां": 462,
      "सुर": 463,
      "##..": 464,
      "म्हण": 465,
      "##यत": 466,
      "##चेर": 467,
      "##ुड": 468,
      "म्हळ": 469,
      "आयज": 470,
      "जाव": 471,
      "##ेंद्र": 472,
      "##ारी": 473,
      "सरकार": 474,
      "##पी": 475,
      "##ाप": 476,
      "##ांक": 477,
      "##स्थ": 478,
      "##ूक": 479,
      "ती": 480,
      "##्यार": 481,
      "##रे": 482,
      "##ेंत": 483,
      "बस": 484,
      "##्याव": 485,
      "##ुर": 486,
      "##दार": 487,
      "आशिल्": 488,
      "मेळ": 489,
      "सो": 490,
      "अध": 491,
      "स्": 492,
      "हो": 493,
      "##ेंच": 494,
      "##ाह": 495,
      "##रांत": 496,
      "दोन": 497,
      "घेत": 498,
      "दु": 499,
      "गों": 500,
      "##देश": 501,
      "सग": 502,
      "दिस": 503,
      "##रण": 504,
      "तो": 505,
      "येव": 506,
      "दिव": 507,
      "देश": 508,
      "शि": 509,
      "##ाचेर": 510,
      "##ऩ": 511,
      "##ंय": 512,
      "तांणी": 513,
      "उद": 514,
      "##वि": 515,
      "पाव": 516,
      "##्रीय": 517,
      "तश": 518,
      "##ल्ली": 519,
      "##ांनी": 520,
      "मंत्री": 521,
      "हाणी": 522,
      "##पाक": 523,
      "##पा": 524,
      "सम": 525,
      "##ाब": 526,
      "##टी": 527,
      "काल": 528,
      "तु": 529,
      "##डेन": 530,
      "आम": 531,
      "राष्ट": 532,
      "कार्याव": 533,
      "##णे": 534,
      "जाल्": 535,
      "मन": 536,
      "##ुन": 537,
      "प्रधानमंत्री": 538,
      "##डी": 539,
      "##ूय": 540,
      "##सो": 541,
      "सांगलें": 542,
      "ति": 543,
      "घेव": 544,
      "व्ह": 545,
      "##ुक": 546,
      "उल": 547,
      "##बर": 548,
      "...": 549,
      "##यान": 550,
      "##त्र": 551,
      "##सार": 552,
      "पय": 553,
      "कित": 554,
      "##ङ्क": 555,
      "वेळ": 556,
      "##्द": 557,
      "##ळे": 558,
      "सर्": 559,
      "##ताय": 560,
      "मह": 561,
      "जाय": 562,
      "##ाख": 563,
      "काम": 564,
      "##िन": 565,
      "##ल्ल्या": 566,
      "##ेस": 567,
      "मुखेल": 568,
      "##चार": 569,
      "खेळ": 570,
      "वर्": 571,
      "##ाश": 572,
      "हांव": 573,
      "पड": 574,
      "##ल्यो": 575,
      "मोदी": 576,
      "##चें": 577,
      "##ोड": 578,
      "##्मा": 579,
      "अशे": 580,
      "पुण": 581,
      "आव": 582,
      "##ोग": 583,
      "परि": 584,
      "##ाट": 585,
      "बाय": 586,
      "##वर": 587,
      "##ांय": 588,
      "##ऱ": 589,
      "##ल्यात": 590,
      "##ळ्या": 591,
      "##्यक्ष": 592,
      "##धी": 593,
      "निर्": 594,
      "पुर": 595,
      "अर्": 596,
      "कथ": 597,
      "लोकां": 598,
      "##ायती": 599,
      "मार": 600,
      "##्यांनी": 601,
      "ऩ": 602,
      "येत": 603,
      "##िती": 604,
      "##िया": 605,
      "##वे": 606,
      "गोंय": 607,
      "##मान": 608,
      "##वात": 609,
      "ताका": 610,
      "हात": 611,
      "##पाची": 612,
      "##तर": 613,
      "##्यान": 614,
      "पळ": 615,
      "##पण": 616,
      "उपरांत": 617,
      "लोक": 618,
      "##सभ": 619,
      "जाल्यार": 620,
      "न्ह": 621,
      "##द्या": 622,
      "##ाले": 623,
      "तें": 624,
      "##माण": 625,
      "##ेचे": 626,
      "नर": 627,
      "##यां": 628,
      "ङ्कुड": 629,
      "##ारा": 630,
      "कु": 631,
      "गे": 632,
      "##णूक": 633,
      "म्हायती": 634,
      "आत": 635,
      "##क्षण": 636,
      "##ाचें": 637,
      "मत": 638,
      "##मी": 639,
      "वाठ": 640,
      "काय": 641,
      "राव": 642,
      "सि": 643,
      "##ाध": 644,
      "भारती": 645,
      "##मंत्र": 646,
      "त्या": 647,
      "##वाद": 648,
      "##ोर": 649,
      "##ंच": 650,
      "##ेच्या": 651,
      "##्यांत": 652,
      "कोंक": 653,
      "म्हज": 654,
      "##ाली": 655,
      "##िर": 656,
      "वर": 657,
      "##ीस": 658,
      "##ूण": 659,
      "##क्त": 660,
      "उत्": 661,
      "##तात": 662,
      "दिल्ली": 663,
      "नरेंद्र": 664,
      "राष्ट्र": 665,
      "करून": 666,
      "##ूर": 667,
      "श्री": 668,
      "केंद्र": 669,
      "तशेंच": 670,
      "उलयत": 671,
      "मान": 672,
      "भारतीय": 673,
      "कोंकणी": 674,
      "ताज": 675,
      "##िव": 676,
      "##ूंक": 677,
      "वेळार": 678,
      "##ावन": 679,
      "कार्यावळी": 680,
      "##खातीर": 681,
      "खात": 682,
      "##िल्ल्या": 683,
      "सां": 684,
      "##्यांक": 685,
      "वाठार": 686,
      "भेट": 687,
      "##दान": 688,
      "केल्या": 689,
      "हेर": 690,
      "##ांच": 691,
      "आपल्या": 692,
      "##ंब": 693,
      "म्हाका": 694,
      "घाल": 695,
      "आड": 696,
      "तर": 697,
      "पक्ष": 698,
      "##दर्": 699,
      "जाली": 700,
      "##शे": 701,
      "वेग": 702,
      "##गती": 703,
      "लागून": 704,
      "सुरू": 705,
      "अशी": 706,
      "घर": 707,
      "ताणी": 708,
      "येवज": 709,
      "घड": 710,
      "##िय": 711,
      "प्रक": 712,
      "गु": 713,
      "##लाय": 714,
      "##्याक": 715,
      "##को": 716,
      "##ांतल्या": 717,
      "ङ्": 718,
      "का": 719,
      "काड": 720,
      "रे": 721,
      "##श्ट": 722,
      "##ांच्या": 723,
      "करतले": 724,
      "##िकार": 725,
      "##ज्": 726,
      "##ीन": 727,
      "राज्य": 728,
      "ताण": 729,
      "##डा": 730,
      "##पती": 731,
      "आसात": 732,
      "वेव": 733,
      "##यांत": 734,
      "##ोवन": 735,
      "##न्": 736,
      "##डे": 737,
      "##मे": 738,
      "##ूं": 739,
      "दिली": 740,
      "मंत्र": 741,
      "##िस": 742,
      "##्च": 743,
      "म्हणून": 744,
      "थार": 745,
      "वांग": 746,
      "##तान": 747,
      "##णा": 748,
      "वच": 749,
      "कांय": 750,
      "भर": 751,
      "हांचे": 752,
      "अर्थ": 753,
      "देव": 754,
      "न्या": 755,
      "जातली": 756,
      "##णुक": 757,
      "मज": 758,
      "वाड": 759,
      "##टक": 760,
      "##ांचे": 761,
      "जाता": 762,
      "बसक": 763,
      "पो": 764,
      "माग": 765,
      "##जे": 766,
      "एका": 767,
      "ङ्का": 768,
      "संब": 769,
      "गो": 770,
      "उलो": 771,
      "असो": 772,
      "नवी": 773,
      "##मार": 774,
      "प्रधानमंत्र": 775,
      "संव": 776,
      "##ोज": 777,
      "##स्ट": 778,
      "##ंडळ": 779,
      "चड": 780,
      "केंद": 781,
      "हाड": 782,
      "##ेख": 783,
      "##ल्ले": 784,
      "##ग्र": 785,
      "##जी": 786,
      "अध्यक्ष": 787,
      "दवर": 788,
      "हांच्या": 789,
      "विश": 790,
      "##शन": 791,
      "चल": 792,
      "डॉ": 793,
      "भाज": 794,
      "##ांची": 795,
      "##त्व": 796,
      "केंद्रीय": 797,
      "वेच": 798,
      "##ंप": 799,
      "केली": 800,
      "जाल्या": 801,
      "अम": 802,
      "##यार": 803,
      "##ांट": 804,
      "तीन": 805,
      "##पाचे": 806,
      "##ाला": 807,
      "##ावण": 808,
      "दुस": 809,
      "सभ": 810,
      "##ेरेन": 811,
      "##टा": 812,
      "##पर": 813,
      "##वा": 814,
      "##ाती": 815,
      "##ालो": 816,
      "##ज्ञ": 817,
      "नव": 818,
      "सुवात": 819,
      "##शीं": 820,
      "अशेंय": 821,
      "##गी": 822,
      "संस्थ": 823,
      "##क्षा": 824,
      "##कत": 825,
      "नाय": 826,
      "वय": 827,
      "##मो": 828,
      "अधिकार": 829,
      "##स्क": 830,
      "दर": 831,
      "भाय": 832,
      "##ुय": 833,
      "##ल्लो": 834,
      "सरकारान": 835,
      "##वार": 836,
      "भुर": 837,
      "करपाक": 838,
      "संवसार": 839,
      "##्यानी": 840,
      "काळ": 841,
      "##नाथ": 842,
      "भलाय": 843,
      "##दर": 844,
      "हांग": 845,
      "करत": 846,
      "मुखार": 847,
      "चार": 848,
      "हि": 849,
      "##र्च": 850,
      "आसत": 851,
      "आज": 852,
      "##ेय": 853,
      "न्याया": 854,
      "##्व": 855,
      "बर": 856,
      "##प्र": 857,
      "##ंध": 858,
      "गर": 859,
      "दिसा": 860,
      "कितें": 861,
      "सर्ती": 862,
      "##ति": 863,
      "विद्या": 864,
      "केला": 865,
      "कार्यावळ": 866,
      "घेवन": 867,
      "##ासा": 868,
      "##ंगड": 869,
      "ङ्काट": 870,
      "थंय": 871,
      "##ूच": 872,
      "ने": 873,
      "##ंज": 874,
      "##ेगीत": 875,
      "भु": 876,
      "सेव": 877,
      "वेंच": 878,
      "म्हळे": 879,
      "कि": 880,
      "##वेग": 881,
      "कोण": 882,
      "##ेची": 883,
      "##ांद": 884,
      "दिल्या": 885,
      "रो": 886,
      "सांगले": 887,
      "पद": 888,
      "या": 889,
      "मंत्राल": 890,
      "##ेज": 891,
      "वेगवेग": 892,
      "जी": 893,
      "शेत": 894,
      "##ानी": 895,
      "##ांचो": 896,
      "अभ": 897,
      "कडेन": 898,
      "पाल": 899,
      "##ुल": 900,
      "##डो": 901,
      "आद": 902,
      "##ावर": 903,
      "##टन": 904,
      "##ल्प": 905,
      "##ातल्या": 906,
      "##ाल्": 907,
      "स्थ": 908,
      "साह": 909,
      "हज": 910,
      "हाज": 911,
      "राष्ट्रीय": 912,
      "येता": 913,
      "##च्यो": 914,
      "जालो": 915,
      "##्रम": 916,
      "जोड": 917,
      "##प्": 918,
      "जालें": 919,
      "व्य": 920,
      "आशिल्ले": 921,
      "भलायकी": 922,
      "खबर": 923,
      "जाग": 924,
      "दीस": 925,
      "प्रमाण": 926,
      "वर्सा": 927,
      "तांचे": 928,
      "आतां": 929,
      "##पाचो": 930,
      "केलें": 931,
      "भायर": 932,
      "चाल": 933,
      "##ेचो": 934,
      "##तीन": 935,
      "पंगड": 936,
      "राम": 937,
      "##र्म": 938,
      "निम": 939,
      "राष्ट्रपती": 940,
      "साद": 941,
      "विशीं": 942,
      "वाट": 943,
      "साव": 944,
      "##पाल": 945,
      "##ांचेर": 946,
      "##लीं": 947,
      "साहित": 948,
      "रु": 949,
      "##सं": 950,
      "उलयताले": 951,
      "##काश": 952,
      "जाल्ल्या": 953,
      "मुखेलमंत्री": 954,
      "##ांब": 955,
      "दद": 956,
      "हु": 957,
      "आयोज": 958,
      "##सी": 959,
      "पुराय": 960,
      "##पाव": 961,
      "दाख": 962,
      "भाग": 963,
      "यु": 964,
      "सह": 965,
      "##िका": 966,
      "वरवी": 967,
      "##गत": 968,
      "##सभा": 969,
      "उलोव": 970,
      "चर्च": 971,
      "जातलो": 972,
      "##बी": 973,
      "मात": 974,
      "सार": 975,
      "##सर": 976,
      "##सव": 977,
      "##शद": 978,
      "##िल्लो": 979,
      "बसका": 980,
      "##ांड": 981,
      "पांव": 982,
      "लाव": 983,
      "##ंतर": 984,
      "विचार": 985,
      "संघ": 986,
      "जाण": 987,
      "हें": 988,
      "##्ग": 989,
      "##यात": 990,
      "##स्कार": 991,
      "कार्य": 992,
      "व्हड": 993,
      "न्हय": 994,
      "भुरग": 995,
      "न्यायाल": 996,
      "अन": 997,
      "उर": 998,
      "जम": 999,
      "मेरेन": 1000,
      "##यन": 1001,
      "##ुण": 1002,
      "प्रभ": 1003,
      "परत": 1004,
      "येवजण": 1005,
      "बि": 1006,
      "लेगीत": 1007,
      "##ुद": 1008,
      "##तीक": 1009,
      "उदर": 1010,
      "साम": 1011,
      "##्याचे": 1012,
      "केले": 1013,
      "तेन": 1014,
      "##ाऱ": 1015,
      "काँ": 1016,
      "बरो": 1017,
      "वर्स": 1018,
      "##गर": 1019,
      "##िट": 1020,
      "स्व": 1021,
      "तरी": 1022,
      "नदर": 1023,
      "##ळो": 1024,
      "केलो": 1025,
      "##ग्रेस": 1026,
      "##्ध": 1027,
      "##ीय": 1028,
      "परिशद": 1029,
      "##वान": 1030,
      "तांच्या": 1031,
      "गरज": 1032,
      "##ोल": 1033,
      "##त्न": 1034,
      "कळ": 1035,
      "काँग्रेस": 1036,
      "##ाकार": 1037,
      "##त्त": 1038,
      "बायलां": 1039,
      "##्ष": 1040,
      "##ेड": 1041,
      "आयोग": 1042,
      "गज": 1043,
      "तयार": 1044,
      "##च्च": 1045,
      "##िल्ली": 1046,
      "##ोंड": 1047,
      "जन": 1048,
      "कोवि": 1049,
      "लोकांक": 1050,
      "चर्चा": 1051,
      "कस": 1052,
      "##के": 1053,
      "##िस्त": 1054,
      "##ट्ट": 1055,
      "##ूंत": 1056,
      "पुल": 1057,
      "##भर": 1058,
      "पण": 1059,
      "##ल्मा": 1060,
      "##िल्ले": 1061,
      "....": 1062,
      "निर्ण": 1063,
      "उमे": 1064,
      "जै": 1065,
      "भाश": 1066,
      "विदेश": 1067,
      "##कांक": 1068,
      "वांट": 1069,
      "##्याच्या": 1070,
      "केल्ल्या": 1071,
      "मेळट": 1072,
      "मजगती": 1073,
      "##ज्ञान": 1074,
      "फुड": 1075,
      "##ष्": 1076,
      "आशिल्ल्या": 1077,
      "समाज": 1078,
      "वरवीं": 1079,
      "उक्त": 1080,
      "शिक्षण": 1081,
      "सिंग": 1082,
      "##याक": 1083,
      "प्रदेश": 1084,
      "आश": 1085,
      "वै": 1086,
      "प्रश": 1087,
      "जाला": 1088,
      "म्हळां": 1089,
      "गांव": 1090,
      "स्प": 1091,
      "मळ": 1092,
      "वळ": 1093,
      "सका": 1094,
      "##्ना": 1095,
      "##गड": 1096,
      "तशेच": 1097,
      "##कय": 1098,
      "##वन": 1099,
      "##ावो": 1100,
      "सुव": 1101,
      "##ष्ट्र": 1102,
      "वेगवेगळ्या": 1103,
      "पाक": 1104,
      "हांची": 1105,
      "करता": 1106,
      "##ंद्र": 1107,
      "आपले": 1108,
      "हांवें": 1109,
      "##ेकार": 1110,
      "पांवड": 1111,
      "हाजीर": 1112,
      "माह": 1113,
      "मतदार": 1114,
      "सेवा": 1115,
      "वे": 1116,
      "हया": 1117,
      "जि": 1118,
      "पांच": 1119,
      "##ूत": 1120,
      "म्हळा": 1121,
      "ताणें": 1122,
      "उज": 1123,
      "तांकां": 1124,
      "सगळ्या": 1125,
      "आंग": 1126,
      "##िश": 1127,
      "##पाद": 1128,
      "उद्द": 1129,
      "दिल्लींत": 1130,
      "माहिती": 1131,
      "##दीं": 1132,
      "उब": 1133,
      "लाय": 1134,
      "म्हूण": 1135,
      "तात": 1136,
      "पत्र": 1137,
      "##्स": 1138,
      "##र्ग": 1139,
      "##ित्र": 1140,
      "प्रसार": 1141,
      "जातले": 1142,
      "नाशिल्": 1143,
      "बंद": 1144,
      "##तलो": 1145,
      "इंड": 1146,
      "दळ": 1147,
      "विधान": 1148,
      "करपा": 1149,
      "उमेद": 1150,
      "##्यात": 1151,
      "कथा": 1152,
      "ताणे": 1153,
      "नाग": 1154,
      "बांद": 1155,
      "##वण": 1156,
      "##ेली": 1157,
      "--": 1158,
      "खास": 1159,
      "सोड": 1160,
      "##तना": 1161,
      "करपाची": 1162,
      "सगल्या": 1163,
      "उत्तर": 1164,
      "क्र": 1165,
      "खू": 1166,
      "##वास": 1167,
      "##टो": 1168,
      "##ाच्यो": 1169,
      "##स्कृ": 1170,
      "बो": 1171,
      "##वाड": 1172,
      "##ये": 1173,
      "केलां": 1174,
      "आयु": 1175,
      "दोनूय": 1176,
      "आतंक": 1177,
      "खंय": 1178,
      "गट": 1179,
      "योग": 1180,
      "##िस्तान": 1181,
      "##तक": 1182,
      "##ल्ल": 1183,
      "19": 1184,
      "येर": 1185,
      "सावन": 1186,
      "##ळाव": 1187,
      "##धार": 1188,
      "##मु": 1189,
      "प्रधानमंत्र्यांनी": 1190,
      "देख": 1191,
      "बी": 1192,
      "बद": 1193,
      "##धन": 1194,
      "##ुकी": 1195,
      "##याळ": 1196,
      "तांची": 1197,
      "घेतले": 1198,
      "##्ल": 1199,
      "##ीण": 1200,
      "##टर": 1201,
      "सभा": 1202,
      "येराद": 1203,
      "अज": 1204,
      "सात": 1205,
      "##भाग": 1206,
      "##ांतल्यान": 1207,
      "संक": 1208,
      "संस": 1209,
      "आयक": 1210,
      "पावस": 1211,
      "रेल्": 1212,
      "साहित्य": 1213,
      "तूं": 1214,
      "मंडळ": 1215,
      "##शें": 1216,
      "हांगा": 1217,
      "हजार": 1218,
      "आकाश": 1219,
      "कॉ": 1220,
      "गां": 1221,
      "##वाणी": 1222,
      "विमान": 1223,
      "यत्न": 1224,
      "##कास": 1225,
      "आशिल्लो": 1226,
      "पुरस्कार": 1227,
      "उर्": 1228,
      "घो": 1229,
      "घट": 1230,
      "पै": 1231,
      "सद": 1232,
      "##जा": 1233,
      "ङ्काल": 1234,
      "सोप": 1235,
      "घेतलो": 1236,
      "आर": 1237,
      "जारी": 1238,
      "पि": 1239,
      "##बा": 1240,
      "##ल्यार": 1241,
      "मार्ग": 1242,
      "वेचणूक": 1243,
      "सावंत": 1244,
      "तेन्ना": 1245,
      "क्ष": 1246,
      "खासा": 1247,
      "धाड": 1248,
      "##्ड": 1249,
      "वापर": 1250,
      "सुरक्षा": 1251,
      "रुप": 1252,
      "सकाळी": 1253,
      "उक्": 1254,
      "ल्ह": 1255,
      "##तन": 1256,
      "##ीं": 1257,
      "सुवाळ": 1258,
      "शे": 1259,
      "##पार": 1260,
      "##ूल": 1261,
      "##ॅन": 1262,
      "जावपी": 1263,
      "निमतान": 1264,
      "##तली": 1265,
      "##थ्र": 1266,
      "##ेचें": 1267,
      "आतंकवाद": 1268,
      "भौ": 1269,
      "वावर": 1270,
      "जाले": 1271,
      "म्हळ्यार": 1272,
      "##दर्शन": 1273,
      "अमेर": 1274,
      "धर": 1275,
      "##मंडळ": 1276,
      "म्हत्व": 1277,
      "आयलो": 1278,
      "मतदान": 1279,
      "म्हज्या": 1280,
      "नायक": 1281,
      "नेट": 1282,
      "हर": 1283,
      "##ळें": 1284,
      "शार": 1285,
      "विध": 1286,
      "##्यांच्या": 1287,
      "##स्त्र": 1288,
      "जायत": 1289,
      "वेवस्थ": 1290,
      "खाला": 1291,
      "ये": 1292,
      "##व्ह": 1293,
      "म्हयन": 1294,
      "##्यम": 1295,
      "शेतकार": 1296,
      "उतर": 1297,
      "उकत": 1298,
      "धो": 1299,
      "मा": 1300,
      "सा": 1301,
      "##वो": 1302,
      "##ल्लें": 1303,
      "##्नत": 1304,
      "भारतान": 1305,
      "अधिकारी": 1306,
      "##्यु": 1307,
      "##ेशन": 1308,
      "तांका": 1309,
      "##ाखातीर": 1310,
      "##संघ": 1311,
      "आकाशवाणी": 1312,
      "आठ": 1313,
      "पर्": 1314,
      "वल": 1315,
      "शक": 1316,
      "##ंदी": 1317,
      "आनीक": 1318,
      "जावन": 1319,
      "पयली": 1320,
      "##ऱ्या": 1321,
      "वाठारांत": 1322,
      "नन": 1323,
      "भित": 1324,
      "##ावे": 1325,
      "हांका": 1326,
      "##नास": 1327,
      "पळोव": 1328,
      "खो": 1329,
      "तंत्र": 1330,
      "##गांव": 1331,
      "प्रस्": 1332,
      "करपी": 1333,
      "सोद": 1334,
      "दुय": 1335,
      "मागीर": 1336,
      "संबंद": 1337,
      "उक्तावण": 1338,
      "आदार": 1339,
      "की": 1340,
      "##वाम": 1341,
      "विकास": 1342,
      "जाल्ले": 1343,
      "प्रकल्प": 1344,
      "उद्देग": 1345,
      "उक्ताय": 1346,
      "##्याची": 1347,
      "##ालक": 1348,
      "प्रत": 1349,
      "एम": 1350,
      "काश": 1351,
      "दक्ष": 1352,
      "##वड": 1353,
      "##ोन": 1354,
      "प्रति": 1355,
      "##िल्लें": 1356,
      "मुंब": 1357,
      "लागलो": 1358,
      "म्हळें": 1359,
      "##पणान": 1360,
      "विद्याथ्र": 1361,
      "नेम": 1362,
      "पाकिस्तान": 1363,
      "जय": 1364,
      "बाब": 1365,
      "याद": 1366,
      "सध": 1367,
      "##ोत्": 1368,
      "##ावि": 1369,
      "##ावट": 1370,
      "##दर्श": 1371,
      "रामनाथ": 1372,
      "मरण": 1373,
      "सांजे": 1374,
      "##मोद": 1375,
      "अप": 1376,
      "खर": 1377,
      "तोंड": 1378,
      "##ाॊ": 1379,
      "##पाचें": 1380,
      "केल्ली": 1381,
      "नव्या": 1382,
      "कोविंद": 1383,
      "येरादारी": 1384,
      "##िल": 1385,
      "##िम": 1386,
      "दितले": 1387,
      "##्यांची": 1388,
      "बसकेंत": 1389,
      "निर्णय": 1390,
      "विधेय": 1391,
      "स्ट": 1392,
      "##शा": 1393,
      "##न्न": 1394,
      "##पाच्या": 1395,
      "##ल्म": 1396,
      "##क्ती": 1397,
      "तुका": 1398,
      "उड": 1399,
      "जाप": 1400,
      "फाट": 1401,
      "माध": 1402,
      "##ायन": 1403,
      "ङ्कुडारी": 1404,
      "जैत": 1405,
      "प्रस्न": 1406,
      "##याचे": 1407,
      "मेळ्": 1408,
      "गोंयांत": 1409,
      "जे": 1410,
      "पात": 1411,
      "शण": 1412,
      "##िज": 1413,
      "##मत": 1414,
      "आशिल्ली": 1415,
      "##विध": 1416,
      "उलोवप": 1417,
      "गाव": 1418,
      "पार": 1419,
      "##कणी": 1420,
      "##वाय": 1421,
      "##ीज": 1422,
      "##डू": 1423,
      "##दो": 1424,
      "सुरवात": 1425,
      "मंत्रालयान": 1426,
      "एन": 1427,
      "चौ": 1428,
      "मॅ": 1429,
      "##कर": 1430,
      "##दा": 1431,
      "विक": 1432,
      "संदेश": 1433,
      "खूब": 1434,
      "अर": 1435,
      "कड": 1436,
      "सी": 1437,
      "##यली": 1438,
      "##मन": 1439,
      "##्रह": 1440,
      "##ायक": 1441,
      "एकठ": 1442,
      "सुरु": 1443,
      "सरकारी": 1444,
      "बदल": 1445,
      "रेल्वे": 1446,
      "ट्र": 1447,
      "##ुत": 1448,
      "राख": 1449,
      "अधिकाऱ": 1450,
      "वेंचणूक": 1451,
      "गांधी": 1452,
      "शणै": 1453,
      "मध": 1454,
      "##ळा": 1455,
      "##गार": 1456,
      "##ेस्त": 1457,
      "##पास": 1458,
      "##्रा": 1459,
      "दिला": 1460,
      "##ामन": 1461,
      "आमदार": 1462,
      "मनश": 1463,
      "येवजणे": 1464,
      "अद": 1465,
      "पंच": 1466,
      "भों": 1467,
      "शी": 1468,
      "हॉ": 1469,
      "##त्री": 1470,
      "##्हार": 1471,
      "झु": 1472,
      "त्र": 1473,
      "हस्त": 1474,
      "##ायी": 1475,
      "विज्ञान": 1476,
      "नियाळ": 1477,
      "आमी": 1478,
      "ताज्या": 1479,
      "पत्रकार": 1480,
      "आक": 1481,
      "रस्त": 1482,
      "राती": 1483,
      "लक्ष": 1484,
      "##डि": 1485,
      "##सि": 1486,
      "##नीस": 1487,
      "प्रमोद": 1488,
      "केल्यात": 1489,
      "आसपाव": 1490,
      "जावंक": 1491,
      "कय": 1492,
      "घरा": 1493,
      "जो": 1494,
      "ला": 1495,
      "##हर": 1496,
      "##यले": 1497,
      "##कांनी": 1498,
      "##्मीर": 1499,
      "वांगडा": 1500,
      "अण": 1501,
      "नांव": 1502,
      "बँ": 1503,
      "##िल्ल्यान": 1504,
      "कित्याक": 1505,
      "ङ्काटल्या": 1506,
      "कुड": 1507,
      "##ालें": 1508,
      "दिलो": 1509,
      "संस्कृ": 1510,
      "वेव्हार": 1511,
      "उदरगत": 1512,
      "पूण": 1513,
      "##कच": 1514,
      "##ूट": 1515,
      "दिसता": 1516,
      "उदक": 1517,
      "##पाखातीर": 1518,
      "वेचणुक": 1519,
      "जम्म": 1520,
      "कल": 1521,
      "कर्": 1522,
      "मांड": 1523,
      "श्न": 1524,
      "##शेन": 1525,
      "##ध्द": 1526,
      "##पट": 1527,
      "##पूर": 1528,
      "विभाग": 1529,
      "संच": 1530,
      "आपली": 1531,
      "##ापन": 1532,
      "तुम": 1533,
      "गेलो": 1534,
      "राज्यपाल": 1535,
      "भितर": 1536,
      "##्वि": 1537,
      "प्रचार": 1538,
      "कोकणी": 1539,
      "पुस्त": 1540,
      "##ंग्रह": 1541,
      "संसद": 1542,
      "भाव": 1543,
      "##्ठ": 1544,
      "##ेल्या": 1545,
      "##लीस": 1546,
      "##ेऱ": 1547,
      "##ेत्र": 1548,
      "कोरो": 1549,
      "आदले": 1550,
      "ङ्काल्यां": 1551,
      "नास": 1552,
      "वाय": 1553,
      "ह्मा": 1554,
      "##यता": 1555,
      "##र्स": 1556,
      "हांकां": 1557,
      "राजकी": 1558,
      "निर्म": 1559,
      "कथास": 1560,
      "लोकांनी": 1561,
      "आयोजीत": 1562,
      "मळार": 1563,
      "आता": 1564,
      "चित्र": 1565,
      "पी": 1566,
      "फु": 1567,
      "मड": 1568,
      "साब": 1569,
      "##एस": 1570,
      "घेतली": 1571,
      "अर्ज": 1572,
      "विधेयक": 1573,
      "आदेश": 1574,
      "टी": 1575,
      "##हार": 1576,
      "##िण": 1577,
      "##जन": 1578,
      "##साय": 1579,
      "##ावणी": 1580,
      "##ाकडेन": 1581,
      "वरांचेर": 1582,
      "मतदारसंघ": 1583,
      "कें": 1584,
      "तरण": 1585,
      "नात": 1586,
      "बेग": 1587,
      "##वळ": 1588,
      "##यलो": 1589,
      "##टल": 1590,
      "##पक्ष": 1591,
      "##आय": 1592,
      "करुन": 1593,
      "करूंक": 1594,
      "विच": 1595,
      "मोह": 1596,
      "##ष्ट्रीय": 1597,
      "संवसारीक": 1598,
      "कथासंग्रह": 1599,
      "आंतर": 1600,
      "नाका": 1601,
      "भोव": 1602,
      "लग": 1603,
      "हेत": 1604,
      "##पान": 1605,
      "##सून": 1606,
      "##द्द": 1607,
      "##ृत": 1608,
      "##ातल्यान": 1609,
      "##र्थ": 1610,
      "##साद": 1611,
      "##त्ती": 1612,
      "सांगलां": 1613,
      "वांगडी": 1614,
      "गोव": 1615,
      "जाह": 1616,
      "शाळ": 1617,
      "साध": 1618,
      "##ंनी": 1619,
      "##जर": 1620,
      "##च्मा": 1621,
      "##ूंय": 1622,
      "##काद": 1623,
      "##ेळार": 1624,
      "##राष्ट्रीय": 1625,
      "परिस्थ": 1626,
      "उलयतना": 1627,
      "पक्षाचे": 1628,
      "आरो": 1629,
      "ताचे": 1630,
      "ब्र": 1631,
      "वाव": 1632,
      "हार": 1633,
      "##वस्थ": 1634,
      "##णें": 1635,
      "##्मो": 1636,
      "##ाध्यक्ष": 1637,
      "कार्यावळींत": 1638,
      "भाजपा": 1639,
      "सादर": 1640,
      "##शो": 1641,
      "##नां": 1642,
      "##यांक": 1643,
      "संवाद": 1644,
      "आसता": 1645,
      "करपाचो": 1646,
      "पयले": 1647,
      "##दर्भ": 1648,
      "विश्व": 1649,
      "माध्यम": 1650,
      "बरे": 1651,
      "सांव": 1652,
      "म्हाम": 1653,
      "##स्प": 1654,
      "सुट": 1655,
      "तिका": 1656,
      "ङ्कुडाऱ": 1657,
      "थाराय": 1658,
      "वांगड": 1659,
      "जाल्यात": 1660,
      "भुख": 1661,
      "उजवाड": 1662,
      "मुंबय": 1663,
      "चंद्र": 1664,
      "जिल्": 1665,
      "मनीस": 1666,
      "##नात": 1667,
      "##तां": 1668,
      "##िं": 1669,
      "प्रव": 1670,
      "मोठ": 1671,
      "लागुन": 1672,
      "करपाचे": 1673,
      "समज": 1674,
      "आवाज": 1675,
      "लोकसभा": 1676,
      "न्यायालयान": 1677,
      "वांटेकार": 1678,
      "अस": 1679,
      "अंतर": 1680,
      "बरी": 1681,
      "भा": 1682,
      "याज": 1683,
      "##ेरी": 1684,
      "##्यांचे": 1685,
      "महोत्": 1686,
      "वेंचणुक": 1687,
      "एकठांय": 1688,
      "तरणाट": 1689,
      "आस्": 1690,
      "इतले": 1691,
      "कर्म": 1692,
      "ग्र": 1693,
      "डि": 1694,
      "##भास": 1695,
      "##िद": 1696,
      "##्याचो": 1697,
      "अशा": 1698,
      "##्यांचो": 1699,
      "महारा": 1700,
      "पर्य": 1701,
      "दुयें": 1702,
      "धा": 1703,
      "लेख": 1704,
      "##्प": 1705,
      "##ोक": 1706,
      "##बाय": 1707,
      "##बरो": 1708,
      "##बाब": 1709,
      "##्यास": 1710,
      "##ायत": 1711,
      "##स्ती": 1712,
      "संदर्भ": 1713,
      "आपू": 1714,
      "सुरक्ष": 1715,
      "##वेद": 1716,
      "उदरगती": 1717,
      "मे": 1718,
      "मदीं": 1719,
      "यंत्र": 1720,
      "वस्त": 1721,
      "सत": 1722,
      "सप्": 1723,
      "##कांत": 1724,
      "##वर्": 1725,
      "##लब": 1726,
      "##ूर्": 1727,
      "##्याल": 1728,
      "भारताच्या": 1729,
      "म्हण्ट": 1730,
      "आवय": 1731,
      "पुलिस": 1732,
      "तातूंत": 1733,
      "##ळाव्या": 1734,
      "भौश": 1735,
      "दर्": 1736,
      "फट": 1737,
      "बंग": 1738,
      "भास": 1739,
      "सच": 1740,
      "##कताय": 1741,
      "##ंचे": 1742,
      "##टले": 1743,
      "##च्यान": 1744,
      "विरो": 1745,
      "संर": 1746,
      "कोय": 1747,
      "##ाडी": 1748,
      "लोकसभ": 1749,
      "उत्पाद": 1750,
      "उमेदवार": 1751,
      "अकाद": 1752,
      "एस": 1753,
      "कला": 1754,
      "##कड": 1755,
      "##वत": 1756,
      "##बल": 1757,
      "##षद": 1758,
      "##ोंद": 1759,
      "तुज": 1760,
      "जाल्ली": 1761,
      "पयल्या": 1762,
      "ताजे": 1763,
      "खासदार": 1764,
      "आण": 1765,
      "घरांत": 1766,
      "दव": 1767,
      "दन": 1768,
      "नित": 1769,
      "रात": 1770,
      "वस": 1771,
      "करतात": 1772,
      "आसतले": 1773,
      "राज्यांत": 1774,
      "आपलो": 1775,
      "लागली": 1776,
      "##ाणे": 1777,
      "##ुरू": 1778,
      "मजगतीं": 1779,
      "सभाघ": 1780,
      "साबार": 1781,
      "विचाल्": 1782,
      "आन": 1783,
      "तळ": 1784,
      "दाद": 1785,
      "बार": 1786,
      "मि": 1787,
      "सय": 1788,
      "##क्रम": 1789,
      "##ाां": 1790,
      "##ाटी": 1791,
      "##पत्र": 1792,
      "##सांव": 1793,
      "सगळ": 1794,
      "दिवन": 1795,
      "##न्स": 1796,
      "नायडू": 1797,
      "क्षेत्र": 1798,
      "महाराष्ट्र": 1799,
      "वास": 1800,
      "##वारी": 1801,
      "##तालो": 1802,
      "##पि": 1803,
      "##चीव": 1804,
      "येवन": 1805,
      "उर्बा": 1806,
      "दार": 1807,
      "पाच": 1808,
      "पेट": 1809,
      "बाप": 1810,
      "##हास": 1811,
      "##ंभ": 1812,
      "##णो": 1813,
      "समिती": 1814,
      "तुळ": 1815,
      "मनांत": 1816,
      "कुश": 1817,
      "घडोवन": 1818,
      "वचून": 1819,
      "हांगास": 1820,
      "आंतरराष्ट्रीय": 1821,
      "इत": 1822,
      "पोर": 1823,
      "भो": 1824,
      "भासा": 1825,
      "सै": 1826,
      "##ाया": 1827,
      "##्श": 1828,
      "##ंच्या": 1829,
      "##टात": 1830,
      "##मती": 1831,
      "##दु": 1832,
      "दिता": 1833,
      "सुविध": 1834,
      "निक": 1835,
      "ङ्केर": 1836,
      "मोट": 1837,
      "खबराकार": 1838,
      "जागृ": 1839,
      "आयोगान": 1840,
      "विधानसभा": 1841,
      "काश्मीर": 1842,
      "संरक्षण": 1843,
      "आदी": 1844,
      "तया": 1845,
      "##वल": 1846,
      "##वणी": 1847,
      "##यल्या": 1848,
      "##ाना": 1849,
      "पुलीस": 1850,
      "अशेय": 1851,
      "ङ्कुडार": 1852,
      "घालून": 1853,
      "प्रक्र": 1854,
      "किद": 1855,
      "##ावरवी": 1856,
      "कान": 1857,
      "कंप": 1858,
      "दी": 1859,
      "नार": 1860,
      "बे": 1861,
      "शिक": 1862,
      "##जय": 1863,
      "म्हुण": 1864,
      "केल्ले": 1865,
      "##त्त्": 1866,
      "दोळ": 1867,
      "##ेसाय": 1868,
      "संघट": 1869,
      "लग्न": 1870,
      "कॅ": 1871,
      "णव": 1872,
      "ताची": 1873,
      "नु": 1874,
      "बाज": 1875,
      "मद": 1876,
      "लाख": 1877,
      "ह्यो": 1878,
      "##लाद": 1879,
      "##पुर": 1880,
      "##्रो": 1881,
      "##्रे": 1882,
      "दोग": 1883,
      "##ाहन": 1884,
      "सर्वो": 1885,
      "मान्य": 1886,
      "चालू": 1887,
      "पांवड्यार": 1888,
      "अमेरिक": 1889,
      "कोरोना": 1890,
      "महोत्सव": 1891,
      "सचिव": 1892,
      "बु": 1893,
      "हेव": 1894,
      "##कडेन": 1895,
      "प्रधानंत्री": 1896,
      "मुखेली": 1897,
      "##ाबाद": 1898,
      "कुमार": 1899,
      "वैज": 1900,
      "वळख": 1901,
      "भासाभास": 1902,
      "अह": 1903,
      "उऩ": 1904,
      "परी": 1905,
      "व्या": 1906,
      "शां": 1907,
      "##्ण": 1908,
      "##यतले": 1909,
      "##भा": 1910,
      "##ांतले": 1911,
      "आपण": 1912,
      "आवाहन": 1913,
      "ङ्काटभ": 1914,
      "बरोबर": 1915,
      "##त्त्आ": 1916,
      "अंद": 1917,
      "ताचो": 1918,
      "शाह": 1919,
      "##येंत": 1920,
      "##भार": 1921,
      "##टली": 1922,
      "##याच्या": 1923,
      "##साण": 1924,
      "##यतात": 1925,
      "शिक्ष": 1926,
      "##यांनी": 1927,
      "सर्वोच्च": 1928,
      "उख": 1929,
      "उठ": 1930,
      "नवे": 1931,
      "शह": 1932,
      "##यी": 1933,
      "##िक्षण": 1934,
      "हांचो": 1935,
      "केन्न": 1936,
      "सुमार": 1937,
      "##्यांचेर": 1938,
      "राजनाथ": 1939,
      "जायना": 1940,
      "पळेत": 1941,
      "मागणी": 1942,
      "प्रधानमंत्र्यानी": 1943,
      "बरें": 1944,
      "परिशदेंत": 1945,
      "गजाली": 1946,
      "देखून": 1947,
      "ल्हान": 1948,
      "आं": 1949,
      "जेव": 1950,
      "राग": 1951,
      "सचीव": 1952,
      "##ेचेर": 1953,
      "##्रीम": 1954,
      "##ामी": 1955,
      "##ीकरण": 1956,
      "कार्याल": 1957,
      "मोग": 1958,
      "लागले": 1959,
      "सगळे": 1960,
      "प्रकरण": 1961,
      "गुंत": 1962,
      "स्पश्ट": 1963,
      "घोश": 1964,
      "शेती": 1965,
      "धोरण": 1966,
      "झुज": 1967,
      "##पक्षीय": 1968,
      "इति": 1969,
      "ताक": 1970,
      "पळे": 1971,
      "मै": 1972,
      "शांब": 1973,
      "हल्ल्या": 1974,
      "ोदी": 1975,
      "##खार": 1976,
      "##ेद": 1977,
      "##द्ध": 1978,
      "##नाटक": 1979,
      "##रीक": 1980,
      "##स्थान": 1981,
      "दिवपी": 1982,
      "तशें": 1983,
      "पयलो": 1984,
      "खात्यान": 1985,
      "मजत": 1986,
      "सहकार": 1987,
      "हस्तुकी": 1988,
      "कर्नाटक": 1989,
      "परिस्थिती": 1990,
      "उकताय": 1991,
      "कव": 1992,
      "कृ": 1993,
      "गण": 1994,
      "गोर": 1995,
      "तरे": 1996,
      "नोंद": 1997,
      "याच": 1998,
      "##यलें": 1999,
      "##िना": 2000,
      "##पन": 2001,
      "##मात": 2002,
      "करची": 2003,
      "आयलें": 2004,
      "सुन": 2005,
      "निश": 2006,
      "##राष्ट्र": 2007,
      "म्हजी": 2008,
      "दिल्लीत": 2009,
      "राष्ट्राध्यक्ष": 2010,
      "नदरेन": 2011,
      "पणज": 2012,
      "जिल्ह": 2013,
      "आस्पाव": 2014,
      "हांगासर": 2015,
      "इतिहास": 2016,
      "उच्च": 2017,
      "चव": 2018,
      "साड": 2019,
      "##रवी": 2020,
      "##वाल": 2021,
      "##डक": 2022,
      "##याचेर": 2023,
      "##ात्म": 2024,
      "##नीक": 2025,
      "##ल्ला": 2026,
      "##लों": 2027,
      "विन": 2028,
      "सुदार": 2029,
      "प्रधानभ": 2030,
      "भारताचे": 2031,
      "मनो": 2032,
      "म्हजे": 2033,
      "पोट": 2034,
      "भाजपाचे": 2035,
      "अभ्यास": 2036,
      "चालीक": 2037,
      "प्रशास": 2038,
      "सध्या": 2039,
      "घु": 2040,
      "दूर": 2041,
      "सों": 2042,
      "हाका": 2043,
      "##लक": 2044,
      "##टेन": 2045,
      "##दळ": 2046,
      "##बाळ": 2047,
      "##ैै": 2048,
      "##षण": 2049,
      "आयला": 2050,
      "कोटी": 2051,
      "एके": 2052,
      "कारण": 2053,
      "जावपाची": 2054,
      "व्हि": 2055,
      ".....": 2056,
      "गोंयच्या": 2057,
      "उत्सव": 2058,
      "संचालक": 2059,
      "अंत": 2060,
      "ओड": 2061,
      "तशी": 2062,
      "रू": 2063,
      "वात": 2064,
      "हा": 2065,
      "##शाळ": 2066,
      "##ंचो": 2067,
      "##िंग": 2068,
      "##खंड": 2069,
      "##मास": 2070,
      "##ेकडेन": 2071,
      "दुख": 2072,
      "निर्माण": 2073,
      "सर्तींत": 2074,
      "विधानसभ": 2075,
      "वावुर": 2076,
      "सुविधा": 2077,
      "मनोहर": 2078,
      "तेर": 2079,
      "त्यो": 2080,
      "भवन": 2081,
      "##ुळ": 2082,
      "##पक": 2083,
      "##ावी": 2084,
      "सोय": 2085,
      "काडून": 2086,
      "अर्थिक": 2087,
      "नागर": 2088,
      "अळें": 2089,
      "चि": 2090,
      "जवान": 2091,
      "तित": 2092,
      "दाम": 2093,
      "भान": 2094,
      "##काय": 2095,
      "##ोट": 2096,
      "##ोध": 2097,
      "##खी": 2098,
      "##मद": 2099,
      "##च्": 2100,
      "##ूड": 2101,
      "करीत": 2102,
      "केळी": 2103,
      "तेल": 2104,
      "जातलें": 2105,
      "उपकार": 2106,
      "आमच्या": 2107,
      "##ताना": 2108,
      "इंडिया": 2109,
      "हेतान": 2110,
      "आरोप": 2111,
      "जागृताय": 2112,
      "नुस्त": 2113,
      "##राष्ट्रपती": 2114,
      "ऑङ्क": 2115,
      "तपास": 2116,
      "##कान": 2117,
      "##हन": 2118,
      "##यण": 2119,
      "##नर": 2120,
      "##ीद": 2121,
      "##पाळ": 2122,
      "##्रेल": 2123,
      "##ाळीस": 2124,
      "##ंदर": 2125,
      "परबी": 2126,
      "उपाय": 2127,
      "घेतला": 2128,
      "तुमी": 2129,
      "ताजी": 2130,
      "वाठारांनी": 2131,
      "संबंध": 2132,
      "सर्तीत": 2133,
      "अदमास": 2134,
      "कयऩ": 2135,
      "बँक": 2136,
      "जम्मू": 2137,
      "मडगांव": 2138,
      "उट": 2139,
      "भांग": 2140,
      "मंज": 2141,
      "वें": 2142,
      "##ाभ": 2143,
      "##आर": 2144,
      "##ल्ल्यान": 2145,
      "तांचो": 2146,
      "निय": 2147,
      "ङ्कावो": 2148,
      "##िन्यान": 2149,
      "संस्था": 2150,
      "##ेजमान": 2151,
      "व्यवस्थ": 2152,
      "हुं": 2153,
      "प्रशिक्षण": 2154,
      "निकाल": 2155,
      "जिव": 2156,
      "ट्वि": 2157,
      "डी": 2158,
      "मर": 2159,
      "सयत": 2160,
      "हवाम": 2161,
      "##ंट": 2162,
      "##ते": 2163,
      "##गि": 2164,
      "##गे": 2165,
      "##ीच्या": 2166,
      "##सु": 2167,
      "ङ्कावट": 2168,
      "##िकेट": 2169,
      "सगळी": 2170,
      "जाल्लो": 2171,
      "तिस": 2172,
      "पळोवन": 2173,
      "नेटान": 2174,
      "उकतावण": 2175,
      "जाहीर": 2176,
      "आघ": 2177,
      "ओंप": 2178,
      "चाच": 2179,
      "धांव": 2180,
      "धर्म": 2181,
      "पास": 2182,
      "माळ": 2183,
      "साय": 2184,
      "##ताले": 2185,
      "केर": 2186,
      "##काम": 2187,
      "जातल्यो": 2188,
      "येवकार": 2189,
      "कांयच": 2190,
      "वांटो": 2191,
      "फुडें": 2192,
      "उबार": 2193,
      "हवामान": 2194,
      "अॅ": 2195,
      "तांत": 2196,
      "पाळ": 2197,
      "बॅ": 2198,
      "वार": 2199,
      "से": 2200,
      "सिन": 2201,
      "##काज": 2202,
      "##श्क": 2203,
      "##ंव": 2204,
      "##ीचे": 2205,
      "##ौर": 2206,
      "##ेंबर": 2207,
      "##्ये": 2208,
      "पुष्": 2209,
      "सांगला": 2210,
      "व्हर": 2211,
      "मुखेलमंत्र": 2212,
      "खात्याचे": 2213,
      "सांबाळ": 2214,
      "अर्थीक": 2215,
      "संघटन": 2216,
      "नितळ": 2217,
      "विचाल्लें": 2218,
      "हुंवार": 2219,
      "आर्ग": 2220,
      "देळ": 2221,
      "माल्": 2222,
      "##रें": 2223,
      "##व्या": 2224,
      "##ोद": 2225,
      "##ंची": 2226,
      "##तळ": 2227,
      "##ेप": 2228,
      "##णांत": 2229,
      "##्रां": 2230,
      "##ाच्मा": 2231,
      "##ावरण": 2232,
      "##ंकर": 2233,
      "##ंगर": 2234,
      "दोळे": 2235,
      "भारतांत": 2236,
      "मंत्रीमंडळ": 2237,
      "कामकाज": 2238,
      "गोंयचे": 2239,
      "गेले": 2240,
      "कायदो": 2241,
      "अमित": 2242,
      "वयर": 2243,
      "अभि": 2244,
      "तयारी": 2245,
      "आत्": 2246,
      "उ्नत": 2247,
      "हाचेर": 2248,
      "##िशी": 2249,
      "##मं": 2250,
      "##में": 2251,
      "##र्व": 2252,
      "वितर": 2253,
      "संद": 2254,
      "संशो": 2255,
      "कारवाय": 2256,
      "##ाणू": 2257,
      "##योग": 2258,
      "##्मान": 2259,
      "दिवपाक": 2260,
      "बायल": 2261,
      "देवळ": 2262,
      "दुसरो": 2263,
      "दुसरे": 2264,
      "दरेक": 2265,
      "आयोजन": 2266,
      "धरून": 2267,
      "सप्तक": 2268,
      "गव": 2269,
      "थळाव्या": 2270,
      "राय": 2271,
      "##णाम": 2272,
      "जालां": 2273,
      "आयली": 2274,
      "##यताय": 2275,
      "जावपाक": 2276,
      "गोंयात": 2277,
      "रोख": 2278,
      "मेळटली": 2279,
      "##व्ही": 2280,
      "मध्य": 2281,
      "गोरव": 2282,
      "कम": 2283,
      "नी": 2284,
      "पाय": 2285,
      "म्श": 2286,
      "हाव": 2287,
      "##वें": 2288,
      "##्त": 2289,
      "##्ज": 2290,
      "##्थ": 2291,
      "##येक": 2292,
      "##टलो": 2293,
      "##बळ": 2294,
      "##ातले": 2295,
      "##ल्स": 2296,
      "##र्क": 2297,
      "सुचो": 2298,
      "निमा": 2299,
      "##्नस": 2300,
      "दोनुय": 2301,
      "##वादी": 2302,
      "##न्ना": 2303,
      "युवा": 2304,
      "सकाळीं": 2305,
      "##ायनली": 2306,
      "आणिक": 2307,
      "मान्यताय": 2308,
      "वैजकी": 2309,
      "मैदान": 2310,
      "##ात्मक": 2311,
      "सोंप": 2312,
      "आस्त": 2313,
      "खरे": 2314,
      "तसो": 2315,
      "धु": 2316,
      "धाव": 2317,
      "बा": 2318,
      "भट": 2319,
      "लि": 2320,
      "वाज": 2321,
      "समा": 2322,
      "##ताली": 2323,
      "##ल्यांत": 2324,
      "दिल्ल्या": 2325,
      "हांस": 2326,
      "##स्ताव": 2327,
      "उपेग": 2328,
      "##ापती": 2329,
      "उदका": 2330,
      "गेली": 2331,
      "वाडोव": 2332,
      "ददल": 2333,
      "क्रिकेट": 2334,
      "गोवा": 2335,
      "##बरोबर": 2336,
      "उत्पादन": 2337,
      "वसंत": 2338,
      "किदें": 2339,
      "..": 2340,
      "आग": 2341,
      "इंग": 2342,
      "कबल": 2343,
      "रान": 2344,
      "रवी": 2345,
      "##ोप": 2346,
      "##गीत": 2347,
      "##ेम": 2348,
      "##ॉल": 2349,
      "##ऱ्या": 2350,
      "##ातर": 2351,
      "##लेश": 2352,
      "प्रकाश": 2353,
      "##दीक": 2354,
      "आशिल्ल्यान": 2355,
      "घेतल्या": 2356,
      "आव्ह": 2357,
      "##द्याल": 2358,
      "श्रीपाद": 2359,
      "थाराव": 2360,
      "पर्यटन": 2361,
      "बाजार": 2362,
      "अव": 2363,
      "अळे": 2364,
      "काक": 2365,
      "कसो": 2366,
      "कशें": 2367,
      "घोव": 2368,
      "ताल": 2369,
      "नामन": 2370,
      "पा": 2371,
      "माल": 2372,
      "रड": 2373,
      "रॅ": 2374,
      "##क्र": 2375,
      "##फुड": 2376,
      "##जो": 2377,
      "##पंच": 2378,
      "##ेकर": 2379,
      "अधिव": 2380,
      "हातांत": 2381,
      "सुवातेर": 2382,
      "वयल्या": 2383,
      "आसतली": 2384,
      "##ंजन": 2385,
      "योगदान": 2386,
      "भोंव": 2387,
      "श्नयताय": 2388,
      "ग्राम": 2389,
      "अकादमी": 2390,
      "कास": 2391,
      "ताच्या": 2392,
      "तत्व": 2393,
      "थोड": 2394,
      "बाद": 2395,
      "शु": 2396,
      "##ळीत": 2397,
      "##यु": 2398,
      "##ठी": 2399,
      "विजय": 2400,
      "केळ": 2401,
      "##ांगडा": 2402,
      "ङ्कांट": 2403,
      "##ाळी": 2404,
      "सरकाराच्या": 2405,
      "मेळटा": 2406,
      "दिवप": 2407,
      "घेवपाक": 2408,
      "बायले": 2409,
      "न्याय": 2410,
      "बसकेत": 2411,
      "विशय": 2412,
      "विद्यार्थ": 2413,
      "जीव": 2414,
      "दाखल": 2415,
      "स्पष्ट": 2416,
      "विमानतळ": 2417,
      "दक्षिण": 2418,
      "आदीं": 2419,
      "काग": 2420,
      "खंड": 2421,
      "नाव": 2422,
      "नगर": 2423,
      "पाट": 2424,
      "बेट": 2425,
      "रंग": 2426,
      "वाद": 2427,
      "है": 2428,
      "##ऴ": 2429,
      "##नि": 2430,
      "##गेर": 2431,
      "##खण": 2432,
      "##ॊत्री": 2433,
      "##ालन": 2434,
      "करचे": 2435,
      "विशी": 2436,
      "आयिल्ल्या": 2437,
      "##िता": 2438,
      "तेच": 2439,
      "पर्री": 2440,
      "उपलब": 2441,
      "मुख्य": 2442,
      "पावल": 2443,
      "##िनि": 2444,
      "खेळां": 2445,
      "परिषद": 2446,
      "##पणा": 2447,
      "काळांत": 2448,
      "##प्रमाण": 2449,
      "मंत्रालय": 2450,
      "जीण": 2451,
      "गुंतव": 2452,
      "वातावरण": 2453,
      "आधार": 2454,
      "काण": 2455,
      "चर्": 2456,
      "जग": 2457,
      "फे": 2458,
      "बाळ": 2459,
      "सव": 2460,
      "हय": 2461,
      "##मर": 2462,
      "##चर": 2463,
      "##ूम": 2464,
      "म्हाल": 2465,
      "निर": 2466,
      "मुद": 2467,
      "##कांची": 2468,
      "जावची": 2469,
      "आशिल्लें": 2470,
      "सगले": 2471,
      "तरेन": 2472,
      "गोय": 2473,
      "दुसऱ्या": 2474,
      "सभापती": 2475,
      "##प्रदेश": 2476,
      "##कय्या": 2477,
      "संस्कृती": 2478,
      "चित्रपट": 2479,
      "अधिवेशन": 2480,
      "अस्त": 2481,
      "इनास": 2482,
      "कल्या": 2483,
      "चीन": 2484,
      "तक": 2485,
      "सू": 2486,
      "हाल": 2487,
      "##ळना": 2488,
      "##्दी": 2489,
      "प्रसाद": 2490,
      "प्रस्ताव": 2491,
      "करचो": 2492,
      "केन्ना": 2493,
      "##ाजी": 2494,
      "##कारी": 2495,
      "##कानी": 2496,
      "तांक": 2497,
      "निवेद": 2498,
      "दिवपा": 2499,
      "पावलां": 2500,
      "सर्त": 2501,
      "दवरून": 2502,
      "भुरगी": 2503,
      "गजाल": 2504,
      "जिख": 2505,
      "विश्वास": 2506,
      "उपलब्ध": 2507,
      "एङ्क": 2508,
      "कश": 2509,
      "ची": 2510,
      "ट्रम": 2511,
      "दास": 2512,
      "सूर": 2513,
      "हाचे": 2514,
      "##वाह": 2515,
      "##भाव": 2516,
      "##ॉर्": 2517,
      "##टे": 2518,
      "##संग": 2519,
      "##ात्र": 2520,
      "##णीक": 2521,
      "##क्षक": 2522,
      "जातात": 2523,
      "वाश": 2524,
      "मोड": 2525,
      "उपचार": 2526,
      "##यांची": 2527,
      "कायद्या": 2528,
      "ताजो": 2529,
      "##ातीय": 2530,
      "मात्": 2531,
      "बिहार": 2532,
      "तेन्न": 2533,
      "##ष्ठ": 2534,
      "प्रसारण": 2535,
      "उमेदवारी": 2536,
      "तंत्रज्ञान": 2537,
      "विद्याथ्र्यांक": 2538,
      "##ाविद्याल": 2539,
      "पयलेच": 2540,
      "दादल्या": 2541,
      "हैद": 2542,
      "ट्रम्प": 2543,
      "नम": 2544,
      "पिक": 2545,
      "बात": 2546,
      "बुन": 2547,
      "##गिन्यान": 2548,
      "##खाला": 2549,
      "##पद": 2550,
      "##ाव्या": 2551,
      "प्रकार": 2552,
      "##कायान": 2553,
      "नाटक": 2554,
      "##ेच्यो": 2555,
      "##ांकडेन": 2556,
      "दिवपाची": 2557,
      "देशांत": 2558,
      "आमकां": 2559,
      "पयस": 2560,
      "पयलीं": 2561,
      "सर्व": 2562,
      "महि": 2563,
      "येतात": 2564,
      "मेळटलो": 2565,
      "वेपार": 2566,
      "सदांच": 2567,
      "##त्तीस": 2568,
      "विरोधी": 2569,
      "केरळ": 2570,
      "अख": 2571,
      "इना": 2572,
      "खाश": 2573,
      "गाड": 2574,
      "जांव": 2575,
      "मी": 2576,
      "माव": 2577,
      "मेल": 2578,
      "मेक": 2579,
      "मरा": 2580,
      "##वळी": 2581,
      "##वेक": 2582,
      "##लि": 2583,
      "##भव": 2584,
      "##ुंक": 2585,
      "##ँड": 2586,
      "##लोच": 2587,
      "##स्वास": 2588,
      "केल्लो": 2589,
      "निमाण": 2590,
      "##ोवाळ": 2591,
      "गुजर": 2592,
      "पद्द": 2593,
      "सुवाळ्यांत": 2594,
      "वेवस्था": 2595,
      "##पिठ": 2596,
      "प्रक्रिया": 2597,
      "##च्छ": 2598,
      "आघाडी": 2599,
      "कां": 2600,
      "चो": 2601,
      "मंग": 2602,
      "वाच": 2603,
      "सकय": 2604,
      "ेळ": 2605,
      "##तालें": 2606,
      "##खेल": 2607,
      "##टीत": 2608,
      "##ुर्": 2609,
      "##ुंय": 2610,
      "##ड्": 2611,
      "##मेल": 2612,
      "##मूट": 2613,
      "##याचो": 2614,
      "##्हा": 2615,
      "प्रदर्शन": 2616,
      "##स्तार": 2617,
      "परस": 2618,
      "##ंत्रण": 2619,
      "जावचो": 2620,
      "देशाच्या": 2621,
      "देशांतल्या": 2622,
      "म्हजो": 2623,
      "सांज": 2624,
      "गुण": 2625,
      "करतना": 2626,
      "पंगडान": 2627,
      "घटमूट": 2628,
      "##दर्शक": 2629,
      "कडल्यान": 2630,
      "आकडो": 2631,
      "रस्तो": 2632,
      "पुस्तक": 2633,
      "पणजेंत": 2634,
      "साडे": 2635,
      "प्रशासन": 2636,
      "ऑस्ट": 2637,
      "जिल्ल्या": 2638,
      "दह": 2639,
      "नाच": 2640,
      "बोवाळ": 2641,
      "लाड": 2642,
      "##्वी": 2643,
      "##ंस": 2644,
      "##ङ्": 2645,
      "##ुश": 2646,
      "##ुट": 2647,
      "##सू": 2648,
      "##एम": 2649,
      "##याची": 2650,
      "दिल्यात": 2651,
      "जाल्यो": 2652,
      "सरकाराक": 2653,
      "पावला": 2654,
      "कार्यावळीचो": 2655,
      "खातीय": 2656,
      "जाणा": 2657,
      "सामान": 2658,
      "शारांत": 2659,
      "प्रतिनि": 2660,
      "अणकार": 2661,
      "भुखेर": 2662,
      "कोयसांव": 2663,
      "दनपार": 2664,
      "ङ्काटभुंय": 2665,
      "संशोधन": 2666,
      "गुजरात": 2667,
      "अक": 2668,
      "चली": 2669,
      "चॅन": 2670,
      "जाळ": 2671,
      "दल": 2672,
      "दू": 2673,
      "नाम": 2674,
      "फाल": 2675,
      "बांग": 2676,
      "रॉ": 2677,
      "रोज": 2678,
      "रंजन": 2679,
      "##शत": 2680,
      "##तो": 2681,
      "##ञ्च": 2682,
      "##ॅट": 2683,
      "##बंध": 2684,
      "##ायेन": 2685,
      "दिल्ले": 2686,
      "आयत": 2687,
      "सुधार": 2688,
      "##त्तर": 2689,
      "लागू": 2690,
      "##पीठ": 2691,
      "दुमें": 2692,
      "दिसले": 2693,
      "महाम": 2694,
      "आवा": 2695,
      "तेंको": 2696,
      "कुट": 2697,
      "श्रीमती": 2698,
      "पक्षाच्या": 2699,
      "संबोध": 2700,
      "##ग्रह": 2701,
      "दर्या": 2702,
      "बरय": 2703,
      "##ल्पना": 2704,
      "हजर": 2705,
      "पांवड्या": 2706,
      "अजून": 2707,
      "##डियो": 2708,
      "##वर्धन": 2709,
      "भौशीक": 2710,
      "ङ्काटभुंयेर": 2711,
      "कप": 2712,
      "खाज": 2713,
      "गर्": 2714,
      "ता": 2715,
      "दत्त": 2716,
      "बशिल्": 2717,
      "भेऱ": 2718,
      "श्र": 2719,
      "सक": 2720,
      "##जत": 2721,
      "##जीत": 2722,
      "##खर": 2723,
      "##ख्या": 2724,
      "##ख्य": 2725,
      "##ेलो": 2726,
      "##णाव": 2727,
      "##ांन": 2728,
      "##ंती": 2729,
      "##ांत्री": 2730,
      "दिलां": 2731,
      "संसार": 2732,
      "##ंगा": 2733,
      "उपराष्ट्रपती": 2734,
      "म्हणलां": 2735,
      "तोखण": 2736,
      "तिच्या": 2737,
      "तिणे": 2738,
      "पडटा": 2739,
      "वेवसाय": 2740,
      "वाटेकार": 2741,
      "परतून": 2742,
      "कोविड": 2743,
      "सोडून": 2744,
      "मंडळान": 2745,
      "बेगीन": 2746,
      "बंगाल": 2747,
      "सभाघरांत": 2748,
      "कुशळ": 2749,
      "निमाणे": 2750,
      "आव्हान": 2751,
      "इत्": 2752,
      "ज्या": 2753,
      "जेट": 2754,
      "झाड": 2755,
      "बाक": 2756,
      "रिती": 2757,
      "सल्लो": 2758,
      "##वारा": 2759,
      "##श्र": 2760,
      "##ॉर": 2761,
      "##ुंब": 2762,
      "##ॊत": 2763,
      "##ौन": 2764,
      "##ाऩ": 2765,
      "##ोवपाक": 2766,
      "राज्यात": 2767,
      "मारून": 2768,
      "करतलो": 2769,
      "नाशिल्लो": 2770,
      "##ाविशी": 2771,
      "प्रवेश": 2772,
      "घोशणा": 2773,
      "ट्विट": 2774,
      "सिन्हा": 2775,
      "##फुडें": 2776,
      "पर्रीकार": 2777,
      "ऑस्ट्रेल": 2778,
      "उगड": 2779,
      "कशी": 2780,
      "द्र": 2781,
      "नौ": 2782,
      "पट": 2783,
      "रक्षा": 2784,
      "राणे": 2785,
      "लांब": 2786,
      "वतीन": 2787,
      "##लन": 2788,
      "##ोण": 2789,
      "##भरांत": 2790,
      "##ेखातीर": 2791,
      "##ॅक": 2792,
      "##ारीक": 2793,
      "##र्ट": 2794,
      "##स्को": 2795,
      "करचें": 2796,
      "संप": 2797,
      "कोवी": 2798,
      "निधी": 2799,
      "करपाच्या": 2800,
      "भारताक": 2801,
      "बसून": 2802,
      "दिसून": 2803,
      "##ऩी": 2804,
      "##चाऱ": 2805,
      "न्हिद": 2806,
      "##िराय": 2807,
      "##मेज": 2808,
      "भुम": 2809,
      "अन्न": 2810,
      "उतरां": 2811,
      "दक्षीण": 2812,
      "संदर्भांत": 2813,
      "उ्नतावण": 2814,
      "गवेत": 2815,
      "कल्याण": 2816,
      "काप": 2817,
      "चे": 2818,
      "जतन": 2819,
      "पंज": 2820,
      "पेड": 2821,
      "हाली": 2822,
      "##कु": 2823,
      "##कें": 2824,
      "##ीव": 2825,
      "##ुच": 2826,
      "##पो": 2827,
      "##दां": 2828,
      "##ार्ग": 2829,
      "##्रिक": 2830,
      "##तीत": 2831,
      "मुर": 2832,
      "##ोवपी": 2833,
      "मोख": 2834,
      "येवंक": 2835,
      "येवपी": 2836,
      "शिटक": 2837,
      "कितल्या": 2838,
      "पडली": 2839,
      "परिणाम": 2840,
      "हातूंत": 2841,
      "न्हंय": 2842,
      "मतमेज": 2843,
      "वाठारांतल्या": 2844,
      "काळज": 2845,
      "कार्यावळीत": 2846,
      "स्थापन": 2847,
      "व्यक्ती": 2848,
      "आयोजित": 2849,
      "कार्यशाळ": 2850,
      "##िटल": 2851,
      "स्वत": 2852,
      "संदेशांत": 2853,
      "लाठ": 2854,
      "वायट": 2855,
      "दुयेंती": 2856,
      "कंपनी": 2857,
      "हस्तुकीं": 2858,
      "सोयरे": 2859,
      "आर्गां": 2860,
      "चर्चे": 2861,
      "अस्तंत": 2862,
      "तोखणाय": 2863,
      "अवि": 2864,
      "आदर्श": 2865,
      "इमार": 2866,
      "कमी": 2867,
      "जल्म": 2868,
      "दे": 2869,
      "मिर": 2870,
      "रश": 2871,
      "री": 2872,
      "लावन": 2873,
      "वख": 2874,
      "सश": 2875,
      "साग": 2876,
      "##गळ": 2877,
      "##ध्यक्ष": 2878,
      "##मक": 2879,
      "##मदी": 2880,
      "##एल": 2881,
      "##ब्र": 2882,
      "##र्न": 2883,
      "##तींत": 2884,
      "प्रा": 2885,
      "विष": 2886,
      "विस्तार": 2887,
      "##ेवरवी": 2888,
      "संमेल": 2889,
      "करपाखातीर": 2890,
      "भारताचो": 2891,
      "म्हळयार": 2892,
      "##ुरु": 2893,
      "स्वर": 2894,
      "गोंम": 2895,
      "दिसांच्या": 2896,
      "देशभर": 2897,
      "##टीं": 2898,
      "तिज": 2899,
      "घेवंक": 2900,
      "##धीश": 2901,
      "पुरवण": 2902,
      "##यांचो": 2903,
      "##यांचेर": 2904,
      "घरमंत्री": 2905,
      "##ुयेर": 2906,
      "आसतना": 2907,
      "नेपाळ": 2908,
      "प्रमाणांत": 2909,
      "पणजे": 2910,
      "198": 2911,
      "याज्म": 2912,
      "कर्मचाऱ": 2913,
      "भौशिक": 2914,
      "केन्नाच": 2915,
      "कबलाती": 2916,
      "मराठी": 2917,
      "कुटुंब": 2918,
      "पंजाब": 2919,
      "18": 2920,
      "अड": 2921,
      "अदीक": 2922,
      "आंक": 2923,
      "इर": 2924,
      "उत": 2925,
      "कयत": 2926,
      "गडक": 2927,
      "च्या": 2928,
      "चुक": 2929,
      "छत्तीस": 2930,
      "बां": 2931,
      "बाल": 2932,
      "यो": 2933,
      "येस": 2934,
      "सब": 2935,
      "साक": 2936,
      "सत्र": 2937,
      "हाची": 2938,
      "##रल": 2939,
      "##वरी": 2940,
      "##यला": 2941,
      "##गरा": 2942,
      "##ूळ": 2943,
      "##बो": 2944,
      "##ानक": 2945,
      "प्रवास": 2946,
      "म्हाप": 2947,
      "##स्ता": 2948,
      "मुद्द": 2949,
      "उप्र": 2950,
      "उपक्रम": 2951,
      "दुब": 2952,
      "दिवंक": 2953,
      "उदय": 2954,
      "कामा": 2955,
      "##ऱे": 2956,
      "ङ्कुडल्या": 2957,
      "मानेस्त": 2958,
      "काया": 2959,
      "बसके": 2960,
      "सुवाती": 2961,
      "आसतलो": 2962,
      "##तकच": 2963,
      "तंत्रगिन्यान": 2964,
      "पातळ": 2965,
      "साधन": 2966,
      "भाष": 2967,
      "##ूर्ण": 2968,
      "भुमिका": 2969,
      "गडकरी": 2970,
      "अब": 2971,
      "अठ": 2972,
      "घे": 2973,
      "घेल": 2974,
      "पध्द": 2975,
      "फूल": 2976,
      "बाव": 2977,
      "वेत": 2978,
      "शर्": 2979,
      "शेन": 2980,
      "ुखेल": 2981,
      "##श्य": 2982,
      "##लम": 2983,
      "##भशेन": 2984,
      "##ंघ": 2985,
      "##ंबर": 2986,
      "##डल्यान": 2987,
      "##चारी": 2988,
      "##द्": 2989,
      "##ारे": 2990,
      "##ेंट": 2991,
      "##लीच": 2992,
      "दिले": 2993,
      "आयले": 2994,
      "सुख": 2995,
      "सुंदर": 2996,
      "##कांच्या": 2997,
      "##ोवपा": 2998,
      "##वीस": 2999,
      "परब": 3000,
      "राह": 3001,
      "समुद": 3002,
      "लोकांच्या": 3003,
      "ऩाल": 3004,
      "##ारानी": 3005,
      "श्रील": 3006,
      "प्रकल्": 3007,
      "भरून": 3008,
      "कार्यावळीक": 3009,
      "शेतकी": 3010,
      "स्वच्छ": 3011,
      "##ष्ण": 3012,
      "गटांत": 3013,
      "येना": 3014,
      "कलाकार": 3015,
      "सभाघर": 3016,
      "##लादेश": 3017,
      "विद्यार्थी": 3018,
      "बांगलादेश": 3019,
      "दत्तू": 3020,
      "जतनाय": 3021,
      "खर्च": 3022,
      "तामी": 3023,
      "देसाय": 3024,
      "द्रीम": 3025,
      "न्यु": 3026,
      "बळ": 3027,
      "भि": 3028,
      "मं": 3029,
      "ले": 3030,
      "लाल": 3031,
      "शेज": 3032,
      "##शण": 3033,
      "##शंकर": 3034,
      "##िसा": 3035,
      "##ईक": 3036,
      "##ुंत": 3037,
      "##डम": 3038,
      "##साल": 3039,
      "##आड": 3040,
      "##्याचेर": 3041,
      "##ाचल": 3042,
      "##ाचार": 3043,
      "##र्ती": 3044,
      "##णीत": 3045,
      "प्राण": 3046,
      "##काळ": 3047,
      "##ाचेय": 3048,
      "आसलो": 3049,
      "राजस्थान": 3050,
      "उपर": 3051,
      "##ेचाळीस": 3052,
      "अधिक": 3053,
      "मनयतात": 3054,
      "##ङ्कर": 3055,
      "पळयत": 3056,
      "##प्त": 3057,
      "अनु": 3058,
      "##ुदास": 3059,
      "बायलांच्या": 3060,
      "पुलवाम": 3061,
      "आशिया": 3062,
      "कॉन्": 3063,
      "मार्गदर्शन": 3064,
      "रुपया": 3065,
      "खरें": 3066,
      "अणभव": 3067,
      "शहा": 3068,
      "तेरेजमान": 3069,
      "नागरि": 3070,
      "वेंकय्या": 3071,
      "कासय": 3072,
      "जेटली": 3073,
      "20": 3074,
      "ंत्री": 3075,
      "अङ्क": 3076,
      "कौ": 3077,
      "खाव": 3078,
      "चच": 3079,
      "चंप": 3080,
      "जा": 3081,
      "पंड": 3082,
      "मेज": 3083,
      "र्": 3084,
      "लश्क": 3085,
      "वी": 3086,
      "वडी": 3087,
      "शो": 3088,
      "सप": 3089,
      "##रय": 3090,
      "##लत": 3091,
      "##लग": 3092,
      "##भट": 3093,
      "##टाय": 3094,
      "##ुरी": 3095,
      "##सीत": 3096,
      "##चड": 3097,
      "##देसाय": 3098,
      "विस्वास": 3099,
      "##चीत": 3100,
      "संगीत": 3101,
      "संग्रह": 3102,
      "तांब": 3103,
      "ङ्कातर": 3104,
      "##दीन": 3105,
      "आसाम": 3106,
      "लागी": 3107,
      "##ेकाय": 3108,
      "मेळोवन": 3109,
      "शिव": 3110,
      "महास": 3111,
      "कामगार": 3112,
      "पडले": 3113,
      "##वरवी": 3114,
      "सिंड": 3115,
      "उत्त": 3116,
      "बसकेक": 3117,
      "संस्थेचे": 3118,
      "कोणाक": 3119,
      "प्रभाण": 3120,
      "प्रभावी": 3121,
      "बोट": 3122,
      "##ावेल्यान": 3123,
      "बाबु": 3124,
      "पंचायत": 3125,
      "हॉस्प": 3126,
      "रातीं": 3127,
      "निर्मला": 3128,
      "दूरदर्शन": 3129,
      "तेलंग": 3130,
      "दहशत": 3131,
      "भुखेरभ": 3132,
      "वडील": 3133,
      "खु": 3134,
      "गुन": 3135,
      "ज्यो": 3136,
      "जिल्लो": 3137,
      "जपान": 3138,
      "झार": 3139,
      "फावट": 3140,
      "बच": 3141,
      "रि": 3142,
      "शेट": 3143,
      "साळ": 3144,
      "##वेळार": 3145,
      "##यर": 3146,
      "##येन": 3147,
      "##तु": 3148,
      "##िंद": 3149,
      "##पे": 3150,
      "##मेरेन": 3151,
      "##णु": 3152,
      "##थी": 3153,
      "##ॊत्र": 3154,
      "##्याय": 3155,
      "##नीत": 3156,
      "##र्ष": 3157,
      "##ांतर": 3158,
      "सुत्र": 3159,
      "##ेश्ठ": 3160,
      "आसले": 3161,
      "नाईक": 3162,
      "जावपा": 3163,
      "दिवपाचे": 3164,
      "जाल्ल्यान": 3165,
      "खेळांत": 3166,
      "तरेक": 3167,
      "बराम": 3168,
      "भुरग्यांक": 3169,
      "गांवकार": 3170,
      "नाशिल्ली": 3171,
      "उर्जा": 3172,
      "उकतें": 3173,
      "माथ": 3174,
      "त्रास": 3175,
      "कर्मचारी": 3176,
      "डिजी": 3177,
      "वस्ताद": 3178,
      "विरोध": 3179,
      "ङ्केरयेंत": 3180,
      "भानुदास": 3181,
      "तपासणी": 3182,
      "नियंत्रण": 3183,
      "व्यवस्था": 3184,
      "समाधान": 3185,
      "दुमेंती": 3186,
      "कोवीड": 3187,
      "कठ": 3188,
      "थेट": 3189,
      "दें": 3190,
      "दाय": 3191,
      "धुक": 3192,
      "नज": 3193,
      "बह": 3194,
      "रण": 3195,
      "शांत": 3196,
      "हवा": 3197,
      "##शीत": 3198,
      "##नांत": 3199,
      "##तिक": 3200,
      "##धिश": 3201,
      "##पाचेर": 3202,
      "##चल": 3203,
      "##बाद": 3204,
      "##ल्याक": 3205,
      "##ायल": 3206,
      "##ांतली": 3207,
      "केस": 3208,
      "आयलां": 3209,
      "आयल्यात": 3210,
      "##ासीत": 3211,
      "ङ्कायनली": 3212,
      "##कांचे": 3213,
      "नाट": 3214,
      "प्रधानंत्र": 3215,
      "##ऩाची": 3216,
      "##विशी": 3217,
      "जाल्लें": 3218,
      "तिन": 3219,
      "घेवपाची": 3220,
      "व्हडा": 3221,
      "उलयले": 3222,
      "##ोड्या": 3223,
      "मारलो": 3224,
      "ऩम": 3225,
      "रावतले": 3226,
      "घालो": 3227,
      "उबो": 3228,
      "प्रसारीत": 3229,
      "योग्य": 3230,
      "ल्हव": 3231,
      "संबंदीत": 3232,
      "भावना": 3233,
      "वाशिन": 3234,
      "महिला": 3235,
      "ऑस्ट्रेलिया": 3236,
      "शर्मा": 3237,
      "तामीळना": 3238,
      "आऩ": 3239,
      "उणे": 3240,
      "उल्ले": 3241,
      "एल": 3242,
      "गय": 3243,
      "चक": 3244,
      "तेव": 3245,
      "ताब": 3246,
      "फाटी": 3247,
      "बंदी": 3248,
      "लेग": 3249,
      "शें": 3250,
      "स्म": 3251,
      "सत्त": 3252,
      "##हित": 3253,
      "##गो": 3254,
      "##डु": 3255,
      "##सन": 3256,
      "##सान": 3257,
      "##सावन": 3258,
      "##घात": 3259,
      "##ूज": 3260,
      "##ूस": 3261,
      "##ण्या": 3262,
      "##बगर": 3263,
      "##ंतल्या": 3264,
      "दितना": 3265,
      "##्रीक": 3266,
      "##ेतलो": 3267,
      "ङ्काव": 3268,
      "ङ्कोंड": 3269,
      "एकशे": 3270,
      "भारता": 3271,
      "वाह": 3272,
      "करपाचेर": 3273,
      "भारताची": 3274,
      "जावप": 3275,
      "देशाचे": 3276,
      "देशभरांत": 3277,
      "खेळा": 3278,
      "परिक्षा": 3279,
      "सांस्कृ": 3280,
      "##ियम": 3281,
      "ङ्कार": 3282,
      "विशयाचेर": 3283,
      "करतली": 3284,
      "थंयच": 3285,
      "पालवी": 3286,
      "##ुद्ध": 3287,
      "समाजीक": 3288,
      "खूप": 3289,
      "आयुक्त": 3290,
      "##मुखार": 3291,
      "आयकु": 3292,
      "विद्याथ्र्यांनी": 3293,
      "मॅगी": 3294,
      "फुलां": 3295,
      "टीचर": 3296,
      "दर्शन": 3297,
      "खबराकारांक": 3298,
      "अहवाल": 3299,
      "शांतीक": 3300,
      "आंख": 3301,
      "सहकार्य": 3302,
      "उटंगर": 3303,
      "नौदळ": 3304,
      "झारखंड": 3305,
      "अच": 3306,
      "आभ": 3307,
      "खब": 3308,
      "चांच": 3309,
      "डिस": 3310,
      "तार": 3311,
      "पूर": 3312,
      "शा": 3313,
      "ां": 3314,
      "##ाि": 3315,
      "##लंद": 3316,
      "##जगती": 3317,
      "##ीम": 3318,
      "##ीती": 3319,
      "##धा": 3320,
      "##दम": 3321,
      "दिग": 3322,
      "##ागेर": 3323,
      "ङ्किल्": 3324,
      "##िकरण": 3325,
      "दोत": 3326,
      "लागता": 3327,
      "सरपंच": 3328,
      "राया": 3329,
      "सोब": 3330,
      "समार": 3331,
      "कामत": 3332,
      "पडलो": 3333,
      "रावलो": 3334,
      "##ियन": 3335,
      "##लायन": 3336,
      "##श्टी": 3337,
      "वाडत": 3338,
      "चलत": 3339,
      "वयल्यान": 3340,
      "संवसारिक": 3341,
      "मंत्रालयाचे": 3342,
      "कार्यक": 3343,
      "कसले": 3344,
      "विदेशी": 3345,
      "उद्देज": 3346,
      "आतंकवादी": 3347,
      "उक्तायल्या": 3348,
      "फाटल्यान": 3349,
      "अरुण": 3350,
      "म्हामती": 3351,
      "ङ्कुडारपण": 3352,
      "शिक्षणीक": 3353,
      "चवक": 3354,
      "भांगरा": 3355,
      "गोरवां": 3356,
      "इंग्ल": 3357,
      "खाजगी": 3358,
      "मतमेजणी": 3359,
      "अधिकृत": 3360,
      "डिजीटल": 3361,
      "अत": 3362,
      "अळी": 3363,
      "गती": 3364,
      "डद": 3365,
      "तू": 3366,
      "ताचेर": 3367,
      "देड": 3368,
      "रच": 3369,
      "लुक": 3370,
      "वीज": 3371,
      "शाणी": 3372,
      "##वेव": 3373,
      "##लात": 3374,
      "##यना": 3375,
      "##न्या": 3376,
      "##ेपण": 3377,
      "##ॉन": 3378,
      "##ुस": 3379,
      "##दे": 3380,
      "##दारी": 3381,
      "##ैर": 3382,
      "##ांती": 3383,
      "##ायण": 3384,
      "##ल्य": 3385,
      "प्राध": 3386,
      "म्हन": 3387,
      "आयिल्लो": 3388,
      "आयिल्ले": 3389,
      "कोलक": 3390,
      "सांगता": 3391,
      "मोल": 3392,
      "आपूण": 3393,
      "##ळीं": 3394,
      "##्नया": 3395,
      "##्नती": 3396,
      "राठ": 3397,
      "म्हणया": 3398,
      "शिर": 3399,
      "बायत": 3400,
      "निर्देश": 3401,
      "सिंध": 3402,
      "म्हजें": 3403,
      "उत्स": 3404,
      "घाल्": 3405,
      "अभिन": 3406,
      "प्रभू": 3407,
      "येवजण्यो": 3408,
      "वर्सां": 3409,
      "जनरल": 3410,
      "फुडे": 3411,
      "जिण": 3412,
      "सगल्यांत": 3413,
      "घोष": 3414,
      "वेवस्थापन": 3415,
      "##िज्य": 3416,
      "सांवळ": 3417,
      "तरणाट्यांक": 3418,
      "बुध": 3419,
      "उखल": 3420,
      "नामनेचे": 3421,
      "मुख्यमंत्री": 3422,
      "सकयल": 3423,
      "प्रतिनिधी": 3424,
      "कितल्याश": 3425,
      "##गराध्यक्ष": 3426,
      "चंपाव": 3427,
      "तरेकवार": 3428,
      "बरामकी": 3429,
      "अं": 3430,
      "आख": 3431,
      "आध": 3432,
      "आल्": 3433,
      "इं": 3434,
      "ओप": 3435,
      "खण": 3436,
      "तज": 3437,
      "पथ": 3438,
      "पट्ट": 3439,
      "बड": 3440,
      "भयण": 3441,
      "मंद": 3442,
      "वता": 3443,
      "हाय": 3444,
      "##रथ": 3445,
      "##ोय": 3446,
      "##ोब": 3447,
      "##ंधी": 3448,
      "##ेना": 3449,
      "##पांत": 3450,
      "##पेट": 3451,
      "##एन": 3452,
      "##णिज्य": 3453,
      "##था": 3454,
      "##अर": 3455,
      "##्याच": 3456,
      "##ांप": 3457,
      "##ाल्यो": 3458,
      "आयच्या": 3459,
      "##ामार": 3460,
      "##ामती": 3461,
      "कोंब": 3462,
      "कोवल": 3463,
      "ङ्क्र": 3464,
      "##ंदू": 3465,
      "वाणिज्य": 3466,
      "दोनूंय": 3467,
      "सगली": 3468,
      "शिब": 3469,
      "समस": 3470,
      "तिची": 3471,
      "कामां": 3472,
      "कायम": 3473,
      "##ांच्मा": 3474,
      "वेगळी": 3475,
      "पदक": 3476,
      "वाटो": 3477,
      "न्हयकार": 3478,
      "बरोच": 3479,
      "प्रदेशांत": 3480,
      "सकाळ": 3481,
      "जिणे": 3482,
      "आयुष": 3483,
      "मेळ्ळे": 3484,
      "गावडे": 3485,
      "प्रवाश": 3486,
      "बंगळ": 3487,
      "कानार": 3488,
      "नोंदणी": 3489,
      "सुनावणी": 3490,
      "##ैैै": 3491,
      "नितळसाण": 3492,
      "रॅली": 3493,
      "तेन्नां": 3494,
      "मेलज": 3495,
      "इत्सा": 3496,
      "रितीन": 3497,
      "राहुल": 3498,
      "##सालदार": 3499,
      "दोतोर": 3500,
      "आंध": 3501,
      "इन": 3502,
      "खेप": 3503,
      "जु": 3504,
      "टक्": 3505,
      "प्": 3506,
      "पे": 3507,
      "बेस": 3508,
      "भशेन": 3509,
      "रम": 3510,
      "लस": 3511,
      "शस्त्र": 3512,
      "सत्त्आ": 3513,
      "##शाय": 3514,
      "##यकार": 3515,
      "##येत": 3516,
      "##भाय": 3517,
      "##िप": 3518,
      "##िर्": 3519,
      "##िपक्षीय": 3520,
      "##धक": 3521,
      "##डीत": 3522,
      "##सळ": 3523,
      "##ावळ": 3524,
      "##ाकाय": 3525,
      "##स्वी": 3526,
      "करूं": 3527,
      "विधी": 3528,
      "##काया": 3529,
      "आसली": 3530,
      "##ंदन": 3531,
      "सरकारा": 3532,
      "देशा": 3533,
      "शिष्ट": 3534,
      "पावले": 3535,
      "व्ही": 3536,
      "महात": 3537,
      "##ऱी": 3538,
      "कथेत": 3539,
      "गोंयकार": 3540,
      "तेंड": 3541,
      "केंद्रिय": 3542,
      "##िवंत": 3543,
      "भेटेर": 3544,
      "वचूंक": 3545,
      "देवाक": 3546,
      "गोम": 3547,
      "दुसऱ्या": 3548,
      "नव्यान": 3549,
      "सुवातांनी": 3550,
      "हिंदी": 3551,
      "न्यायाधिश": 3552,
      "##ट्टी": 3553,
      "पणजी": 3554,
      "आशळ": 3555,
      "नागरी": 3556,
      "ङ्काल्या": 3557,
      "मार्गदर्शक": 3558,
      "कुडीत": 3559,
      "शाळा": 3560,
      "म्हामार्ग": 3561,
      "तुज्या": 3562,
      "तुळसू": 3563,
      "दोळयांत": 3564,
      "मदत": 3565,
      "अहमद": 3566,
      "गणू": 3567,
      "तरेची": 3568,
      "याचिका": 3569,
      "तशीच": 3570,
      "ग्रामीण": 3571,
      "ङ्कांटभ": 3572,
      "भुरगीं": 3573,
      "दादल्यांच्या": 3574,
      "दनपारां": 3575,
      "फाल्यां": 3576,
      "रोजगार": 3577,
      "पुलवामा": 3578,
      "ङ्किल्म": 3579,
      "अल": 3580,
      "काब": 3581,
      "गैर": 3582,
      "चलो": 3583,
      "चल्ल्या": 3584,
      "ज्य": 3585,
      "थंड": 3586,
      "थांब": 3587,
      "नगराध्यक्ष": 3588,
      "पू": 3589,
      "पाड": 3590,
      "पिय": 3591,
      "पिराय": 3592,
      "बॉ": 3593,
      "माय": 3594,
      "मिश": 3595,
      "व्द": 3596,
      "साल": 3597,
      "सपन": 3598,
      "##वंत": 3599,
      "##्चीत": 3600,
      "##भाश": 3601,
      "##गन": 3602,
      "##ेमी": 3603,
      "##धानी": 3604,
      "##डेकर": 3605,
      "##मीक": 3606,
      "##म्म": 3607,
      "##देग": 3608,
      "##णां": 3609,
      "##्रार": 3610,
      "##ातली": 3611,
      "##ल्मान": 3612,
      "##लीक": 3613,
      "प्रद": 3614,
      "प्राद": 3615,
      "प्रदु": 3616,
      "##स्म": 3617,
      "विसर": 3618,
      "आयल्या": 3619,
      "##ेन्न": 3620,
      "##ासी": 3621,
      "नियो": 3622,
      "राजकार": 3623,
      "सोम": 3624,
      "##ऩाक": 3625,
      "महत्व": 3626,
      "कथाकार": 3627,
      "पळय": 3628,
      "ङ्कुडो": 3629,
      "रावता": 3630,
      "वरां": 3631,
      "सांख": 3632,
      "आपल्याक": 3633,
      "##िकारी": 3634,
      "अर्थमंत्री": 3635,
      "संबंदी": 3636,
      "हाडून": 3637,
      "नवो": 3638,
      "##प्प": 3639,
      "जनता": 3640,
      "कसलोच": 3641,
      "मेळटले": 3642,
      "नाशिल्लें": 3643,
      "नागरीक": 3644,
      "उद्देगीक": 3645,
      "उक्तायला": 3646,
      "जापसालदार": 3647,
      "पात्र": 3648,
      "भोंवड": 3649,
      "सांवळो": 3650,
      "सुरक्षीत": 3651,
      "कंपन": 3652,
      "शांती": 3653,
      "जेवण": 3654,
      "जिल्हो": 3655,
      "आयतारा": 3656,
      "शिटकावणी": 3657,
      "डिसेंबर": 3658,
      "महात्मा": 3659,
      "कशे": 3660,
      "गड": 3661,
      "पां": 3662,
      "फाव": 3663,
      "बळी": 3664,
      "राण": 3665,
      "वं": 3666,
      "वोग": 3667,
      "हाचो": 3668,
      "##व्य": 3669,
      "##ळार": 3670,
      "##फ्ट": 3671,
      "##यल": 3672,
      "##येच्या": 3673,
      "##नाचे": 3674,
      "##गा": 3675,
      "##ुष": 3676,
      "##ण्यो": 3677,
      "##ारामन": 3678,
      "##ार्थ": 3679,
      "##र्श": 3680,
      "##्येक": 3681,
      "दिपक": 3682,
      "अश्या": 3683,
      "संदी": 3684,
      "##ामेरेन": 3685,
      "तांच्यो": 3686,
      "पुर्": 3687,
      "निवड": 3688,
      "राज्यां": 3689,
      "राज्यांनी": 3690,
      "पर्याव": 3691,
      "सरदेसाय": 3692,
      "करपाचें": 3693,
      "##शील": 3694,
      "म्हणलें": 3695,
      "जावं": 3696,
      "सोन": 3697,
      "दुः": 3698,
      "पावलो": 3699,
      "समृ": 3700,
      "उलै": 3701,
      "सर्ग": 3702,
      "महाविद्याल": 3703,
      "लोकांची": 3704,
      "येतले": 3705,
      "गोंयची": 3706,
      "वाठारात": 3707,
      "तरना": 3708,
      "घडणुक": 3709,
      "काभ": 3710,
      "थारला": 3711,
      "वचपाक": 3712,
      "भाजपाच्या": 3713,
      "भाजपान": 3714,
      "##परस": 3715,
      "स्थाप": 3716,
      "जाग्यार": 3717,
      "उलोवणी": 3718,
      "बांदकाम": 3719,
      "अजाप": 3720,
      "पैशे": 3721,
      "सोपुत": 3722,
      "हरया": 3723,
      "साठ": 3724,
      "आकाशवाणीच्या": 3725,
      "जयंती": 3726,
      "अपघात": 3727,
      "##ल्मात": 3728,
      "येवजणेचो": 3729,
      "##डिओ": 3730,
      "तुमच्या": 3731,
      "कोयर": 3732,
      "लोकसभेचे": 3733,
      "##ाांणी": 3734,
      "पोरस": 3735,
      "##दुला": 3736,
      "याचिक": 3737,
      "देवळांत": 3738,
      "तालु": 3739,
      "आंकडो": 3740,
      "कॉन्ङ्कर": 3741,
      "हॉस्पिटल": 3742,
      "आयकुपाक": 3743,
      "आंध्र": 3744,
      "शिष्टमंडळ": 3745,
      "तेंडुल": 3746,
      "आळ": 3747,
      "गि": 3748,
      "जर": 3749,
      "दावो": 3750,
      "धार": 3751,
      "नय": 3752,
      "फावो": 3753,
      "बारा": 3754,
      "भंत्री": 3755,
      "भाट": 3756,
      "माड": 3757,
      "शळ": 3758,
      "स्क": 3759,
      "सीत": 3760,
      "हद": 3761,
      "हॅ": 3762,
      "##ळां": 3763,
      "##येर": 3764,
      "##गण": 3765,
      "##िब": 3766,
      "##खो": 3767,
      "##खाद": 3768,
      "##ेले": 3769,
      "##ॉक": 3770,
      "##डून": 3771,
      "##घर": 3772,
      "##ूद": 3773,
      "##ण्ण": 3774,
      "##बे": 3775,
      "##ॊक": 3776,
      "##र्ड": 3777,
      "प्रेर": 3778,
      "संयु": 3779,
      "##ामु": 3780,
      "कोयो": 3781,
      "पुरो": 3782,
      "नितीन": 3783,
      "सांगून": 3784,
      "राजधानी": 3785,
      "राश्ट": 3786,
      "##शीन": 3787,
      "म्हणला": 3788,
      "जावडेकर": 3789,
      "##्यावेल्या": 3790,
      "अधिस": 3791,
      "दिवचो": 3792,
      "देशातल्या": 3793,
      "उदेंत": 3794,
      "आमज": 3795,
      "##णेचे": 3796,
      "तिचे": 3797,
      "कितली": 3798,
      "पडट": 3799,
      "बायला": 3800,
      "##ळ्यांत": 3801,
      "ऩु": 3802,
      "ऩड": 3803,
      "लोकशाय": 3804,
      "##यांचे": 3805,
      "रावन": 3806,
      "##ंचालक": 3807,
      "उलयताना": 3808,
      "##ांच्यो": 3809,
      "वेगळे": 3810,
      "राज्यसभ": 3811,
      "हाडली": 3812,
      "दुसरी": 3813,
      "भलायक": 3814,
      "##ाल्ड": 3815,
      "स्थिती": 3816,
      "प्रमाणात": 3817,
      "सावयकार": 3818,
      "कळीत": 3819,
      "काँग्रेसीचे": 3820,
      "निर्णयाक": 3821,
      "शेतकारांक": 3822,
      "पळोवणी": 3823,
      "जैतिवंत": 3824,
      "विकसीत": 3825,
      "ट्रंप": 3826,
      "जम्मु": 3827,
      "तुमकां": 3828,
      "##बायल": 3829,
      "म्हण्टा": 3830,
      "##ंभीर": 3831,
      "प्रक्रिय": 3832,
      "नारायण": 3833,
      "अंदू": 3834,
      "विनय": 3835,
      "अदमासपत्र": 3836,
      "सेमी": 3837,
      "सुचोवणी": 3838,
      "भोंवडी": 3839,
      "चॅनल": 3840,
      "संपर्क": 3841,
      "कोवलड": 3842,
      "लसीकरण": 3843,
      "व्दिपक्षीय": 3844,
      "प्रादेश": 3845,
      "पर्यावरण": 3846,
      "आङ्क": 3847,
      "उम": 3848,
      "उणें": 3849,
      "उणो": 3850,
      "ऑन": 3851,
      "खबरो": 3852,
      "गुरू": 3853,
      "गंभीर": 3854,
      "झगड": 3855,
      "ठाक": 3856,
      "द्वि": 3857,
      "नाक": 3858,
      "पश": 3859,
      "पान": 3860,
      "फो": 3861,
      "भू": 3862,
      "मॉ": 3863,
      "मृ": 3864,
      "मेत": 3865,
      "मिन": 3866,
      "येजमान": 3867,
      "रद्द": 3868,
      "शुक": 3869,
      "सज्": 3870,
      "हळ": 3871,
      "हल्लो": 3872,
      "##ाा": 3873,
      "##्ञ": 3874,
      "##ेल्यान": 3875,
      "##डिया": 3876,
      "##सम": 3877,
      "##मां": 3878,
      "##ॅ्न": 3879,
      "##ॊनी": 3880,
      "##याल": 3881,
      "##ार्ट": 3882,
      "##र्नां": 3883,
      "प्रसि": 3884,
      "##स्ल": 3885,
      "विस": 3886,
      "केल्यो": 3887,
      "केल्लें": 3888,
      "##कारक": 3889,
      "##ेतल्या": 3890,
      "##िल्ल्यो": 3891,
      "कोंय": 3892,
      "##दीय": 3893,
      "##्यांव": 3894,
      "##ोवप": 3895,
      "##ोवपाची": 3896,
      "आपुण": 3897,
      "##वीज": 3898,
      "##ेच्च": 3899,
      "भारतात": 3900,
      "जावचे": 3901,
      "मेळून": 3902,
      "##ऩाचे": 3903,
      "पावंड": 3904,
      "तुजे": 3905,
      "आमचे": 3906,
      "##डीओ": 3907,
      "घेवची": 3908,
      "घेवपा": 3909,
      "सर्वा": 3910,
      "खेळग": 3911,
      "मारला": 3912,
      "मतां": 3913,
      "वाठारानी": 3914,
      "आडख": 3915,
      "रेडियो": 3916,
      "चडांत": 3917,
      "संस्थेन": 3918,
      "काळो": 3919,
      "करताले": 3920,
      "आजून": 3921,
      "पालवान": 3922,
      "जागो": 3923,
      "युरो": 3924,
      "कार्यक्रम": 3925,
      "कार्यकारी": 3926,
      "खंयच्या": 3927,
      "पावसाक": 3928,
      "सोपूत": 3929,
      "सुवाळो": 3930,
      "सुवाळ्याक": 3931,
      "शकता": 3932,
      "खोलाय": 3933,
      "उक्तायली": 3934,
      "जयशंकर": 3935,
      "ट्रक": 3936,
      "##सिंग": 3937,
      "कुडी": 3938,
      "राजकीय": 3939,
      "मोहिम": 3940,
      "जाहिर": 3941,
      "दुयेंस": 3942,
      "लेखक": 3943,
      "संदर्भात": 3944,
      "आनंद": 3945,
      "तुळशी": 3946,
      "इतिहासीक": 3947,
      "भांगर": 3948,
      "पासून": 3949,
      "पुष्पा": 3950,
      "माल्ली": 3951,
      "अभियान": 3952,
      "आत्म": 3953,
      "नीला": 3954,
      "गुंतवणूक": 3955,
      "गुंतवणुक": 3956,
      "मंगळ": 3957,
      "हवाई": 3958,
      "##म्मद": 3959,
      "मृदुला": 3960,
      "सर्वाेच्च": 3961,
      "अटक": 3962,
      "इश्ट": 3963,
      "गार": 3964,
      "गिर": 3965,
      "चेन्न": 3966,
      "जाम": 3967,
      "देग": 3968,
      "फ्रां": 3969,
      "बोर": 3970,
      "मरे": 3971,
      "रांद": 3972,
      "रत्न": 3973,
      "लु": 3974,
      "वो": 3975,
      "शौ": 3976,
      "सौ": 3977,
      "##वेंच": 3978,
      "##लाक": 3979,
      "##हान": 3980,
      "##यम": 3981,
      "##नाक": 3982,
      "##ोदर": 3983,
      "##टरी": 3984,
      "##ुचो": 3985,
      "##डच्यान": 3986,
      "##ृष्ट": 3987,
      "##याद": 3988,
      "##यावे": 3989,
      "##ालयान": 3990,
      "##चेय": 3991,
      "##ांतलो": 3992,
      "म्हट": 3993,
      "दिल्लो": 3994,
      "अशोक": 3995,
      "पुज": 3996,
      "निरी": 3997,
      "##कांचो": 3998,
      "एकव": 3999,
      "मोलाद": 4000,
      "मोबायल": 4001,
      "राजांग": 4002,
      "आपलें": 4003,
      "परवान": 4004,
      "##्मभ": 4005,
      "##राबाद": 4006,
      "##ेंतल्या": 4007,
      "मेळची": 4008,
      "घेता": 4009,
      "दिसना": 4010,
      "दिवचल": 4011,
      "देशाक": 4012,
      "शिग": 4013,
      "समान": 4014,
      "घेवप": 4015,
      "हांवे": 4016,
      "परिक्ष": 4017,
      "ताजें": 4018,
      "पोस्ट": 4019,
      "ङ्काटीं": 4020,
      "विशयांचेर": 4021,
      "वयकायान": 4022,
      "विद्यापिठ": 4023,
      "ददरी": 4024,
      "आयुश": 4025,
      "##मुर्ती": 4026,
      "रेल्व": 4027,
      "साहित्यीक": 4028,
      "अमेरीक": 4029,
      "पळोवंक": 4030,
      "प्रत्येक": 4031,
      "नेमणूक": 4032,
      "श्नय": 4033,
      "निर्मिती": 4034,
      "ब्रि": 4035,
      "अकादेमी": 4036,
      "संघटण": 4037,
      "पळेता": 4038,
      "सुदारणा": 4039,
      "न्यायमुर्ती": 4040,
      "तकली": 4041,
      "कश्मीर": 4042,
      "हैदराबाद": 4043,
      "कुशळटाय": 4044,
      "प्राधान": 4045,
      "इराण": 4046,
      "चवकशी": 4047,
      "कितल्याशाच": 4048,
      "तजवीज": 4049,
      "समस्या": 4050,
      "आचार": 4051,
      "इतलो": 4052,
      "उबी": 4053,
      "उंचे": 4054,
      "एखाद": 4055,
      "खफ": 4056,
      "गाय": 4057,
      "गरी": 4058,
      "गोड": 4059,
      "जून": 4060,
      "ताप": 4061,
      "पूर्ण": 4062,
      "माम": 4063,
      "वकी": 4064,
      "शेख": 4065,
      "संत": 4066,
      "स्न": 4067,
      "हर्ष": 4068,
      "##रत": 4069,
      "##राव": 4070,
      "##यलां": 4071,
      "##नम": 4072,
      "##ंन": 4073,
      "##तलें": 4074,
      "##गाव": 4075,
      "##िक्ष": 4076,
      "##टां": 4077,
      "##टना": 4078,
      "##एङ्क": 4079,
      "##ृती": 4080,
      "##ृत्ती": 4081,
      "##ृष्ण": 4082,
      "##बि": 4083,
      "##बॉल": 4084,
      "##झा": 4085,
      "##ँग": 4086,
      "##्राबाद": 4087,
      "##ाता": 4088,
      "##ालय": 4089,
      "##ान्स": 4090,
      "##ल्ल्मा": 4091,
      "सुमन": 4092,
      "सुभा": 4093,
      "कोह": 4094,
      "कोव्ही": 4095,
      "##ंगार": 4096,
      "ङ्ककत": 4097,
      "ङ्कूड": 4098,
      "##ोव्ह": 4099,
      "आपणे": 4100,
      "सुरळीत": 4101,
      "सरकाराचे": 4102,
      "बसलो": 4103,
      "दोनशे": 4104,
      "दुर्": 4105,
      "दिसांचे": 4106,
      "देशी": 4107,
      "देशां": 4108,
      "##ऩा": 4109,
      "आमचो": 4110,
      "##डीस": 4111,
      "##ाखाला": 4112,
      "आवड": 4113,
      "ऩरय": 4114,
      "हातान": 4115,
      "त्याच": 4116,
      "पक्षान": 4117,
      "घरकान": 4118,
      "नवीन": 4119,
      "अमीत": 4120,
      "आसतलें": 4121,
      "विद्यापीठ": 4122,
      "राष्ट्रपतींनी": 4123,
      "हुतात": 4124,
      "दाखोवन": 4125,
      "प्रभोद": 4126,
      "वर्सुकी": 4127,
      "कळोव": 4128,
      "बायलांक": 4129,
      "फुडल्या": 4130,
      "आयुर्": 4131,
      "संकेत": 4132,
      "संसदीय": 4133,
      "प्रतिसाद": 4134,
      "स्टेशन": 4135,
      "भोवमान": 4136,
      "गोविंद": 4137,
      "वांगडाच": 4138,
      "यंत्रण": 4139,
      "राज्यांतल्या": 4140,
      "आनिक": 4141,
      "परीषद": 4142,
      "निश्चीत": 4143,
      "चवथ": 4144,
      "व्हिडिओ": 4145,
      "रूप": 4146,
      "दामबाब": 4147,
      "परबीं": 4148,
      "ओंपलीं": 4149,
      "वाराण": 4150,
      "रोखड": 4151,
      "हैद्राबाद": 4152,
      "सशस्त्र": 4153,
      "स्वराज": 4154,
      "उप्रांत": 4155,
      "उल्लेख": 4156,
      "चांचणी": 4157,
      "म्हन्यांत": 4158,
      "राठोड": 4159,
      "दुःख": 4160,
      "कोंयसांव": 4161,
      "सुभाष": 4162,
      "अति": 4163,
      "कद": 4164,
      "जख": 4165,
      "जारा": 4166,
      "ज्ञ": 4167,
      "डाय": 4168,
      "धान": 4169,
      "धांप": 4170,
      "नोक": 4171,
      "पाद": 4172,
      "ऱ": 4173,
      "लज": 4174,
      "वग": 4175,
      "वु": 4176,
      "वॊ": 4177,
      "शेव": 4178,
      "सद्या": 4179,
      "सेगीत": 4180,
      "##्ळे": 4181,
      "##यल्यात": 4182,
      "##ंचेर": 4183,
      "##िली": 4184,
      "##िच्या": 4185,
      "##खन": 4186,
      "##पारा": 4187,
      "##दाय": 4188,
      "##णात": 4189,
      "##ांज": 4190,
      "##ारम": 4191,
      "##ानंद": 4192,
      "##ल्ह": 4193,
      "##ल्ल्यो": 4194,
      "##ावळी": 4195,
      "म्हान": 4196,
      "विवेक": 4197,
      "अश्यो": 4198,
      "##ागत": 4199,
      "##ागार": 4200,
      "संस्कार": 4201,
      "आयटी": 4202,
      "##ामजगती": 4203,
      "##ंकय": 4204,
      "##ादी": 4205,
      "निवळ": 4206,
      "मुळ": 4207,
      "मुळाव": 4208,
      "ङ्कोन": 4209,
      "ङ्कुट": 4210,
      "हेय": 4211,
      "##िकाय": 4212,
      "राजीव": 4213,
      "उपगि": 4214,
      "दोंगर": 4215,
      "राब": 4216,
      "लोकानी": 4217,
      "##राख": 4218,
      "##ापक": 4219,
      "##ांकडे": 4220,
      "घेतिल्ल्या": 4221,
      "देशांच्या": 4222,
      "पावसा": 4223,
      "तिग": 4224,
      "कितलेश": 4225,
      "खेळटलो": 4226,
      "न्हेस": 4227,
      "##िव्ह": 4228,
      "##न्नास": 4229,
      "##डेकार": 4230,
      "हाडपाक": 4231,
      "संवसारांत": 4232,
      "हिंस": 4233,
      "गरजे": 4234,
      "ङ्काटले": 4235,
      "वेगवेगळ": 4236,
      "जाण्ट": 4237,
      "प्रभाव": 4238,
      "सामाज": 4239,
      "सामको": 4240,
      "गरजेचें": 4241,
      "योगी": 4242,
      "आयकून": 4243,
      "उलोवपांत": 4244,
      "मनशां": 4245,
      "पुस्तकां": 4246,
      "यंत्रणा": 4247,
      "बारीक": 4248,
      "बापूय": 4249,
      "दामोदर": 4250,
      "नुस्तेम": 4251,
      "सप्तकांत": 4252,
      "मैदानाचेर": 4253,
      "निवेदन": 4254,
      "मात्सो": 4255,
      "बुन्या": 4256,
      "संबोधित": 4257,
      "गर्दी": 4258,
      "##कुमार": 4259,
      "रशिया": 4260,
      "श्रीलंक": 4261,
      "उत्तरा": 4262,
      "वस्तादपण": 4263,
      "कठीण": 4264,
      "समारोप": 4265,
      "प्राधिकरण": 4266,
      "अभिनंदन": 4267,
      "टक्के": 4268,
      "तालु्न": 4269,
      "तेंडुलकार": 4270,
      "गरीब": 4271,
      "नुस्तेमारी": 4272,
      "अथ": 4273,
      "इतली": 4274,
      "काव": 4275,
      "कवी": 4276,
      "चित": 4277,
      "चिर": 4278,
      "छान": 4279,
      "जें": 4280,
      "जान": 4281,
      "तज्ञ": 4282,
      "धोल": 4283,
      "फा": 4284,
      "फटो": 4285,
      "बुड": 4286,
      "भात": 4287,
      "भोग": 4288,
      "माच": 4289,
      "रेगीत": 4290,
      "लॉ": 4291,
      "लड": 4292,
      "ळेत": 4293,
      "वन": 4294,
      "वॉ": 4295,
      "सांत": 4296,
      "सल्ल": 4297,
      "सक्ती": 4298,
      "हाच्या": 4299,
      "##श्या": 4300,
      "##शान": 4301,
      "##लया": 4302,
      "##यें": 4303,
      "##नश": 4304,
      "##ोत": 4305,
      "##ोच": 4306,
      "##िी": 4307,
      "##ीना": 4308,
      "##टया": 4309,
      "##ड्यो": 4310,
      "##मल": 4311,
      "##म्": 4312,
      "##द्य": 4313,
      "##ॅब": 4314,
      "##ॅशन": 4315,
      "##याम": 4316,
      "##ांचें": 4317,
      "##ाल्या": 4318,
      "##ल्यांक": 4319,
      "##लेगळ": 4320,
      "##तीं": 4321,
      "##तीची": 4322,
      "म्हार": 4323,
      "हांचें": 4324,
      "##क्क": 4325,
      "करताना": 4326,
      "विज": 4327,
      "विठ": 4328,
      "##साणी": 4329,
      "कोलो": 4330,
      "तांचें": 4331,
      "ङ्क्रां": 4332,
      "##रीन": 4333,
      "एकोड्या": 4334,
      "##स्तर": 4335,
      "##स्तव": 4336,
      "वाढ": 4337,
      "नाथ": 4338,
      "राज्याचे": 4339,
      "हीं": 4340,
      "##राबर": 4341,
      "##स्था": 4342,
      "सोश": 4343,
      "दिवची": 4344,
      "दिवपाचो": 4345,
      "उद्": 4346,
      "##डीए": 4347,
      "घेवचो": 4348,
      "##ाखातीय": 4349,
      "बायलो": 4350,
      "लोकांचे": 4351,
      "मारता": 4352,
      "येतलो": 4353,
      "हातार": 4354,
      "ङ्कुडें": 4355,
      "कोंकण": 4356,
      "कार्यावळीच्या": 4357,
      "घालूक": 4358,
      "##िकाऱ": 4359,
      "न्यायाधीश": 4360,
      "##ानीक": 4361,
      "अभिया": 4362,
      "व्यव": 4363,
      "सहयोग": 4364,
      "व्हडलो": 4365,
      "##मुट": 4366,
      "अजुन": 4367,
      "संकुल": 4368,
      "##तनां": 4369,
      "अमेरिका": 4370,
      "म्हयन्यांत": 4371,
      "##नासतना": 4372,
      "खोस": 4373,
      "प्रत्यक्ष": 4374,
      "मुंबयत": 4375,
      "पारंप": 4376,
      "अधिकाऱ्यां": 4377,
      "संस्कृताय": 4378,
      "संसदेच्या": 4379,
      "ङ्कुडाऱ्यानी": 4380,
      "मोठो": 4381,
      "मोठ्या": 4382,
      "सत्य": 4383,
      "समितीन": 4384,
      "कुशीक": 4385,
      "सैनि": 4386,
      "अमेरिकेचे": 4387,
      "शांबा": 4388,
      "भवनांत": 4389,
      "नागरिक": 4390,
      "नुस्ते": 4391,
      "उटंगार": 4392,
      "मुखेलमंत्र्यांनी": 4393,
      "रवींद्र": 4394,
      "नगरपाल": 4395,
      "मुरगांव": 4396,
      "समुदा": 4397,
      "बचाव": 4398,
      "लेगलेगळ": 4399,
      "सांस्कृतीक": 4400,
      "म्हणयारे": 4401,
      "कोव्हीड": 4402,
      "##ंकय्या": 4403,
      "आंत": 4404,
      "आंद": 4405,
      "आंब": 4406,
      "किर": 4407,
      "कवास": 4408,
      "ख्या": 4409,
      "खिण": 4410,
      "गा": 4411,
      "गंग": 4412,
      "गडे": 4413,
      "चाळीस": 4414,
      "जल": 4415,
      "ट्वी": 4416,
      "ताळ": 4417,
      "ताचें": 4418,
      "फस": 4419,
      "फकत": 4420,
      "फुल": 4421,
      "बंड": 4422,
      "भावन": 4423,
      "मदी": 4424,
      "राल": 4425,
      "ल्": 4426,
      "वां": 4427,
      "वटेन": 4428,
      "सित": 4429,
      "सेंट": 4430,
      "##रक": 4431,
      "##लमा": 4432,
      "##लिक": 4433,
      "##हा": 4434,
      "##िश्ट": 4435,
      "##खे": 4436,
      "##खातीय": 4437,
      "##ङया": 4438,
      "##पड": 4439,
      "##मेळ": 4440,
      "##मांनी": 4441,
      "##दास": 4442,
      "##दिन": 4443,
      "##णाक": 4444,
      "##ातलो": 4445,
      "##र्य": 4446,
      "##र्प": 4447,
      "##र्गत": 4448,
      "##तीच्या": 4449,
      "##तीचो": 4450,
      "प्रण": 4451,
      "##स्पी": 4452,
      "##्रीत": 4453,
      "##क्तीक": 4454,
      "केशी": 4455,
      "केळे": 4456,
      "आयिल्ली": 4457,
      "सुल": 4458,
      "सुच": 4459,
      "सुपर": 4460,
      "ह्यावेळार": 4461,
      "तांचेर": 4462,
      "##लास्ट": 4463,
      "पुत": 4464,
      "मु्नत": 4465,
      "मुजत": 4466,
      "हेच": 4467,
      "एकोण": 4468,
      "##ाळे": 4469,
      "आसून": 4470,
      "आसल्यार": 4471,
      "मोटो": 4472,
      "##्नटो": 4473,
      "##्माय": 4474,
      "स्वात": 4475,
      "घेतात": 4476,
      "देशाची": 4477,
      "तुवें": 4478,
      "कामाक": 4479,
      "##यांच्या": 4480,
      "##ालीन": 4481,
      "मानून": 4482,
      "खात्याच्या": 4483,
      "तरत": 4484,
      "घडणूक": 4485,
      "काडलो": 4486,
      "राज्यमंत्री": 4487,
      "दवरला": 4488,
      "हिम": 4489,
      "रोक": 4490,
      "चालु": 4491,
      "साहित्यांत": 4492,
      "रुख": 4493,
      "##बीआय": 4494,
      "स्वामी": 4495,
      "##ोलन": 4496,
      "आयोगाच्या": 4497,
      "भाशा": 4498,
      "वळेर": 4499,
      "वळेरी": 4500,
      "सगळ्यांत": 4501,
      "##वण्यो": 4502,
      "म्हत्वाचे": 4503,
      "म्हत्वाचो": 4504,
      "म्हयन्या": 4505,
      "ननभ": 4506,
      "यादव": 4507,
      "##ेऱाय": 4508,
      "बेगोब": 4509,
      "थारायला": 4510,
      "बरीच": 4511,
      "वेंचणुकेंत": 4512,
      "सप्त": 4513,
      "तुजें": 4514,
      "तळेच": 4515,
      "भोदी": 4516,
      "संघटना": 4517,
      "##द्धा": 4518,
      "ओडिश": 4519,
      "मर्या": 4520,
      "चाचणी": 4521,
      "धर्मीक": 4522,
      "##मंी": 4523,
      "बेटी": 4524,
      "काणको": 4525,
      "मुद्यांचेर": 4526,
      "##ड्डा": 4527,
      "वेवसायीक": 4528,
      "उगडास": 4529,
      "पटेल": 4530,
      "कार्यशाळा": 4531,
      "संमेलन": 4532,
      "उत्क": 4533,
      "येसस्वी": 4534,
      "प्रवासी": 4535,
      "शेनवारा": 4536,
      "उपरराष्ट्रपती": 4537,
      "अङ्कग": 4538,
      "शांतीकायेन": 4539,
      "लुकसाण": 4540,
      "मेलजण": 4541,
      "सोमारा": 4542,
      "##ण्णव": 4543,
      "प्रादेशीक": 4544,
      "##र्नांडीस": 4545,
      "चडांतचड": 4546,
      "खोलायेन": 4547,
      "गिरायक": 4548,
      "हर्षवर्धन": 4549,
      "जखमी": 4550,
      "छाननी": 4551,
      "बेगोबेग": 4552,
      "15": 4553,
      "इले": 4554,
      "उफ": 4555,
      "उभार": 4556,
      "खाल": 4557,
      "खान": 4558,
      "चळ": 4559,
      "छाप": 4560,
      "जड": 4561,
      "जां": 4562,
      "डो": 4563,
      "तम": 4564,
      "तै": 4565,
      "नड्डा": 4566,
      "बुद": 4567,
      "वाल": 4568,
      "वुरू": 4569,
      "शेक": 4570,
      "सौर": 4571,
      "##रात": 4572,
      "##कून": 4573,
      "##वणे": 4574,
      "##ळद": 4575,
      "##ळीक": 4576,
      "##्वर": 4577,
      "##येचो": 4578,
      "##भान": 4579,
      "##ंथ": 4580,
      "##ंका": 4581,
      "##ंवर": 4582,
      "##जर्स": 4583,
      "##ील": 4584,
      "##ुक्त": 4585,
      "##पाय": 4586,
      "##प्ट": 4587,
      "##माक": 4588,
      "##मता": 4589,
      "##घड": 4590,
      "##एया": 4591,
      "##ूच्या": 4592,
      "##ष्क": 4593,
      "##ारक": 4594,
      "##्रारा": 4595,
      "##ल्ड": 4596,
      "##ल्मो": 4597,
      "##ावांगडा": 4598,
      "##ाकडे": 4599,
      "##्यू": 4600,
      "दितात": 4601,
      "##ेरा": 4602,
      "संवि": 4603,
      "आयिल्ल्यान": 4604,
      "##ामदी": 4605,
      "मुला": 4606,
      "##ोवपाचे": 4607,
      "आसतात": 4608,
      "##ंडी": 4609,
      "तीस": 4610,
      "आशिल्ल्यो": 4611,
      "सगळो": 4612,
      "दिसूक": 4613,
      "##विश": 4614,
      "व्हाळ": 4615,
      "व्हांव": 4616,
      "##ऱा": 4617,
      "ऩत्र": 4618,
      "न्हव": 4619,
      "न्ही": 4620,
      "गेल्ली": 4621,
      "##मीन": 4622,
      "रावत": 4623,
      "केंद्रश": 4624,
      "वाठारातल्या": 4625,
      "वेगळ": 4626,
      "गोयांत": 4627,
      "दवरल्या": 4628,
      "विशाणू": 4629,
      "भाजप": 4630,
      "नव्यो": 4631,
      "वयले": 4632,
      "थंयच्या": 4633,
      "हाजिर": 4634,
      "उरमत": 4635,
      "भाशेंत": 4636,
      "वेस्ट": 4637,
      "खासगी": 4638,
      "घटमुट": 4639,
      "पिळ": 4640,
      "ल्हार": 4641,
      "##स्त्रज्ञ": 4642,
      "येणाव": 4643,
      "शकना": 4644,
      "सोदता": 4645,
      "काश्म": 4646,
      "अधिकाऱ्यांक": 4647,
      "येवजणेखाला": 4648,
      "भोंवत": 4649,
      "वेंचणुकेच्या": 4650,
      "दर्जो": 4651,
      "लोकसभेंत": 4652,
      "मोटार": 4653,
      "आदींच": 4654,
      "दोगांय": 4655,
      "महोत्सवांत": 4656,
      "मंजुरी": 4657,
      "तसोच": 4658,
      "काके": 4659,
      "अखेर": 4660,
      "जिल्ल्यांत": 4661,
      "##ङ्कार": 4662,
      "संबोधीत": 4663,
      "दर्यादेग": 4664,
      "कयतरे": 4665,
      "सबका": 4666,
      "पंडित": 4667,
      "दूरदर्शनाच्या": 4668,
      "देंव": 4669,
      "ङ्कोंडें": 4670,
      "ङ्कारपेट": 4671,
      "कार्यकत्र": 4672,
      "अहमदाबाद": 4673,
      "सर्गेस्त": 4674,
      "अधिसुचो": 4675,
      "शुक्रारा": 4676,
      "सज्ज": 4677,
      "मोलादीक": 4678,
      "बुन्यादी": 4679,
      "##ॅशनल": 4680,
      "स्वातंत्र": 4681,
      "संविधान": 4682,
      "आराख": 4683,
      "इस्प": 4684,
      "उ्न": 4685,
      "खत": 4686,
      "खै": 4687,
      "गळ": 4688,
      "गीत": 4689,
      "चेड": 4690,
      "ज्ये": 4691,
      "ड्र": 4692,
      "थरथ": 4693,
      "दश": 4694,
      "दस": 4695,
      "दरे": 4696,
      "नो": 4697,
      "नाज": 4698,
      "प्ल": 4699,
      "फाम": 4700,
      "फक्त": 4701,
      "बाग": 4702,
      "बगर": 4703,
      "भय": 4704,
      "यात्र": 4705,
      "वाग": 4706,
      "शारी": 4707,
      "शुन": 4708,
      "शाणू": 4709,
      "सकार": 4710,
      "##रेन": 4711,
      "##करा": 4712,
      "##वेळ": 4713,
      "##ळान": 4714,
      "##लड": 4715,
      "##यक": 4716,
      "##ने": 4717,
      "##नगर": 4718,
      "##भी": 4719,
      "##ंर": 4720,
      "##ंह": 4721,
      "##त्या": 4722,
      "##ध्दी": 4723,
      "##डस": 4724,
      "##झर": 4725,
      "##ांखातीर": 4726,
      "##ावल": 4727,
      "##ावेळार": 4728,
      "##र्ज": 4729,
      "##र्तन": 4730,
      "दिलें": 4731,
      "##स्तीक": 4732,
      "विमो": 4733,
      "##ासन": 4734,
      "कोणे": 4735,
      "पुजा": 4736,
      "पुर्व": 4737,
      "निशे": 4738,
      "मुळाव्या": 4739,
      "जातकच": 4740,
      "कार्ड": 4741,
      "वास्को": 4742,
      "मोडी": 4743,
      "परवड": 4744,
      "दोट्टी": 4745,
      "लागसार": 4746,
      "लागीं": 4747,
      "##्निस": 4748,
      "राङ्क": 4749,
      "##रोबर": 4750,
      "##ेच्मा": 4751,
      "##्मात": 4752,
      "##रेस्त": 4753,
      "बसला": 4754,
      "##देशीर": 4755,
      "दिसांची": 4756,
      "दिवो": 4757,
      "शिरो": 4758,
      "तुजी": 4759,
      "उलयता": 4760,
      "पयलें": 4761,
      "सर्वे": 4762,
      "वर्ण": 4763,
      "वर्सी": 4764,
      "निर्बंध": 4765,
      "लोकांचो": 4766,
      "##ीसी": 4767,
      "भेटी": 4768,
      "गुवाह": 4769,
      "मंत्र्यानी": 4770,
      "अर्थवेव": 4771,
      "##ांचेय": 4772,
      "पोत": 4773,
      "संबंधी": 4774,
      "डॉन": 4775,
      "दुसरें": 4776,
      "##ेयेन": 4777,
      "जोडपाल": 4778,
      "##प्पा": 4779,
      "खबरदारी": 4780,
      "भुरगो": 4781,
      "भुरगे": 4782,
      "भुरग्यां": 4783,
      "कसली": 4784,
      "आशय": 4785,
      "प्रश्न": 4786,
      "उजो": 4787,
      "उबें": 4788,
      "आयु्नत": 4789,
      "194": 4790,
      "पैलो": 4791,
      "म्हत्वाची": 4792,
      "जायते": 4793,
      "पळोवया": 4794,
      "दक्षता": 4795,
      "प्रतिबंध": 4796,
      "उड्ड": 4797,
      "प्रस्नाक": 4798,
      "राखण": 4799,
      "मध्यम": 4800,
      "##पासून": 4801,
      "नांवान": 4802,
      "चंद्रकांत": 4803,
      "अंतराळ": 4804,
      "##ूर्त": 4805,
      "दनपारा": 4806,
      "क्षेत्रांत": 4807,
      "ङ्कुडारपणा": 4808,
      "##्रेला": 4809,
      "शहीद": 4810,
      "रागून": 4811,
      "तरेच्या": 4812,
      "विधानसभेच्या": 4813,
      "##ीदारी": 4814,
      "मंत्रीमंडळान": 4815,
      "वितरावणी": 4816,
      "बायलेक": 4817,
      "काण्ण": 4818,
      "दासभट": 4819,
      "सूरू": 4820,
      "मीना": 4821,
      "संसारीक": 4822,
      "लाठाया": 4823,
      "अविना": 4824,
      "##द्धी": 4825,
      "##िसानी": 4826,
      "लश्कर": 4827,
      "दहशतवादी": 4828,
      "दायज": 4829,
      "ङ्कावटी": 4830,
      "##लंदाजी": 4831,
      "कसलेच": 4832,
      "सांवळयान": 4833,
      "नयेंद्र": 4834,
      "संयुक्त": 4835,
      "प्राधान्य": 4836,
      "हुतात्म": 4837,
      "ज्ञान": 4838,
      "पाद्री": 4839,
      "उत्तराखंड": 4840,
      "सल्लागार": 4841,
      "ट्वीट": 4842,
      "उ्नताय": 4843,
      "ज्येष्ठ": 4844,
      "दरेका": 4845,
      "सर्वेक्षण": 4846,
      "अटल": 4847,
      "आग्र": 4848,
      "एफ": 4849,
      "ऑग": 4850,
      "कल्पना": 4851,
      "घटक": 4852,
      "चिन": 4853,
      "जण": 4854,
      "तान": 4855,
      "ताम": 4856,
      "दुरु": 4857,
      "धड": 4858,
      "नाल्": 4859,
      "पढ": 4860,
      "पें": 4861,
      "पालो": 4862,
      "बेकाय": 4863,
      "भांत": 4864,
      "म्": 4865,
      "मूळ": 4866,
      "रस": 4867,
      "रक्ष": 4868,
      "रेल": 4869,
      "श्रम": 4870,
      "शाॊ": 4871,
      "शंकर": 4872,
      "्न": 4873,
      "##राम": 4874,
      "##वां": 4875,
      "##शक": 4876,
      "##येची": 4877,
      "##न्ह": 4878,
      "##ोडी": 4879,
      "##िंत": 4880,
      "##िष्ट": 4881,
      "##ियो": 4882,
      "##ियान": 4883,
      "##िक्षक": 4884,
      "##जू": 4885,
      "##ीदार": 4886,
      "##प्यांक": 4887,
      "##ूरांत": 4888,
      "##षी": 4889,
      "##ांम": 4890,
      "##्रपती": 4891,
      "##ालों": 4892,
      "##र्ण": 4893,
      "##तीम": 4894,
      "प्रगती": 4895,
      "प्रसंग": 4896,
      "म्हगे": 4897,
      "म्हाविद्याल": 4898,
      "म्हयना": 4899,
      "दिश्टी": 4900,
      "##स्मात": 4901,
      "हांच्यो": 4902,
      "करार": 4903,
      "वित्त": 4904,
      "##नाफुडें": 4905,
      "सुक": 4906,
      "##ेश्वर": 4907,
      "##ासार": 4908,
      "कोट": 4909,
      "जातरी": 4910,
      "सांगूक": 4911,
      "##ाचोय": 4912,
      "मोन": 4913,
      "मोद": 4914,
      "राज्यांच्या": 4915,
      "##ंत्रमांनी": 4916,
      "उपस्थ": 4917,
      "##शिल्ल्या": 4918,
      "##कीय": 4919,
      "म्हणत": 4920,
      "म्हणपाची": 4921,
      "म्हणपाचे": 4922,
      "जावचें": 4923,
      "दिसाचो": 4924,
      "देशात": 4925,
      "शिम": 4926,
      "पावली": 4927,
      "मनाक": 4928,
      "तिचो": 4929,
      "##ङ्कायनली": 4930,
      "##तायेन": 4931,
      "##िन्स": 4932,
      "वर्ग": 4933,
      "पडिल्ल्यान": 4934,
      "येतली": 4935,
      "हाताळ": 4936,
      "पळौन": 4937,
      "कुळ": 4938,
      "गेल्ल्या": 4939,
      "मानव": 4940,
      "खाते": 4941,
      "##ियन्स": 4942,
      "गुप्त": 4943,
      "##न्सी": 4944,
      "भाजपाक": 4945,
      "संस्थेच्या": 4946,
      "संवसाराक": 4947,
      "काळीज": 4948,
      "हिंदू": 4949,
      "कितेंय": 4950,
      "भुतान": 4951,
      "किलो": 4952,
      "वेगवेगळे": 4953,
      "पालिक": 4954,
      "निमणे": 4955,
      "वाटेर": 4956,
      "हुम": 4957,
      "भागीदारी": 4958,
      "सारकी": 4959,
      "न्यायालया": 4960,
      "उरतली": 4961,
      "कसलीच": 4962,
      "भाशेन": 4963,
      "पाकि": 4964,
      "आंगार": 4965,
      "दळाचे": 4966,
      "##ल्लमा": 4967,
      "मंडळाचे": 4968,
      "पिसो": 4969,
      "पाकिस्तानान": 4970,
      "फाटल्या": 4971,
      "मेळ्ळ्या": 4972,
      "गावांत": 4973,
      "पार्क": 4974,
      "मॅच": 4975,
      "राखून": 4976,
      "अदिक": 4977,
      "हॉट": 4978,
      "मांडटले": 4979,
      "परिस्थीती": 4980,
      "##िंटन": 4981,
      "तरणाट्यांनी": 4982,
      "सयकायान": 4983,
      "पाचशे": 4984,
      "बेबी": 4985,
      "अंदूं": 4986,
      "घोशीत": 4987,
      "कवळें": 4988,
      "प्रधानभंत्री": 4989,
      "पोटवेंच": 4990,
      "तिसऱ्या": 4991,
      "बॅडम": 4992,
      "आर्गा": 4993,
      "दरेकी": 4994,
      "हावें": 4995,
      "कागाळ": 4996,
      "खंडपिठ": 4997,
      "फेणो": 4998,
      "निमाणो": 4999,
      "निमाण्या": 5000,
      "सामान्य": 5001,
      "स्वतंत्र": 5002,
      "लाठा": 5003,
      "वखद": 5004,
      "तिज्या": 5005,
      "साक्ष": 5006,
      "सत्रांत": 5007,
      "##स्तानी": 5008,
      "अठ्ठ": 5009,
      "##श्यक": 5010,
      "सिंड्रेल": 5011,
      "गुन्यांव": 5012,
      "घोषणा": 5013,
      "पथून": 5014,
      "प्लास्ट": 5015,
      "ज्येश्ठ": 5016,
      "नियोजन": 5017,
      "##ामुखार": 5018,
      "म्हटला": 5019,
      "एकवटीत": 5020,
      "शिगमो": 5021,
      "घरकान्न": 5022,
      "काणकोण": 5023,
      "शुन्य": 5024,
      "उड्डाण": 5025,
      "बॅडमिंटन": 5026,
      "अरे": 5027,
      "अप्र": 5028,
      "आरे": 5029,
      "उंच": 5030,
      "ऑ्नटो": 5031,
      "ओं": 5032,
      "खां": 5033,
      "खेर": 5034,
      "गौर": 5035,
      "घट्ट": 5036,
      "चिक": 5037,
      "चल्ला": 5038,
      "टप्प": 5039,
      "दाब": 5040,
      "नेत": 5041,
      "नजर": 5042,
      "पेन": 5043,
      "पंग": 5044,
      "पंद": 5045,
      "पूल": 5046,
      "पेद": 5047,
      "फिर": 5048,
      "फर्नांडीस": 5049,
      "बिर": 5050,
      "बंध": 5051,
      "बऱ्या": 5052,
      "भ्र": 5053,
      "भिय": 5054,
      "भॊत्री": 5055,
      "मस": 5056,
      "मायक": 5057,
      "र्ज": 5058,
      "लीज": 5059,
      "लष्क": 5060,
      "वड": 5061,
      "वण": 5062,
      "वेल": 5063,
      "वीस": 5064,
      "श्रे": 5065,
      "सयो": 5066,
      "साख": 5067,
      "सूट": 5068,
      "हाच": 5069,
      "हित": 5070,
      "##कळ": 5071,
      "##यल्यान": 5072,
      "##नाच": 5073,
      "##ंचें": 5074,
      "##तार": 5075,
      "##गढ": 5076,
      "##खल": 5077,
      "##खत": 5078,
      "##टून": 5079,
      "##टाली": 5080,
      "##ड्या": 5081,
      "##पै": 5082,
      "##स्य": 5083,
      "##सेव": 5084,
      "##सयत": 5085,
      "##माल": 5086,
      "##माम": 5087,
      "##चा": 5088,
      "##च्मो": 5089,
      "##इत": 5090,
      "##घु": 5091,
      "##दल": 5092,
      "##ृश्ट": 5093,
      "##णू": 5094,
      "##ब्": 5095,
      "##बाज": 5096,
      "##ॊड": 5097,
      "##अल": 5098,
      "##्रोल": 5099,
      "##ायतले": 5100,
      "##ंतल्यान": 5101,
      "##्हो": 5102,
      "##लीत": 5103,
      "##णीस": 5104,
      "##तीस": 5105,
      "दिना": 5106,
      "दितलो": 5107,
      "हांचेर": 5108,
      "##ागून": 5109,
      "##ामा": 5110,
      "##्टी": 5111,
      "##ित्य": 5112,
      "पुस": 5113,
      "पुनर": 5114,
      "निती": 5115,
      "मुज": 5116,
      "ङ्कि": 5117,
      "ङ्कड": 5118,
      "ङ्काय": 5119,
      "ङ्कक्त": 5120,
      "जातल": 5121,
      "जाती": 5122,
      "##ोवपाचो": 5123,
      "आसलें": 5124,
      "वाशीन": 5125,
      "राजद": 5126,
      "राज्या": 5127,
      "पराक": 5128,
      "उपा": 5129,
      "लागला": 5130,
      "रायान": 5131,
      "##ंडा": 5132,
      "म्हणल्यार": 5133,
      "म्हणपाचें": 5134,
      "##रेचो": 5135,
      "दिसांनी": 5136,
      "शिङ्कार": 5137,
      "कालच्या": 5138,
      "आमगेर": 5139,
      "कितले": 5140,
      "मुखेलपण": 5141,
      "आवयन": 5142,
      "बायतीम": 5143,
      "मार्च": 5144,
      "हातात": 5145,
      "पळयलें": 5146,
      "गेल्ले": 5147,
      "गेल्लो": 5148,
      "रावपी": 5149,
      "सिद्ध": 5150,
      "##वादळ": 5151,
      "##्यांतल्यान": 5152,
      "केंद्रा": 5153,
      "मानले": 5154,
      "खात्री": 5155,
      "पक्षांच्या": 5156,
      "##ियंत": 5157,
      "काडले": 5158,
      "वेवहार": 5159,
      "थारल्या": 5160,
      "पोर्": 5161,
      "असोय": 5162,
      "##स्टर": 5163,
      "हाडपाची": 5164,
      "नायडु": 5165,
      "हिप्": 5166,
      "सर्तीचे": 5167,
      "पदवी": 5168,
      "अभियंत": 5169,
      "##डोच": 5170,
      "स्थान": 5171,
      "व्यक्त": 5172,
      "निमण्या": 5173,
      "भाग्या": 5174,
      "सहाय": 5175,
      "सहभाग": 5176,
      "सारको": 5177,
      "न्यायालय": 5178,
      "उरिल्ल्या": 5179,
      "##त्तम": 5180,
      "गजा": 5181,
      "जनेल": 5182,
      "कसल्या": 5183,
      "पुलिसानी": 5184,
      "फुडार": 5185,
      "सगळ्यांक": 5186,
      "तातुत": 5187,
      "नाशिल्ल्यान": 5188,
      "उत्तरप्रदेश": 5189,
      "193": 5190,
      "196": 5191,
      "येरादारीक": 5192,
      "मंडळाच्या": 5193,
      "म्हयने": 5194,
      "धोको": 5195,
      "साथ": 5196,
      "खोश": 5197,
      "स्टार्ट": 5198,
      "गोंयांतल्या": 5199,
      "अरूण": 5200,
      "मनशाक": 5201,
      "लक्ष्म": 5202,
      "जोशी": 5203,
      "मोहीम": 5204,
      "शाळेत": 5205,
      "सांवळ्या": 5206,
      "उजवाडाक": 5207,
      "असल्या": 5208,
      "विचाल्ले": 5209,
      "तळम": 5210,
      "महाराष्ट्रांत": 5211,
      "इतल्यांत": 5212,
      "मोट्या": 5213,
      "उऩया": 5214,
      "शिक्षक": 5215,
      "जिल्ह्यांत": 5216,
      "अंतर्गत": 5217,
      "वावुरता": 5218,
      "चिंत": 5219,
      "संबंधीत": 5220,
      "ट्विटर": 5221,
      "म्शामती": 5222,
      "वाजप": 5223,
      "बाजारांत": 5224,
      "गोयल": 5225,
      "##ड्डी": 5226,
      "अकस्मात": 5227,
      "##ञ्च्": 5228,
      "झाडां": 5229,
      "कापड": 5230,
      "सागं": 5231,
      "छत्तीसगड": 5232,
      "भाषेतलो": 5233,
      "पध्दतीन": 5234,
      "ुखेलंत्री": 5235,
      "201": 5236,
      "नाटकां": 5237,
      "प्रधानंत्र्यांनी": 5238,
      "खबरी": 5239,
      "सोबीत": 5240,
      "जिणेंत": 5241,
      "रमेश": 5242,
      "राजकारण": 5243,
      "कोयोना": 5244,
      "ऑनलायन": 5245,
      "द्विपक्षीय": 5246,
      "फ्रांसि": 5247,
      "राजांगणांत": 5248,
      "रेल्वेन": 5249,
      "वकील": 5250,
      "विवेकानंद": 5251,
      "कवासो": 5252,
      "तैनात": 5253,
      "उरमतारे": 5254,
      "काश्मिर": 5255,
      "डॉनाल्ड": 5256,
      "जोडपालवान": 5257,
      "ऑगस्ट": 5258,
      "पाकिस्तानी": 5259,
      "पंदरा": 5260,
      "हिप्पी": 5261,
      "16": 5262,
      "आफ": 5263,
      "आकार": 5264,
      "इकरा": 5265,
      "उमा": 5266,
      "उरो": 5267,
      "काज": 5268,
      "काद": 5269,
      "खरो": 5270,
      "घों": 5271,
      "चोर": 5272,
      "टॅ": 5273,
      "थळाव": 5274,
      "धन": 5275,
      "नोव्ह": 5276,
      "पसर": 5277,
      "फळ": 5278,
      "बौ": 5279,
      "बिन": 5280,
      "भांत्री": 5281,
      "यश": 5282,
      "रित": 5283,
      "रोड": 5284,
      "लढ": 5285,
      "ल्मा": 5286,
      "सास": 5287,
      "हांत": 5288,
      "##काक": 5289,
      "##ाँ": 5290,
      "##वट": 5291,
      "##लर": 5292,
      "##नत": 5293,
      "##निक": 5294,
      "##ोम": 5295,
      "##भु": 5296,
      "##भया": 5297,
      "##गु": 5298,
      "##ख्यान": 5299,
      "##ीया": 5300,
      "##ींग": 5301,
      "##ुम": 5302,
      "##पु": 5303,
      "##मत्त": 5304,
      "##दयाळ": 5305,
      "##ण्ड": 5306,
      "##बार": 5307,
      "##झिल": 5308,
      "##ौंक": 5309,
      "##्यात्तर": 5310,
      "##ांडो": 5311,
      "##ारो": 5312,
      "##ल्लां": 5313,
      "##तीचे": 5314,
      "प्रक्ष": 5315,
      "प्रदर्श": 5316,
      "##ांतल्यो": 5317,
      "##लोक": 5318,
      "म्हाद": 5319,
      "करु": 5320,
      "##ेवारी": 5321,
      "##ेन्ना": 5322,
      "कोर": 5323,
      "निस": 5324,
      "ङ्कु": 5325,
      "एकूण": 5326,
      "एकदम": 5327,
      "तेको": 5328,
      "##ोवंक": 5329,
      "आसू": 5330,
      "##ंदा": 5331,
      "वाहन": 5332,
      "राज्यांक": 5333,
      "राजिना": 5334,
      "आपल्यो": 5335,
      "उपास": 5336,
      "##ष्ट्रीम": 5337,
      "##रोध": 5338,
      "सुरेश": 5339,
      "म्हणचे": 5340,
      "##ाप्र": 5341,
      "##ापूर": 5342,
      "##ेंतल्यान": 5343,
      "दिसाच्या": 5344,
      "तोय": 5345,
      "देशांनी": 5346,
      "देशामजगती": 5347,
      "##ऩाद": 5348,
      "आमची": 5349,
      "##ूयेर": 5350,
      "खेळगड": 5351,
      "पुरुष": 5352,
      "येतालो": 5353,
      "हातो": 5354,
      "ङ्कुडले": 5355,
      "रावले": 5356,
      "मानवी": 5357,
      "कार्यावळीचें": 5358,
      "पक्षानी": 5359,
      "राज्यसभा": 5360,
      "वच्": 5361,
      "देवान": 5362,
      "##णुकेंत": 5363,
      "सुवातीं": 5364,
      "वयली": 5365,
      "करतालो": 5366,
      "नेमा": 5367,
      "वेंचून": 5368,
      "जीएस": 5369,
      "आदल्या": 5370,
      "स्थानक": 5371,
      "पंगडाचे": 5372,
      "##संचार": 5373,
      "लावपी": 5374,
      "न्यायालयांत": 5375,
      "येवजणेक": 5376,
      "स्वागत": 5377,
      "गांवांत": 5378,
      "मळा": 5379,
      "सगळ्यात": 5380,
      "बंदर": 5381,
      "क्रांती": 5382,
      "देखुन": 5383,
      "संकल्प": 5384,
      "आतंकवादा": 5385,
      "जायत्या": 5386,
      "शकतात": 5387,
      "##ोनेश": 5388,
      "विद्याथ्र्यां": 5389,
      "यादी": 5390,
      "अपे": 5391,
      "विक्र": 5392,
      "शणैन": 5393,
      "शणैल्या": 5394,
      "हॉस्पी": 5395,
      "संचालन": 5396,
      "राज्यपालांनी": 5397,
      "पुस्तकांत": 5398,
      "कोरोन": 5399,
      "थारायलां": 5400,
      "जिल्ल्यात": 5401,
      "भाऊ": 5402,
      "पर्यट": 5403,
      "तुजो": 5404,
      "रातच्या": 5405,
      "क्षेत्रात": 5406,
      "काश्मीरांत": 5407,
      "हेवूय": 5408,
      "व्यापार": 5409,
      "आपणाक": 5410,
      "ङ्काटभुयेर": 5411,
      "ताकतिक": 5412,
      "कर्नाटकांत": 5413,
      "व्हिडियो": 5414,
      "......": 5415,
      "तितले": 5416,
      "मडगांवां": 5417,
      "मंजूर": 5418,
      "जिवीत": 5419,
      "##गिरी": 5420,
      "तिसरी": 5421,
      "चाचण": 5422,
      "तांतूंत": 5423,
      "माल्लो": 5424,
      "कमांड": 5425,
      "सुचोवण्यो": 5426,
      "खरेदी": 5427,
      "शुभार": 5428,
      "परिषदेत": 5429,
      "नमुन": 5430,
      "इनामां": 5431,
      "प्रशासनान": 5432,
      "महामारी": 5433,
      "श्रव": 5434,
      "सकल": 5435,
      "हालींच": 5436,
      "1986": 5437,
      "दुबाव": 5438,
      "कौल": 5439,
      "सिंड्रेला": 5440,
      "दहशतवाद": 5441,
      "धुकल": 5442,
      "खेपे": 5443,
      "प्रेरणा": 5444,
      "चेन्नय": 5445,
      "परवानगी": 5446,
      "ब्रिटन": 5447,
      "उंचेल्या": 5448,
      "कितलेशेच": 5449,
      "नुस्तेमार": 5450,
      "केंद्रशासीत": 5451,
      "अधिसुचोवणी": 5452,
      "मोडींत": 5453,
      "वर्णन": 5454,
      "दुरुस्ती": 5455,
      "नाल्ल": 5456,
      "पेद्र": 5457,
      "अग": 5458,
      "अेर": 5459,
      "अक्ष": 5460,
      "आर्": 5461,
      "आदर": 5462,
      "इन्": 5463,
      "एप": 5464,
      "एच": 5465,
      "ओम": 5466,
      "काणी": 5467,
      "कुर": 5468,
      "कांट": 5469,
      "क्रम": 5470,
      "खड": 5471,
      "गूण": 5472,
      "गाडी": 5473,
      "चर": 5474,
      "जिन": 5475,
      "जमीन": 5476,
      "झग": 5477,
      "डे": 5478,
      "तदार": 5479,
      "थाकाय": 5480,
      "नद": 5481,
      "नाल": 5482,
      "न्य": 5483,
      "नॅशनल": 5484,
      "पल": 5485,
      "पॅ": 5486,
      "पिव": 5487,
      "फातर": 5488,
      "बीन": 5489,
      "भूंय": 5490,
      "मता": 5491,
      "मॅन": 5492,
      "यू": 5493,
      "येक": 5494,
      "येय": 5495,
      "रें": 5496,
      "ली": 5497,
      "वसा": 5498,
      "वुल": 5499,
      "वतना": 5500,
      "सन": 5501,
      "सण": 5502,
      "सेन": 5503,
      "##कला": 5504,
      "##करण": 5505,
      "##ाई": 5506,
      "##वली": 5507,
      "##वणूक": 5508,
      "##ळम": 5509,
      "##फ्": 5510,
      "##शीक": 5511,
      "##्ळ": 5512,
      "##्ी": 5513,
      "##्ळो": 5514,
      "##हड": 5515,
      "##ोत्तम": 5516,
      "##तेक": 5517,
      "##िा": 5518,
      "##िनी": 5519,
      "##िरी": 5520,
      "##ेलें": 5521,
      "##ेप्रमाण": 5522,
      "##धीत": 5523,
      "##ड्ड": 5524,
      "##पिट": 5525,
      "##सल": 5526,
      "##सप": 5527,
      "##सेना": 5528,
      "##चित्र": 5529,
      "##घया": 5530,
      "##दिव": 5531,
      "##ूप": 5532,
      "##णान": 5533,
      "##बीक": 5534,
      "##ॊग": 5535,
      "##र्ला": 5536,
      "##तीचेर": 5537,
      "प्रयोग": 5538,
      "म्हास": 5539,
      "दिशेन": 5540,
      "विंगड": 5541,
      "केल्ल्यान": 5542,
      "##ेरात": 5543,
      "##चीं": 5544,
      "संख्य": 5545,
      "सुश": 5546,
      "सुनीत": 5547,
      "##ामण": 5548,
      "##ांगड": 5549,
      "कोनश": 5550,
      "निरो": 5551,
      "एकाच": 5552,
      "सांगू": 5553,
      "सांगली": 5554,
      "दोना": 5555,
      "##्नट": 5556,
      "##ेचणूक": 5557,
      "##रानी": 5558,
      "सुरवेक": 5559,
      "सरकाराची": 5560,
      "मेळूंक": 5561,
      "सोमार": 5562,
      "दिसलो": 5563,
      "येवपाक": 5564,
      "दिवाळ": 5565,
      "दिवपाखातीर": 5566,
      "शिमे": 5567,
      "##विधी": 5568,
      "##ाबर": 5569,
      "##णेच्या": 5570,
      "##णेचो": 5571,
      "तिजी": 5572,
      "तिणें": 5573,
      "खेळात": 5574,
      "पडटली": 5575,
      "कथेचो": 5576,
      "##वेल्यान": 5577,
      "हातुंत": 5578,
      "न्हं": 5579,
      "##क्षणा": 5580,
      "##ोरेट": 5581,
      "खात्म": 5582,
      "खात्मान": 5583,
      "पक्षांचे": 5584,
      "घरां": 5585,
      "गुला": 5586,
      "बसकेन": 5587,
      "एकामे": 5588,
      "संस्थांनी": 5589,
      "नायट": 5590,
      "काळख": 5591,
      "##ांद्र": 5592,
      "रोका": 5593,
      "पालिका": 5594,
      "आदिव": 5595,
      "खबरां": 5596,
      "पंगडाक": 5597,
      "जमनी": 5598,
      "##िटर": 5599,
      "परिशदेचे": 5600,
      "उमेदीन": 5601,
      "भाशीक": 5602,
      "लायली": 5603,
      "प्रसारणा": 5604,
      "इंडियन्स": 5605,
      "इंडोनेश": 5606,
      "##वणुकी": 5607,
      "संकश्ट": 5608,
      "संकल्पना": 5609,
      "आरक्षण": 5610,
      "साांग": 5611,
      "संबंदान": 5612,
      "आदारीत": 5613,
      "तोंडार": 5614,
      "पातळी": 5615,
      "अरब": 5616,
      "पत्रकारांक": 5617,
      "नासलो": 5618,
      "मोहि": 5619,
      "हारयले": 5620,
      "माध्यमांतल्यान": 5621,
      "वस्तू": 5622,
      "सतरा": 5623,
      "पुलिसांनी": 5624,
      "दारांत": 5625,
      "नारद": 5626,
      "उऩाम": 5627,
      "प्रधानभॊत्री": 5628,
      "घुस्म": 5629,
      "डीडी": 5630,
      "धांवड": 5631,
      "संघटनेन": 5632,
      "लिप": 5633,
      "केळयां": 5634,
      "खंडपीठ": 5635,
      "चीट": 5636,
      "सर्वपक्षीय": 5637,
      "इनाभ": 5638,
      "पद्दतीन": 5639,
      "सांजवेळ": 5640,
      "राज्यातल्या": 5641,
      "बावटो": 5642,
      "सप्ट": 5643,
      "##ांतरीत": 5644,
      "चक्री": 5645,
      "शास्त्रज्ञ": 5646,
      "दिगंबर": 5647,
      "इंटर": 5648,
      "शिबीर": 5649,
      "विधीमंडळ": 5650,
      "ङ्कांटभुयेर": 5651,
      "सांखळी": 5652,
      "तरनाट": 5653,
      "हरयाणा": 5654,
      "येजमानकी": 5655,
      "शौच": 5656,
      "पुज्य": 5657,
      "ऩरयळद": 5658,
      "आयुर्वेद": 5659,
      "ङ्कुटबॉल": 5660,
      "लेगलेगळ्मा": 5661,
      "ख्यास्त": 5662,
      "गुवाहाटी": 5663,
      "अविनाश": 5664,
      "पंगडा": 5665,
      "सागंले": 5666,
      "फ्रांसिस्क": 5667,
      "नोव्हेंबर": 5668,
      "शुभारंभ": 5669,
      "अय": 5670,
      "आब": 5671,
      "इंज": 5672,
      "ए्नस": 5673,
      "ऑनर": 5674,
      "कक": 5675,
      "कीर": 5676,
      "काट": 5677,
      "खार": 5678,
      "खंर": 5679,
      "गिन्यान": 5680,
      "गंगा": 5681,
      "घाली": 5682,
      "घटन": 5683,
      "जोर": 5684,
      "जुल": 5685,
      "जॉर्": 5686,
      "जेन्ना": 5687,
      "ढवळी": 5688,
      "तस": 5689,
      "थायल": 5690,
      "दुर": 5691,
      "धंद": 5692,
      "पांय": 5693,
      "पॅन": 5694,
      "फांत": 5695,
      "फूड": 5696,
      "बन": 5697,
      "भगत": 5698,
      "भेद": 5699,
      "रिज": 5700,
      "लै": 5701,
      "लेल": 5702,
      "ळक्": 5703,
      "वश": 5704,
      "सें": 5705,
      "ान": 5706,
      "##कीत": 5707,
      "##शि": 5708,
      "##श्यो": 5709,
      "##लक्ष": 5710,
      "##लास": 5711,
      "##्धी": 5712,
      "##हायती": 5713,
      "##येव": 5714,
      "##नन": 5715,
      "##नाग": 5716,
      "##ोळी": 5717,
      "##भू": 5718,
      "##भित": 5719,
      "##भेयेन": 5720,
      "##िणी": 5721,
      "##जाच्या": 5722,
      "##टाले": 5723,
      "##धकार": 5724,
      "##धीक": 5725,
      "##मंत": 5726,
      "##चंद्र": 5727,
      "##च्ये": 5728,
      "##घाट": 5729,
      "##दन": 5730,
      "##ॅस": 5731,
      "##बाव": 5732,
      "##बिया": 5733,
      "##षमा": 5734,
      "##ur": 5735,
      "##याव": 5736,
      "##यादी": 5737,
      "##ेंब": 5738,
      "##ाच्मो": 5739,
      "##लेदार": 5740,
      "##र्जी": 5741,
      "##ाक्ष": 5742,
      "प्रवी": 5743,
      "प्रोत्": 5744,
      "दिशा": 5745,
      "कऱ": 5746,
      "विर": 5747,
      "विरा": 5748,
      "संवेद": 5749,
      "सुला": 5750,
      "सुषमा": 5751,
      "कोल": 5752,
      "##ताप": 5753,
      "ङ्को": 5754,
      "तेज": 5755,
      "राजप": 5756,
      "आपाप": 5757,
      "परती": 5758,
      "परंप": 5759,
      "उपाध": 5760,
      "दोळ्यांत": 5761,
      "लागल्यात": 5762,
      "##कीच": 5763,
      "जावपाचे": 5764,
      "जावडेकार": 5765,
      "##ापुर": 5766,
      "बसयलो": 5767,
      "##्यावरवी": 5768,
      "मेळूक": 5769,
      "सोरो": 5770,
      "घेतल्यात": 5771,
      "दुये": 5772,
      "दिसली": 5773,
      "दिसाचे": 5774,
      "दिसतालें": 5775,
      "तोड": 5776,
      "तोण": 5777,
      "दिवचे": 5778,
      "देशाचो": 5779,
      "शिं": 5780,
      "##ऩाल": 5781,
      "पावता": 5782,
      "हाणीं": 5783,
      "समर्थ": 5784,
      "##टीन": 5785,
      "व्हाय": 5786,
      "पयशे": 5787,
      "कितलो": 5788,
      "पडला": 5789,
      "पडटात": 5790,
      "##ोडेर": 5791,
      "कथांनी": 5792,
      "कथेच्या": 5793,
      "ऩुय": 5794,
      "येतां": 5795,
      "हाताक": 5796,
      "##सभर": 5797,
      "कुंभ": 5798,
      "म्हजेकडेन": 5799,
      "केंद्रान": 5800,
      "केंद्राच्या": 5801,
      "मानांक": 5802,
      "ताजेकडेन": 5803,
      "##ावन्न": 5804,
      "खात्या": 5805,
      "भेटयल्या": 5806,
      "जालीं": 5807,
      "गुदिन": 5808,
      "काडली": 5809,
      "काडपाक": 5810,
      "काडूंक": 5811,
      "राज्यवर्धन": 5812,
      "चडशा": 5813,
      "चलता": 5814,
      "वेचून": 5815,
      "सुवातो": 5816,
      "हिका": 5817,
      "सेवे": 5818,
      "किर्तन": 5819,
      "रोमी": 5820,
      "साहित्याक": 5821,
      "हुप": 5822,
      "पुरायपणान": 5823,
      "सार्व": 5824,
      "सारके": 5825,
      "अनंत": 5826,
      "बिर्ला": 5827,
      "##ाऱ्यांक": 5828,
      "वर्सात": 5829,
      "कसलो": 5830,
      "##याकडेन": 5831,
      "##कयल": 5832,
      "दळान": 5833,
      "##्यातल्या": 5834,
      "बोटी": 5835,
      "आयकर": 5836,
      "कॉम": 5837,
      "घोट": 5838,
      "पैस": 5839,
      "पिडीत": 5840,
      "पयलीच": 5841,
      "##ावेल्या": 5842,
      "##गांवकार": 5843,
      "सोदून": 5844,
      "पाकिस्तानाक": 5845,
      "बाबा": 5846,
      "प्रस्नाचेर": 5847,
      "मेळ्ळा": 5848,
      "चौक": 5849,
      "खूबशा": 5850,
      "अधिकाऱ्यांची": 5851,
      "येवजणेच्या": 5852,
      "येवजणेची": 5853,
      "हॉकी": 5854,
      "मांडवी": 5855,
      "विभागाचे": 5856,
      "साधना": 5857,
      "वांगड्यांक": 5858,
      "मनीसबळ": 5859,
      "मोठे": 5860,
      "वेंचणुके": 5861,
      "उदरगतीच्या": 5862,
      "मेह": 5863,
      "म्हण्टकच": 5864,
      "आणि": 5865,
      "बापाय": 5866,
      "काश्मीरातल्या": 5867,
      "हेवेळार": 5868,
      "व्याख्यान": 5869,
      "कार्यालय": 5870,
      "कार्यालयांत": 5871,
      "प्रकरणांत": 5872,
      "उकतायली": 5873,
      "उकतायला": 5874,
      "कविता": 5875,
      "##नीकरण": 5876,
      "दुखां": 5877,
      "भवनात": 5878,
      "कयऩाक": 5879,
      "तिसरो": 5880,
      "पाळटात": 5881,
      "वितरायतले": 5882,
      "मध्यप्रदेश": 5883,
      "मैदानार": 5884,
      "ग्रामपंच": 5885,
      "बाळग": 5886,
      "तकले": 5887,
      "बुनयादी": 5888,
      "जांवक": 5889,
      "मेकळे": 5890,
      "##ङ्का": 5891,
      "बाकी": 5892,
      "काळजांत": 5893,
      "मिरामार": 5894,
      "कर्मचाऱ्यांक": 5895,
      "न्युझिल": 5896,
      "पंडीत": 5897,
      "बहु": 5898,
      "स्मारक": 5899,
      "पूराय": 5900,
      "सिंधू": 5901,
      "##भायर": 5902,
      "पूजा": 5903,
      "काळोख": 5904,
      "खंयच्याय": 5905,
      "बोरकार": 5906,
      "संकेतस्थ": 5907,
      "कदेल": 5908,
      "##ांजली": 5909,
      "म्हारग": 5910,
      "सोशल": 5911,
      "उद्देश": 5912,
      "प्रणाली": 5913,
      "वळेरेंत": 5914,
      "ननभतान": 5915,
      "इस्पित": 5916,
      "नोटी": 5917,
      "सकारात्मक": 5918,
      "म्हयनाळ्या": 5919,
      "ऑ्नटोबर": 5920,
      "पराक्रम": 5921,
      "पुरुषोत्तम": 5922,
      "संख्येन": 5923,
      "चक्रीवादळ": 5924,
      "ढवळीकार": 5925,
      "प्रोत्सा": 5926,
      "विराट": 5927,
      "अऴ": 5928,
      "इस्त्र": 5929,
      "उणाव": 5930,
      "कश्ट": 5931,
      "कल्प": 5932,
      "खोल": 5933,
      "गुर": 5934,
      "गोग": 5935,
      "जित": 5936,
      "जिक": 5937,
      "जबाब": 5938,
      "टे": 5939,
      "ट्न": 5940,
      "ताग": 5941,
      "थळ": 5942,
      "थाम": 5943,
      "थाप": 5944,
      "दखल": 5945,
      "धरण": 5946,
      "नाद": 5947,
      "नानक": 5948,
      "पव": 5949,
      "पॉ": 5950,
      "पाप": 5951,
      "फार": 5952,
      "फोड": 5953,
      "फाॊ": 5954,
      "ब्ल": 5955,
      "भंग": 5956,
      "भंत्र": 5957,
      "भूर": 5958,
      "भजन": 5959,
      "मम": 5960,
      "मण": 5961,
      "माण": 5962,
      "युन": 5963,
      "यमर": 5964,
      "रह": 5965,
      "रीण": 5966,
      "लंड": 5967,
      "वत": 5968,
      "वतले": 5969,
      "शर": 5970,
      "शॉ": 5971,
      "शाल": 5972,
      "शक्ती": 5973,
      "सळ": 5974,
      "साज": 5975,
      "साप": 5976,
      "हाांणी": 5977,
      "##ाांत": 5978,
      "##फा": 5979,
      "##श्ल": 5980,
      "##लिस": 5981,
      "##्ख": 5982,
      "##्सा": 5983,
      "##्गी": 5984,
      "##यद": 5985,
      "##नग": 5986,
      "##ोळ": 5987,
      "##ोश": 5988,
      "##भाज": 5989,
      "##िड": 5990,
      "##जि": 5991,
      "##जम": 5992,
      "##जित": 5993,
      "##ेला": 5994,
      "##ेमा": 5995,
      "##ङ्र": 5996,
      "##ुी": 5997,
      "##ुवारी": 5998,
      "##पूरांत": 5999,
      "##मिक": 6000,
      "##मस्ट": 6001,
      "##द्र": 6002,
      "##थे": 6003,
      "##यानी": 6004,
      "##ात्": 6005,
      "##नीय": 6006,
      "##ल्क": 6007,
      "##लेट": 6008,
      "##र्त": 6009,
      "##्यप": 6010,
      "विका": 6011,
      "विडी": 6012,
      "विस्क": 6013,
      "विविध": 6014,
      "##ेविशी": 6015,
      "##चीन": 6016,
      "कोसळ": 6017,
      "##माॊ": 6018,
      "##मानी": 6019,
      "निवाड": 6020,
      "##त्ल": 6021,
      "ङ्के": 6022,
      "एकदां": 6023,
      "तेच्या": 6024,
      "तेका": 6025,
      "तेखातीर": 6026,
      "राजन": 6027,
      "राजेश": 6028,
      "राज्यानी": 6029,
      "राजीना": 6030,
      "उप्रा": 6031,
      "लागिल्ली": 6032,
      "##ाणिस्तान": 6033,
      "भारतांतल्या": 6034,
      "म्हणसर": 6035,
      "##यतां": 6036,
      "सोळा": 6037,
      "घेतिल्ले": 6038,
      "दुम": 6039,
      "देशवास": 6040,
      "शिवर": 6041,
      "शिश्ट": 6042,
      "##णेची": 6043,
      "उलयलो": 6044,
      "कितल्यो": 6045,
      "पडिल्ल्या": 6046,
      "आवात": 6047,
      "न्हू": 6048,
      "आतामेरेन": 6049,
      "कायतान": 6050,
      "केंद्राचे": 6051,
      "भेटयतले": 6052,
      "घालप": 6053,
      "आडाव": 6054,
      "पक्षाक": 6055,
      "अशीय": 6056,
      "घरच्या": 6057,
      "काांम": 6058,
      "##न्ड": 6059,
      "थारता": 6060,
      "अर्थमंत्र": 6061,
      "देवा": 6062,
      "बसकेची": 6063,
      "पोती": 6064,
      "गोठ": 6065,
      "##ेखाला": 6066,
      "दवरतले": 6067,
      "सभेंत": 6068,
      "##परां": 6069,
      "नवक": 6070,
      "संस्थापक": 6071,
      "##ेयी": 6072,
      "भुंय": 6073,
      "रोकांक": 6074,
      "जोडले": 6075,
      "व्यंकय्या": 6076,
      "सादलो": 6077,
      "##संवाद": 6078,
      "सारकें": 6079,
      "विचारता": 6080,
      "जाणव": 6081,
      "व्हडल्या": 6082,
      "न्यायालयाचे": 6083,
      "प्रभाग": 6084,
      "वर्सांत": 6085,
      "तरीय": 6086,
      "बायलांची": 6087,
      "##ष्णा": 6088,
      "उबे": 6089,
      "##र्गा": 6090,
      "सोडलो": 6091,
      "आयकूक": 6092,
      "शारात": 6093,
      "म्हयन्याच्या": 6094,
      "शकू": 6095,
      "एम्स": 6096,
      "जयंत": 6097,
      "मरणाचेर": 6098,
      "मेळ्ळो": 6099,
      "विक्री": 6100,
      "संदेशात": 6101,
      "संदेशान": 6102,
      "पंचवीस": 6103,
      "शीम": 6104,
      "रस्ते": 6105,
      "तुमचे": 6106,
      "विश्वजीत": 6107,
      "ङ्कुडाऱ्यां": 6108,
      "भुखाय": 6109,
      "मोठी": 6110,
      "अंतरिक्ष": 6111,
      "डिसो": 6112,
      "##िदारी": 6113,
      "सुरक्षे": 6114,
      "##ूर्व": 6115,
      "लोकसभेच्या": 6116,
      "पयल्याच": 6117,
      "बाराबर": 6118,
      "मिडी": 6119,
      "तुळस": 6120,
      "इतल्या": 6121,
      "इतलें": 6122,
      "दोळयां": 6123,
      "हेविशी": 6124,
      "उठून": 6125,
      "कृती": 6126,
      "निश्च": 6127,
      "अभ्यासक्रम": 6128,
      "अळेंम": 6129,
      "मंजुर": 6130,
      "अॅप": 6131,
      "तांतूत": 6132,
      "धावड्यो": 6133,
      "वाडोवपा": 6134,
      "कबलात": 6135,
      "बिहारांत": 6136,
      "आयतार": 6137,
      "बशिल्लो": 6138,
      "सक्रीय": 6139,
      "इमारत": 6140,
      "वखदां": 6141,
      "##ब्रुवारी": 6142,
      "प्राथ": 6143,
      "देशभरात": 6144,
      "1985": 6145,
      "म्हापशें": 6146,
      "सुवातीनी": 6147,
      "##लमय": 6148,
      "श्रीलंका": 6149,
      "आशियाई": 6150,
      "तेरेजमाना": 6151,
      "नागरिकांक": 6152,
      "महासंघ": 6153,
      "तामीळनाड": 6154,
      "तेवटेन": 6155,
      "ताबो": 6156,
      "इंग्लंड": 6157,
      "##न्याया": 6158,
      "काब्रार": 6159,
      "चलोव": 6160,
      "मिश्रा": 6161,
      "प्रदुषण": 6162,
      "जापसालदारकी": 6163,
      "वोगी": 6164,
      "घडणुको": 6165,
      "स्थापणूक": 6166,
      "पोरसांत": 6167,
      "याचिकेचेर": 6168,
      "गिरेस्त": 6169,
      "सीतारामन": 6170,
      "सेमीङ्कायनली": 6171,
      "खेळगडे": 6172,
      "मंगळारा": 6173,
      "आचारसं": 6174,
      "रोखडेच": 6175,
      "सामाजीक": 6176,
      "व्यवसाय": 6177,
      "प्लास्टीक": 6178,
      "##पैकी": 6179,
      "पोर्टल": 6180,
      "सहाय्य": 6181,
      "प्रक्षेपण": 6182,
      "जीएसटी": 6183,
      "हॉस्पीटल": 6184,
      "कमांडर": 6185,
      "आदिवासी": 6186,
      "इंडोनेशिया": 6187,
      "यमराज": 6188,
      "विकासा": 6189,
      "अंक": 6190,
      "अस्थ": 6191,
      "आझ": 6192,
      "इस": 6193,
      "इंध": 6194,
      "इश्क": 6195,
      "उस": 6196,
      "उल्ली": 6197,
      "एर": 6198,
      "कण": 6199,
      "खून": 6200,
      "खरी": 6201,
      "गौ": 6202,
      "घार": 6203,
      "घात": 6204,
      "चॅ": 6205,
      "जार": 6206,
      "जगती": 6207,
      "तड": 6208,
      "तिक": 6209,
      "तेंच": 6210,
      "दाट": 6211,
      "दीन": 6212,
      "नां": 6213,
      "न्म": 6214,
      "नवर": 6215,
      "पिश": 6216,
      "फव": 6217,
      "फये": 6218,
      "बै": 6219,
      "बें": 6220,
      "बोल": 6221,
      "भन": 6222,
      "भांड": 6223,
      "मू": 6224,
      "मंच": 6225,
      "येड": 6226,
      "यावेळार": 6227,
      "रग": 6228,
      "लेचणूक": 6229,
      "वतात": 6230,
      "शब": 6231,
      "शासीत": 6232,
      "सनर": 6233,
      "हल्ले": 6234,
      "##रां": 6235,
      "##रेळ": 6236,
      "##क्या": 6237,
      "##केन": 6238,
      "##कूच": 6239,
      "##कायी": 6240,
      "##वये": 6241,
      "##फी": 6242,
      "##फाय": 6243,
      "##फाट": 6244,
      "##शार": 6245,
      "##लान": 6246,
      "##लांत": 6247,
      "##लाम": 6248,
      "##ल्रे": 6249,
      "##्ली": 6250,
      "##्िन": 6251,
      "##्पण": 6252,
      "##यलीं": 6253,
      "##नो": 6254,
      "##ंणी": 6255,
      "##तल्या": 6256,
      "##ताम": 6257,
      "##तरे": 6258,
      "##गल": 6259,
      "##गम": 6260,
      "##गांत": 6261,
      "##गिन": 6262,
      "##िल्या": 6263,
      "##िशीं": 6264,
      "##जास": 6265,
      "##टान": 6266,
      "##डर्स": 6267,
      "##परी": 6268,
      "##सक": 6269,
      "##संक": 6270,
      "##सेन": 6271,
      "##सष्ट": 6272,
      "##म्स": 6273,
      "##चट": 6274,
      "##दीत": 6275,
      "##ॅल": 6276,
      "##ैत": 6277,
      "##ैली": 6278,
      "##ठान": 6279,
      "##आप": 6280,
      "##आयन": 6281,
      "##ऱ्याची": 6282,
      "##ारमान": 6283,
      "##ानु": 6284,
      "##ल्याच्या": 6285,
      "##ल्ल्म": 6286,
      "##ावान": 6287,
      "प्रात": 6288,
      "##स्व": 6289,
      "करंड": 6290,
      "करुंक": 6291,
      "विव": 6292,
      "विड": 6293,
      "##कारान": 6294,
      "##काभ": 6295,
      "##साम": 6296,
      "आयचे": 6297,
      "आयचो": 6298,
      "##ेता": 6299,
      "##ेतल्यान": 6300,
      "कोळ": 6301,
      "##लानी": 6302,
      "##ीतर": 6303,
      "पुन": 6304,
      "ङ्कात": 6305,
      "ङ्कलंदाजी": 6306,
      "एकम": 6307,
      "तेणे": 6308,
      "जातालो": 6309,
      "सांगात": 6310,
      "##ेगीन": 6311,
      "##ोवची": 6312,
      "##ोवपाखातीर": 6313,
      "आसूंक": 6314,
      "राज्याच्या": 6315,
      "उपमु": 6316,
      "सरन्याया": 6317,
      "##्योग": 6318,
      "##शिल्लें": 6319,
      "लोकार": 6320,
      "##ांवक": 6321,
      "खातीरची": 6322,
      "मुखेऱ": 6323,
      "##राां": 6324,
      "म्हणूक": 6325,
      "म्हणटा": 6326,
      "सरकारच्या": 6327,
      "सरकाराचो": 6328,
      "##पीएङ्क": 6329,
      "##रेख": 6330,
      "##ुरप्पा": 6331,
      "##दार्थ": 6332,
      "होच": 6333,
      "घेतना": 6334,
      "घेतलें": 6335,
      "दिसतात": 6336,
      "येवचे": 6337,
      "येवपाची": 6338,
      "दिव्या": 6339,
      "दिवचें": 6340,
      "देशान": 6341,
      "##ऩाचो": 6342,
      "##विस": 6343,
      "पावण": 6344,
      "तशे": 6345,
      "तुस्त": 6346,
      "मनांतल्या": 6347,
      "तिजे": 6348,
      "घेवचे": 6349,
      "##त्रा": 6350,
      "##ङ्की": 6351,
      "महो": 6352,
      "कामगिरी": 6353,
      "##ाश्ट": 6354,
      "पडून": 6355,
      "पडटलो": 6356,
      "##ोडकार": 6357,
      "परिसंवाद": 6358,
      "बायोप": 6359,
      "##ऱान": 6360,
      "येत्न": 6361,
      "गोंयबाब": 6362,
      "पळयता": 6363,
      "न्हीद": 6364,
      "ङ्कुडे": 6365,
      "कुंक": 6366,
      "गेल्या": 6367,
      "गेला": 6368,
      "रावंक": 6369,
      "सिगार": 6370,
      "मानतात": 6371,
      "खातें": 6372,
      "पक्षांनी": 6373,
      "##शेखर": 6374,
      "##ियर": 6375,
      "गुळी": 6376,
      "##कोट": 6377,
      "काडी": 6378,
      "वेवसा": 6379,
      "##न्व": 6380,
      "थारलां": 6381,
      "वचप": 6382,
      "भरती": 6383,
      "अर्थसंक": 6384,
      "पोस": 6385,
      "गोल": 6386,
      "प्रधानमंत्र्यांच्या": 6387,
      "##ावणेक": 6388,
      "##वास्तव": 6389,
      "नवें": 6390,
      "संवसारभर": 6391,
      "काळे": 6392,
      "करतां": 6393,
      "करतकच": 6394,
      "##ंधरा": 6395,
      "सर्तीच्या": 6396,
      "नेमान": 6397,
      "कोणूच": 6398,
      "मंत्रालयाच्या": 6399,
      "पालव": 6400,
      "आदित्य": 6401,
      "प्रमाणपत्र": 6402,
      "चालना": 6403,
      "निमणो": 6404,
      "वाटेन": 6405,
      "ददस": 6406,
      "##सींग": 6407,
      "भागिदारी": 6408,
      "सहज": 6409,
      "उलोवन": 6410,
      "सारख": 6411,
      "सार्नया": 6412,
      "पांवडो": 6413,
      "लावप": 6414,
      "जाणां": 6415,
      "जाणांक": 6416,
      "भुरग्या": 6417,
      "उरम": 6418,
      "वर्साच्या": 6419,
      "स्वय": 6420,
      "बायलांचो": 6421,
      "आयोगाचे": 6422,
      "##ट्टा": 6423,
      "भाशेचो": 6424,
      "समाजवादी": 6425,
      "पांवड्यावेल्या": 6426,
      "प्रसारित": 6427,
      "बंदख": 6428,
      "दळाच्या": 6429,
      "क्रि": 6430,
      "बोल्स": 6431,
      "##तकीर": 6432,
      "सदळ": 6433,
      "आतंकवाद्यांक": 6434,
      "म्हयन्यात": 6435,
      "शेतकारांच्या": 6436,
      "पर्व": 6437,
      "ननरेळ": 6438,
      "##ावेले": 6439,
      "प्रतिक": 6440,
      "अपक्ष": 6441,
      "अपुर्": 6442,
      "मेळ्ळी": 6443,
      "पारदर्शक": 6444,
      "एनडीए": 6445,
      "कडक": 6446,
      "एकठाय": 6447,
      "अधिकाऱ्यांनी": 6448,
      "झुंज": 6449,
      "जोडी": 6450,
      "नासले": 6451,
      "##सायटी": 6452,
      "मतदारसंघात": 6453,
      "नात्यान": 6454,
      "##वस्था": 6455,
      "##ाांं": 6456,
      "##न्सन": 6457,
      "वासू": 6458,
      "समितीची": 6459,
      "इतल्यान": 6460,
      "खबराकारां": 6461,
      "खबराकारांकडेन": 6462,
      "शिकप": 6463,
      "अमेरिकेच्या": 6464,
      "उठलो": 6465,
      "केन्नाय": 6466,
      "धोरणां": 6467,
      "ताकाच": 6468,
      "पळेलें": 6469,
      "उकतायलो": 6470,
      "कृष्णा": 6471,
      "घुस": 6472,
      "अंतरी": 6473,
      "हााँ": 6474,
      "##च्चार": 6475,
      "सायबा": 6476,
      "मुखेलमंत्र्यानी": 6477,
      "रायडर्स": 6478,
      "निमाणी": 6479,
      "थोडो": 6480,
      "विमानतळार": 6481,
      "इनासान": 6482,
      "मोडून": 6483,
      "खाशेल्या": 6484,
      "मावशे": 6485,
      "कोयसांवान": 6486,
      "अकरा": 6487,
      "दूद": 6488,
      "आव्हानां": 6489,
      "बाकीच्या": 6490,
      "कंपनीन": 6491,
      "चर्चेक": 6492,
      "छत्तीसगढ": 6493,
      "अब्द": 6494,
      "शेजार": 6495,
      "लश्करी": 6496,
      "तेलंगण": 6497,
      "खुप": 6498,
      "तिनूय": 6499,
      "ल्हवू": 6500,
      "शेंकड": 6501,
      "कोलकात": 6502,
      "अंम": 6503,
      "ङ्क्रान्स": 6504,
      "चल्ल्यात": 6505,
      "प्रदुशण": 6506,
      "वंश": 6507,
      "आळाब": 6508,
      "अदमासपत्रकांत": 6509,
      "आडखळ": 6510,
      "युरोपी": 6511,
      "गार्ड": 6512,
      "निरीक्षक": 6513,
      "संघटणेन": 6514,
      "मामलेदार": 6515,
      "कोहली": 6516,
      "मुळाव्यो": 6517,
      "तालु्नयांत": 6518,
      "लॉकड": 6519,
      "ङ्क्रांस": 6520,
      "खिणभर": 6521,
      "सितारामन": 6522,
      "हिमाचल": 6523,
      "चळवळी": 6524,
      "हॉटेल": 6525,
      "ओंठ": 6526,
      "राजदूत": 6527,
      "लक्ष्मण": 6528,
      "इंटरन": 6529,
      "ऑनरामन": 6530,
      "प्रवीण": 6531,
      "संकेतस्थळ": 6532,
      "##ङ्र्क": 6533,
      "इश्कोल": 6534,
      "सनराय": 6535,
      "बायोपिक": 6536,
      "अपुर्बाय": 6537,
      "of": 6538,
      "अरो": 6539,
      "आया": 6540,
      "आशी": 6541,
      "आंद्र": 6542,
      "इग": 6543,
      "इब": 6544,
      "उक": 6545,
      "उश": 6546,
      "उसर": 6547,
      "कै": 6548,
      "कले": 6549,
      "कक्ष": 6550,
      "किस": 6551,
      "क्व": 6552,
      "ख्र": 6553,
      "गया": 6554,
      "गाळी": 6555,
      "घाट": 6556,
      "चल्या": 6557,
      "चॉक": 6558,
      "जॉ": 6559,
      "जोग": 6560,
      "टद": 6561,
      "डा": 6562,
      "तत्": 6563,
      "दांत": 6564,
      "दाव्या": 6565,
      "धीर": 6566,
      "पं": 6567,
      "पांड": 6568,
      "पॉल": 6569,
      "फात": 6570,
      "बय": 6571,
      "बाट": 6572,
      "बॉल": 6573,
      "बराबर": 6574,
      "भॊत्र": 6575,
      "में": 6576,
      "माट": 6577,
      "मलेश": 6578,
      "रेव": 6579,
      "रवि": 6580,
      "रांची": 6581,
      "लेऱाय": 6582,
      "ळे": 6583,
      "वक": 6584,
      "वध": 6585,
      "वॅब": 6586,
      "शक्त": 6587,
      "षटक": 6588,
      "सदान": 6589,
      "सवाय": 6590,
      "हव": 6591,
      "हाणे": 6592,
      "ार्ग": 6593,
      "िज": 6594,
      "१५": 6595,
      "##रब": 6596,
      "##वृ": 6597,
      "##फय": 6598,
      "##फु": 6599,
      "##श्ठ": 6600,
      "##लध": 6601,
      "##लऽ": 6602,
      "##लऩ": 6603,
      "##्शन": 6604,
      "##ही": 6605,
      "##हारी": 6606,
      "##हवाल": 6607,
      "##यऩ": 6608,
      "##ोरा": 6609,
      "##ोळे": 6610,
      "##भक": 6611,
      "##भन": 6612,
      "##तरण": 6613,
      "##ग्ण": 6614,
      "##िळ": 6615,
      "##िरांत": 6616,
      "##खान": 6617,
      "##खले": 6618,
      "##खोर": 6619,
      "##ीचो": 6620,
      "##ेझ": 6621,
      "##ेपणा": 6622,
      "##ट्स": 6623,
      "##ुली": 6624,
      "##डें": 6625,
      "##पां": 6626,
      "##पसून": 6627,
      "##मस": 6628,
      "##मया": 6629,
      "##मांत": 6630,
      "##मांक": 6631,
      "##चन": 6632,
      "##चिट": 6633,
      "##द्म": 6634,
      "##ूकी": 6635,
      "##णेक": 6636,
      "##बाग": 6637,
      "##थ्या": 6638,
      "##झी": 6639,
      "##झोर": 6640,
      "##ॊद": 6641,
      "##ra": 6642,
      "##ii": 6643,
      "##ांस": 6644,
      "##ाये": 6645,
      "##ल्ओ": 6646,
      "##ावेश": 6647,
      "##ाकर": 6648,
      "##ाकड": 6649,
      "प्राप": 6650,
      "दिन": 6651,
      "दिल्लें": 6652,
      "दिल्ल्यान": 6653,
      "##स्पर": 6654,
      "##ाजन": 6655,
      "##कामा": 6656,
      "आयपी": 6657,
      "आयिल्लें": 6658,
      "सुत": 6659,
      "सुम": 6660,
      "##क्ष्म": 6661,
      "##ासित": 6662,
      "कोरी": 6663,
      "##ीता": 6664,
      "पुंड": 6665,
      "##त्सव": 6666,
      "##ंगी": 6667,
      "मुजर": 6668,
      "मुस्ल": 6669,
      "##दीप": 6670,
      "##ाच्यान": 6671,
      "एकू": 6672,
      "जात्र": 6673,
      "जातरो": 6674,
      "जाताली": 6675,
      "आसची": 6676,
      "आसूं": 6677,
      "##ीकाय": 6678,
      "काऱ": 6679,
      "मोटी": 6680,
      "आपयल्या": 6681,
      "आपआप": 6682,
      "उपरा": 6683,
      "उपाध्यक्ष": 6684,
      "लागल्या": 6685,
      "लागिल्लो": 6686,
      "सरता": 6687,
      "सरचिट": 6688,
      "लोबो": 6689,
      "##योध": 6690,
      "##ेटी": 6691,
      "मुख्याल": 6692,
      "##ेचार": 6693,
      "बसी": 6694,
      "बसली": 6695,
      "##्यावेळार": 6696,
      "मेळयलें": 6697,
      "घेतल्यो": 6698,
      "दिसांचो": 6699,
      "दिसतालो": 6700,
      "शिवाय": 6701,
      "शिखर": 6702,
      "##ाबरोबर": 6703,
      "आमका": 6704,
      "जाल्मा": 6705,
      "##डीच": 6706,
      "तिर": 6707,
      "##ाखाल": 6708,
      "खेळटले": 6709,
      "खेळटली": 6710,
      "##ाश्व": 6711,
      "पडल्यात": 6712,
      "पडपाची": 6713,
      "आवै": 6714,
      "कथेक": 6715,
      "मारीत": 6716,
      "लोकत": 6717,
      "गेल्लें": 6718,
      "म्हायतीप्रमाण": 6719,
      "रावली": 6720,
      "सिंह": 6721,
      "मानधन": 6722,
      "##िल्ल्याचे": 6723,
      "##ंबीत": 6724,
      "वेगळ्या": 6725,
      "घडणु": 6726,
      "##्याकडेन": 6727,
      "मंत्रि": 6728,
      "अर्थव्य": 6729,
      "##टके": 6730,
      "पोलीस": 6731,
      "मागला": 6732,
      "एकाद": 6733,
      "गोखले": 6734,
      "असोच": 6735,
      "प्रधानमंत्र्यांचे": 6736,
      "दवरपाक": 6737,
      "विशयावे": 6738,
      "चलूक": 6739,
      "अमृत": 6740,
      "वयलो": 6741,
      "दर्यांत": 6742,
      "करताली": 6743,
      "आसतल्यो": 6744,
      "##्वास": 6745,
      "बरोवन": 6746,
      "##प्रेस": 6747,
      "थंयची": 6748,
      "पदाचो": 6749,
      "याष्ट्रीम": 6750,
      "पालक": 6751,
      "स्थग": 6752,
      "##्रमण": 6753,
      "पंगडां": 6754,
      "भागाद": 6755,
      "भाग्यान": 6756,
      "युट": 6757,
      "व्हडली": 6758,
      "न्यायालयात": 6759,
      "परतो": 6760,
      "स्वता": 6761,
      "##ळोच": 6762,
      "परिशदेच्या": 6763,
      "भाशेच्या": 6764,
      "प्रदेशांतल्या": 6765,
      "वेध": 6766,
      "वेल्यान": 6767,
      "पांचव्या": 6768,
      "लायता": 6769,
      "आतंकी": 6770,
      "खंयचो": 6771,
      "##तकालीन": 6772,
      "घटना": 6773,
      "पैली": 6774,
      "क्षेत": 6775,
      "सुवाळ्यात": 6776,
      "म्हत्वाच्या": 6777,
      "म्हत्वाचें": 6778,
      "उतरांनी": 6779,
      "प्रकल्पांचे": 6780,
      "काश्": 6781,
      "नेमणुक": 6782,
      "पाकिस्तानाचे": 6783,
      "यादस्तीक": 6784,
      "रामनाथान": 6785,
      "##ाॊत": 6786,
      "##विधानीक": 6787,
      "सीआर": 6788,
      "ट्रस्ट": 6789,
      "आकर्": 6790,
      "नासली": 6791,
      "##आयटी": 6792,
      "माध्यमिक": 6793,
      "ङ्कुडाऱ्यांनी": 6794,
      "वांगड्यांनी": 6795,
      "समजून": 6796,
      "समजीकाय": 6797,
      "असली": 6798,
      "महोत्स": 6799,
      "पर्यटक": 6800,
      "लेखन": 6801,
      "मेयाद": 6802,
      "##वर्तन": 6803,
      "खासदारांनी": 6804,
      "रातचो": 6805,
      "तळेंच": 6806,
      "सयकाय": 6807,
      "##ाांका": 6808,
      "महाराष्ट्रांतल्या": 6809,
      "मोटे": 6810,
      "तयारेचो": 6811,
      "संघटणेचे": 6812,
      "झुजारी": 6813,
      "कर्नाटकांतल्या": 6814,
      "जिल्होध": 6815,
      "हांगासरल्या": 6816,
      "अंतु": 6817,
      "विधानसभेंत": 6818,
      "बँकेन": 6819,
      "मडगांवच्या": 6820,
      "आघाड": 6821,
      "बॅटरी": 6822,
      "पुष्पान": 6823,
      "हावेस": 6824,
      "भटान": 6825,
      "हांसता": 6826,
      "ददल्री": 6827,
      "नामनेच्या": 6828,
      "मालदिव": 6829,
      "बादाबाद": 6830,
      "शुभ": 6831,
      "निवेदनात": 6832,
      "एङ्कसी": 6833,
      "वाशिना": 6834,
      "पद्दती": 6835,
      "कांम": 6836,
      "सांजेच्या": 6837,
      "जाळ्यावरवी": 6838,
      "पेडणें": 6839,
      "##र्नित": 6840,
      "कबलातीचेर": 6841,
      "अडच": 6842,
      "मुद्दे": 6843,
      "उप्रास": 6844,
      "कामािल": 6845,
      "वेता": 6846,
      "##ंघन": 6847,
      "भिरांत": 6848,
      "शेजारी": 6849,
      "200": 6850,
      "बाबुलो": 6851,
      "भुखेरभॊत्री": 6852,
      "गुन्याव": 6853,
      "##तुग": 6854,
      "ल्हवूच": 6855,
      "तामीळनाडु": 6856,
      "चकमक": 6857,
      "शांतीकाय": 6858,
      "##लंदाज": 6859,
      "अरुणाचल": 6860,
      "चंपावती": 6861,
      "बंगळुर": 6862,
      "सत्त्आध": 6863,
      "प्रदेळ": 6864,
      "भोंवडेर": 6865,
      "पुर्तुग": 6866,
      "कॉन्ङ्करन्सी": 6867,
      "ऩुयाम": 6868,
      "आङ्क्रिक": 6869,
      "ठाकरे": 6870,
      "पावंड्यार": 6871,
      "युरोप": 6872,
      "ङ्कूडारी": 6873,
      "अतिर्नित": 6874,
      "वेगवेगळ्यो": 6875,
      "पारंपारीक": 6876,
      "नगरपालिक": 6877,
      "अङ्कगाणिस्तान": 6878,
      "तमाय": 6879,
      "बुद्धी": 6880,
      "खतखत": 6881,
      "##न्हय": 6882,
      "खंडपिठान": 6883,
      "अरेबिया": 6884,
      "बिराड": 6885,
      "भ्रष्ट": 6886,
      "मायकल": 6887,
      "लष्करी": 6888,
      "##ाप्रमाण": 6889,
      "पेद्रू": 6890,
      "क्रमांक": 6891,
      "मोहिमे": 6892,
      "जॉर्ज": 6893,
      "##भितर": 6894,
      "सुलाळ": 6895,
      "नोटीस": 6896,
      "गोगोय": 6897,
      "विस्कळीत": 6898,
      "देशवासिया": 6899,
      "शिश्टमंडळ": 6900,
      "दिव्यांग": 6901,
      "आळाबंद": 6902,
      "अरोरा": 6903,
      "इबाड": 6904,
      "मुजरत": 6905,
      "मुस्लिम": 6906,
      "सरचिटणीस": 6907,
      "मेयादायी": 6908,
      "अऩ": 6909,
      "अल्प": 6910,
      "अकर": 6911,
      "आट": 6912,
      "आस्थ": 6913,
      "आर्व": 6914,
      "इस्ल": 6915,
      "इफ्": 6916,
      "उल्ल": 6917,
      "एडम": 6918,
      "ओत": 6919,
      "कूड": 6920,
      "खाण": 6921,
      "गाज": 6922,
      "गणूक": 6923,
      "गर्ग": 6924,
      "चै": 6925,
      "चकच": 6926,
      "चंवर": 6927,
      "जरी": 6928,
      "झूज": 6929,
      "डॅ": 6930,
      "डायी": 6931,
      "ताॊ": 6932,
      "थोडी": 6933,
      "दय": 6934,
      "दया": 6935,
      "दबाज": 6936,
      "नशी": 6937,
      "पों": 6938,
      "पेज": 6939,
      "फांट": 6940,
      "फोंड": 6941,
      "भेस": 6942,
      "भाध": 6943,
      "भुय": 6944,
      "मूं": 6945,
      "माला": 6946,
      "राळ": 6947,
      "र्स": 6948,
      "लाळ": 6949,
      "लक्षण": 6950,
      "ळा": 6951,
      "वक्त": 6952,
      "वगळ": 6953,
      "शं": 6954,
      "शेय": 6955,
      "शाश्व": 6956,
      "सॅ": 6957,
      "सलो": 6958,
      "हइ": 6959,
      "हंग": 6960,
      "हवे": 6961,
      "ेरेन": 6962,
      "१४": 6963,
      "१०": 6964,
      "२०": 6965,
      "##रस": 6966,
      "##कृष्ण": 6967,
      "##वस": 6968,
      "##वेशन": 6969,
      "##ळन": 6970,
      "##लट": 6971,
      "##लण": 6972,
      "##्डो": 6973,
      "##यशी": 6974,
      "##नशील": 6975,
      "##भवन": 6976,
      "##ंटी": 6977,
      "##तरी": 6978,
      "##ग्री": 6979,
      "##िग": 6980,
      "##िच": 6981,
      "##िटी": 6982,
      "##ेब": 6983,
      "##ेका": 6984,
      "##ॉप्ट": 6985,
      "##टि": 6986,
      "##टालो": 6987,
      "##टेड": 6988,
      "##डर": 6989,
      "##पत": 6990,
      "##पचार": 6991,
      "##पाच्यो": 6992,
      "##पुर्": 6993,
      "##चाय": 6994,
      "##़य": 6995,
      "##एच": 6996,
      "##णण": 6997,
      "##णवीस": 6998,
      "##बड": 6999,
      "##झया": 7000,
      "##यामक": 7001,
      "##ारपण": 7002,
      "##्रिका": 7003,
      "##ेंर": 7004,
      "##ेंय": 7005,
      "##ेंचे": 7006,
      "##ेंपो": 7007,
      "##नील": 7008,
      "##ालणी": 7009,
      "##लीम": 7010,
      "##लेज": 7011,
      "प्रदान": 7012,
      "##ांतोडेर": 7013,
      "म्हग": 7014,
      "म्हाकाय": 7015,
      "हांीण": 7016,
      "करिना": 7017,
      "अशो": 7018,
      "##ेवन": 7019,
      "##ेवेल्यान": 7020,
      "संगण": 7021,
      "संविधानीक": 7022,
      "आयची": 7023,
      "आयल्यार": 7024,
      "##ेतान": 7025,
      "##ेतले": 7026,
      "सुद्धा": 7027,
      "##ामाळ": 7028,
      "##क्षया": 7029,
      "##ांगी": 7030,
      "##ेशी": 7031,
      "##माांत": 7032,
      "##त्म": 7033,
      "मुक्त": 7034,
      "ङ्कर": 7035,
      "ङ्कांतोडेर": 7036,
      "एकमे": 7037,
      "##्यांखातीर": 7038,
      "हांणीय": 7039,
      "जातरे": 7040,
      "##स्तान": 7041,
      "##ेगळ्या": 7042,
      "वास्त": 7043,
      "आपोव": 7044,
      "आपतकालीन": 7045,
      "परग": 7046,
      "परां": 7047,
      "उपाट": 7048,
      "उपकरण": 7049,
      "लागल्यो": 7050,
      "लागतात": 7051,
      "मुखेल्या": 7052,
      "##ुडी": 7053,
      "##पीसी": 7054,
      "##्यावेगळ्या": 7055,
      "मेळुन": 7056,
      "अध्म": 7057,
      "स्वा": 7058,
      "सगलो": 7059,
      "सगल्यो": 7060,
      "दिसत": 7061,
      "दिसलें": 7062,
      "दिवपाचें": 7063,
      "देशांचे": 7064,
      "##ऩार": 7065,
      "##ऩती": 7066,
      "##विकार": 7067,
      "आमो": 7068,
      "मनात": 7069,
      "मनयलो": 7070,
      "तिजो": 7071,
      "घेवपी": 7072,
      "घेवपाचो": 7073,
      "व्हे": 7074,
      "किते": 7075,
      "महम्मद": 7076,
      "कामग": 7077,
      "खेळामाळ": 7078,
      "वर्त": 7079,
      "पडत": 7080,
      "पुणून": 7081,
      "##ऱ्यो": 7082,
      "निर्गत": 7083,
      "ऩय": 7084,
      "गोंयचो": 7085,
      "##मान्य": 7086,
      "कुलग": 7087,
      "गेलें": 7088,
      "रावपाक": 7089,
      "म्हज्यान": 7090,
      "श्रीवास्तव": 7091,
      "केंद्राचेर": 7092,
      "कार्यावळीचे": 7093,
      "सांपड": 7094,
      "केल्यार": 7095,
      "घाल्या": 7096,
      "घरमंत्र": 7097,
      "घडटा": 7098,
      "काशी": 7099,
      "काडल्यो": 7100,
      "रेड्डी": 7101,
      "वचन": 7102,
      "वचचे": 7103,
      "वचना": 7104,
      "देवेंद्र": 7105,
      "मजतीन": 7106,
      "##जेदार": 7107,
      "गोएल": 7108,
      "##स्टिट": 7109,
      "चडशे": 7110,
      "हाडिल्ल्या": 7111,
      "##जीव": 7112,
      "डॉट": 7113,
      "तीनशे": 7114,
      "संस्थांच्या": 7115,
      "चारशे": 7116,
      "ङ्काटल्यान": 7117,
      "नेहवाल": 7118,
      "किळ": 7119,
      "किंग": 7120,
      "रोकड": 7121,
      "रोहन": 7122,
      "पदकां": 7123,
      "पद्म": 7124,
      "जीवन": 7125,
      "शेतका": 7126,
      "हाजो": 7127,
      "व्य्नती": 7128,
      "##पाविशी": 7129,
      "भागीदार": 7130,
      "##बीआयन": 7131,
      "लावधार": 7132,
      "कार्यकाळ": 7133,
      "भुरग्यांनी": 7134,
      "न्यायालयाच्या": 7135,
      "उरिल्ले": 7136,
      "जम्": 7137,
      "परतें": 7138,
      "##िटाय": 7139,
      "परिशदे": 7140,
      "कळना": 7141,
      "कोविडा": 7142,
      "जैश": 7143,
      "जैैैै": 7144,
      "मेळटात": 7145,
      "उक्ताम": 7146,
      "आशा": 7147,
      "गांवच्या": 7148,
      "मळांचेर": 7149,
      "##वनेश्वर": 7150,
      "मतदारांक": 7151,
      "वेप": 7152,
      "दळां": 7153,
      "सगल्यांक": 7154,
      "गटात": 7155,
      "पावसान": 7156,
      "सदाच": 7157,
      "रुपान": 7158,
      "आतंकवादाक": 7159,
      "भौमान": 7160,
      "वावराक": 7161,
      "धरुन": 7162,
      "साइत": 7163,
      "##संघाचे": 7164,
      "आकाशवाणीक": 7165,
      "शक्य": 7166,
      "खोशी": 7167,
      "पाकिस्तानाच्या": 7168,
      "सध्याच्या": 7169,
      "स्टॅ": 7170,
      "स्टेड": 7171,
      "##मनिर्": 7172,
      "अधिकाऱ्यानी": 7173,
      "अर्जांची": 7174,
      "बेगी": 7175,
      "लग्ना": 7176,
      "आरोपी": 7177,
      "भुखेरी": 7178,
      "अंतरले": 7179,
      "याज्मा": 7180,
      "तरणाट्यां": 7181,
      "दुयेंतीक": 7182,
      "दर्जेदार": 7183,
      "दवल्ली": 7184,
      "दवल्ले": 7185,
      "दनपरां": 7186,
      "सगळया": 7187,
      "बापायन": 7188,
      "बापायक": 7189,
      "समितीचे": 7190,
      "सैमीक": 7191,
      "ङ्केरयेत": 7192,
      "जागृती": 7193,
      "##ानाथ": 7194,
      "हेवटेन": 7195,
      "परीणाम": 7196,
      "आपणाव": 7197,
      "आपणांक": 7198,
      "अंदाज": 7199,
      "केन्नां": 7200,
      "कार्यालयान": 7201,
      "शांबान": 7202,
      "शांबाक": 7203,
      "हल्ल्याचो": 7204,
      "परिस्थितींत": 7205,
      "प्रधानभंत्रमांनी": 7206,
      "पोटांत": 7207,
      "व्हिडीओ": 7208,
      "विधानसभेत": 7209,
      "वावुरपी": 7210,
      "दामून": 7211,
      "नुस्तें": 7212,
      "तिसरे": 7213,
      "ओंपतले": 7214,
      "धांवत": 7215,
      "सायना": 7216,
      "तांतून": 7217,
      "सेना": 7218,
      "संघटनेचे": 7219,
      "हुंवाराक": 7220,
      "देळब": 7221,
      "आत्मनिर्": 7222,
      "देवळांनी": 7223,
      "रोखडोच": 7224,
      "वाडोवपाक": 7225,
      "रडूंक": 7226,
      "केळयांचो": 7227,
      "विमानतळाचेर": 7228,
      "लाडोल": 7229,
      "##एमसी": 7230,
      "दूस": 7231,
      "नामना": 7232,
      "सुधारणा": 7233,
      "महामंडळ": 7234,
      "कुशळताय": 7235,
      "बांदी": 7236,
      "मुद्दो": 7237,
      "न्युजाच्या": 7238,
      "महासंचालक": 7239,
      "कामगारांक": 7240,
      "माथ्यार": 7241,
      "ङ्कायनलींत": 7242,
      "ऩमरे": 7243,
      "गयज": 7244,
      "उटंगराच्या": 7245,
      "उद्देजक": 7246,
      "कोलकाता": 7247,
      "बुध्दी": 7248,
      "बुधवारा": 7249,
      "शस्त्रां": 7250,
      "सोनिया": 7251,
      "आंध्रप्रदेश": 7252,
      "राश्ट्रीय": 7253,
      "उमळ": 7254,
      "पश्च": 7255,
      "हळूच": 7256,
      "परीषदेत": 7257,
      "चवथ्या": 7258,
      "वाराणसी": 7259,
      "लडाख": 7260,
      "विजया": 7261,
      "मदींच": 7262,
      "तरतूद": 7263,
      "मुलाख": 7264,
      "वेगळ्यावेगळ्या": 7265,
      "पिळग": 7266,
      "येणावळ": 7267,
      "आराखडो": 7268,
      "थरथर": 7269,
      "फामाद": 7270,
      "निशेध": 7271,
      "अर्थवेवस्थ": 7272,
      "आग्रो": 7273,
      "बेकायदेशीर": 7274,
      "रक्षाम": 7275,
      "गुप्तह": 7276,
      "कवळेंकार": 7277,
      "खेरीज": 7278,
      "पेन्शन": 7279,
      "ङ्किचर": 7280,
      "ङ्कडणवीस": 7281,
      "पदवीदान": 7282,
      "अभियंते": 7283,
      "ङ्कुलां": 7284,
      "वच्चे": 7285,
      "सांजवेळा": 7286,
      "ए्नसप्रेस": 7287,
      "धंदो": 7288,
      "उपाध्याय": 7289,
      "गुदिन्हो": 7290,
      "अनंतनाग": 7291,
      "प्रोत्साहन": 7292,
      "पवित्र": 7293,
      "डिसोझा": 7294,
      "निश्चित": 7295,
      "अंकुश": 7296,
      "दीनदयाळ": 7297,
      "प्रात्यक्ष": 7298,
      "लॉकडावन": 7299,
      "सनरायजर्स": 7300,
      "किसान": 7301,
      "ळेती": 7302,
      "सदानंद": 7303,
      "प्राप्त": 7304,
      "आयपीएल": 7305,
      "मंत्रिमंडळ": 7306,
      "सत्त्आधारी": 7307,
      "नशीब": 7308,
      "आत्मनिर्भर": 7309,
      "10": 7310,
      "ंत्र": 7311,
      "अन्": 7312,
      "अडे": 7313,
      "आई": 7314,
      "आइ": 7315,
      "उन": 7316,
      "ए्न": 7317,
      "ओली": 7318,
      "कन": 7319,
      "कात": 7320,
      "काच": 7321,
      "कॅन": 7322,
      "कृत": 7323,
      "ग्रा": 7324,
      "गिराय": 7325,
      "घाम": 7326,
      "घाले": 7327,
      "चेर": 7328,
      "चाम": 7329,
      "चाद": 7330,
      "चूक": 7331,
      "चंदी": 7332,
      "चिम": 7333,
      "छी": 7334,
      "जल्": 7335,
      "जाऩ": 7336,
      "टु": 7337,
      "डाव": 7338,
      "डिज": 7339,
      "तारी": 7340,
      "दम": 7341,
      "दाव": 7342,
      "दंड": 7343,
      "दुड": 7344,
      "दयान": 7345,
      "दऱ": 7346,
      "धेंपो": 7347,
      "नत": 7348,
      "नली": 7349,
      "नचट": 7350,
      "पृ": 7351,
      "पांग": 7352,
      "पसून": 7353,
      "पाटी": 7354,
      "पंधरा": 7355,
      "फेस्त": 7356,
      "बल": 7357,
      "बांब": 7358,
      "भश": 7359,
      "भै": 7360,
      "भंड": 7361,
      "भंय": 7362,
      "भवि": 7363,
      "भिर": 7364,
      "भावि": 7365,
      "माची": 7366,
      "मेट": 7367,
      "मत्न": 7368,
      "मांडो": 7369,
      "रव": 7370,
      "लक": 7371,
      "लव": 7372,
      "ल्यान": 7373,
      "ल्ल": 7374,
      "लखन": 7375,
      "वतालो": 7376,
      "वांकडे": 7377,
      "शंक": 7378,
      "सल": 7379,
      "सॉ": 7380,
      "सड": 7381,
      "सान": 7382,
      "सिती": 7383,
      "हाक": 7384,
      "ह्न": 7385,
      "ाह": 7386,
      "ात": 7387,
      "१८": 7388,
      "१२": 7389,
      "२१": 7390,
      "##रप": 7391,
      "##कू": 7392,
      "##कात": 7393,
      "##वीर": 7394,
      "##वचार": 7395,
      "##वांगडा": 7396,
      "##ळाक": 7397,
      "##फर": 7398,
      "##फू": 7399,
      "##श्री": 7400,
      "##लित": 7401,
      "##लाच्या": 7402,
      "##्छ": 7403,
      "##्नी": 7404,
      "##हीत": 7405,
      "##हिता": 7406,
      "##न्य": 7407,
      "##ोष": 7408,
      "##भूत": 7409,
      "##ंसिंग": 7410,
      "##तुर": 7411,
      "##तल्यो": 7412,
      "##तऱ": 7413,
      "##तेचो": 7414,
      "##गीक": 7415,
      "##गडी": 7416,
      "##िओ": 7417,
      "##जीक": 7418,
      "##टेर": 7419,
      "##टलें": 7420,
      "##टमार": 7421,
      "##ईन": 7422,
      "##धना": 7423,
      "##धिकारी": 7424,
      "##ुह": 7425,
      "##ुप": 7426,
      "##पट्ट": 7427,
      "##सण": 7428,
      "##सां": 7429,
      "##सांत": 7430,
      "##मोग": 7431,
      "##मल्मा": 7432,
      "##दशन": 7433,
      "##णम": 7434,
      "##बु": 7435,
      "##बंद": 7436,
      "##बिन": 7437,
      "##ैल": 7438,
      "##ैशी": 7439,
      "##षा": 7440,
      "##अी": 7441,
      "##अप": 7442,
      "##ढया": 7443,
      "##उप्र": 7444,
      "##it": 7445,
      "##ऊव": 7446,
      "##्याण्णव": 7447,
      "##्र्यु": 7448,
      "##ात्रा": 7449,
      "##नीन": 7450,
      "##ालण": 7451,
      "##ावयल्यान": 7452,
      "##लेटी": 7453,
      "##र्की": 7454,
      "##र्जन": 7455,
      "प्रल": 7456,
      "प्रसा": 7457,
      "प्रोद": 7458,
      "प्रताप": 7459,
      "म्हात": 7460,
      "म्हाभ": 7461,
      "दितली": 7462,
      "दिकेन": 7463,
      "##क्ता": 7464,
      "करी": 7465,
      "विद": 7466,
      "विकत": 7467,
      "केरी": 7468,
      "##कारांक": 7469,
      "##साठ": 7470,
      "संपाद": 7471,
      "##नामी": 7472,
      "सुय": 7473,
      "##क्षर": 7474,
      "##लेंच": 7475,
      "कोड": 7476,
      "पुरी": 7477,
      "अशेंच": 7478,
      "##माध": 7479,
      "##माॊनी": 7480,
      "निकत": 7481,
      "निपक्ष": 7482,
      "नियामक": 7483,
      "मुद्या": 7484,
      "##दीश": 7485,
      "##रींग": 7486,
      "एकदा": 7487,
      "##ोंब": 7488,
      "सांगरे": 7489,
      "सांगचें": 7490,
      "##िकी": 7491,
      "##िके": 7492,
      "##ोवाल": 7493,
      "##ंदे": 7494,
      "वाघ": 7495,
      "राजा": 7496,
      "परकी": 7497,
      "परस्पर": 7498,
      "उपक्र": 7499,
      "दोघ": 7500,
      "सरदार": 7501,
      "##शीच": 7502,
      "##योधी": 7503,
      "##ेकय": 7504,
      "##्माल": 7505,
      "##ापत्र": 7506,
      "##स्थिती": 7507,
      "बसयतले": 7508,
      "##दारांक": 7509,
      "मेळत": 7510,
      "मेळी": 7511,
      "मेळना": 7512,
      "मेळचो": 7513,
      "मेळोवपाक": 7514,
      "मेळोवपा": 7515,
      "सोला": 7516,
      "अधध": 7517,
      "अधिक्षक": 7518,
      "घेतिल्लो": 7519,
      "##देशी": 7520,
      "येवपाचो": 7521,
      "दिवाळी": 7522,
      "##विंद": 7523,
      "पावल्यात": 7524,
      "##पानी": 7525,
      "समपद": 7526,
      "आमुळ": 7527,
      "##डीन": 7528,
      "व्हंक": 7529,
      "##ुकट": 7530,
      "उलय": 7531,
      "##ङ्कङ्क": 7532,
      "सर्गार": 7533,
      "##ताये": 7534,
      "##िनल": 7535,
      "##ेसरी": 7536,
      "##ाशे": 7537,
      "आवश्यक": 7538,
      "बाये": 7539,
      "##ऱ्यान": 7540,
      "कथीत": 7541,
      "कथेची": 7542,
      "मारूंक": 7543,
      "हातभार": 7544,
      "##पणां": 7545,
      "लोकजी": 7546,
      "लोकप्र": 7547,
      "लोकपाल": 7548,
      "लोकसं": 7549,
      "कुल": 7550,
      "रावजी": 7551,
      "रावलों": 7552,
      "त्याग": 7553,
      "##ंच्यो": 7554,
      "म्हजेर": 7555,
      "राष्ट्राच्या": 7556,
      "श्रीकांत": 7557,
      "श्रीराम": 7558,
      "घाला": 7559,
      "घालपा": 7560,
      "आडमेळ": 7561,
      "काडपा": 7562,
      "दिलीप": 7563,
      "थारतले": 7564,
      "थारतलो": 7565,
      "थारतली": 7566,
      "वचपाची": 7567,
      "भरिल्लो": 7568,
      "देवागेर": 7569,
      "वाडल्या": 7570,
      "वाडटा": 7571,
      "ङ्काम": 7572,
      "संबोद": 7573,
      "गोयात": 7574,
      "चडून": 7575,
      "हाडले": 7576,
      "हाडपा": 7577,
      "हाडटा": 7578,
      "दवरल्यात": 7579,
      "सभ्य": 7580,
      "संस्थांक": 7581,
      "हांगसर": 7582,
      "हिंद": 7583,
      "बरेंच": 7584,
      "नेपाल": 7585,
      "वेंचणु": 7586,
      "रोप": 7587,
      "रोम": 7588,
      "पदाध": 7589,
      "पालन": 7590,
      "स्थल": 7591,
      "जोडल्या": 7592,
      "जागृत": 7593,
      "पंगडाची": 7594,
      "रामचंद्र": 7595,
      "विशींची": 7596,
      "ददव": 7597,
      "दाखोवपी": 7598,
      "लावकारक": 7599,
      "व्हडले": 7600,
      "भुरग्यांचे": 7601,
      "परतुन": 7602,
      "बिमस्ट": 7603,
      "##ुदाय": 7604,
      "सामकी": 7605,
      "वर्साचे": 7606,
      "कळाव": 7607,
      "काँग्रेसीन": 7608,
      "आयोगाकडेन": 7609,
      "जनक": 7610,
      "पणस": 7611,
      "जैता": 7612,
      "समाजांतल्या": 7613,
      "वैकय्या": 7614,
      "सुवेव": 7615,
      "पांचवे": 7616,
      "आंगवण": 7617,
      "दिल्लींतल्या": 7618,
      "तातुंत": 7619,
      "नाशिल्ले": 7620,
      "##तलों": 7621,
      "इंडियन": 7622,
      "बांदावळ": 7623,
      "बोब": 7624,
      "गटाचे": 7625,
      "191": 7626,
      "सदस्य": 7627,
      "आरटी": 7628,
      "आरबीआय": 7629,
      "आरबीआयन": 7630,
      "मार्गदर्श": 7631,
      "क्षेपणा": 7632,
      "धाडी": 7633,
      "धाडून": 7634,
      "उक्ती": 7635,
      "हरशी": 7636,
      "हरकत": 7637,
      "जायत्यो": 7638,
      "शेतकारांनी": 7639,
      "उकते": 7640,
      "धो्न": 7641,
      "मास्क": 7642,
      "##्युब": 7643,
      "वलश्ल": 7644,
      "##वामी": 7645,
      "प्रतिस्प": 7646,
      "प्रतिभा": 7647,
      "सध्याचे": 7648,
      "विधेयका": 7649,
      "फाटीर": 7650,
      "गोंयांतूय": 7651,
      "मॅट": 7652,
      "सीबीआय": 7653,
      "गांधीजी": 7654,
      "शणैक": 7655,
      "पंचायती": 7656,
      "झुजा": 7657,
      "त्रेचाळीस": 7658,
      "पत्रकारां": 7659,
      "पत्रकारांकडेन": 7660,
      "##हरू": 7661,
      "कुडको": 7662,
      "संस्कृत": 7663,
      "संस्कृतीक": 7664,
      "उदकाची": 7665,
      "नासताना": 7666,
      "शाळेंत": 7667,
      "शाळांनी": 7668,
      "हारोवन": 7669,
      "माध्यमातल्यान": 7670,
      "सुटसु": 7671,
      "भुख्मभ": 7672,
      "चंद्रशेखर": 7673,
      "आवाजान": 7674,
      "असे": 7675,
      "भाषण": 7676,
      "ग्रंथ": 7677,
      "##लबज": 7678,
      "म्हण्टात": 7679,
      "उमेदवारांक": 7680,
      "मिठ": 7681,
      "मिझोर": 7682,
      "महाराष्ट्रात": 7683,
      "वासीन": 7684,
      "भोपाळ": 7685,
      "सैैैै": 7686,
      "कानांत": 7687,
      "दीपक": 7688,
      "कॅपिट": 7689,
      "बुध्द": 7690,
      "उऩयांत": 7691,
      "गुंतवणुकी": 7692,
      "पळेले": 7693,
      "कवाश": 7694,
      "तरेचे": 7695,
      "दूरू": 7696,
      "वावुरतात": 7697,
      "तेरा": 7698,
      "जवानांक": 7699,
      "तितली": 7700,
      "कयऩा": 7701,
      "वेंग": 7702,
      "व्यवस्थापन": 7703,
      "सायबर": 7704,
      "उबारतले": 7705,
      "वितरावण": 7706,
      "##ाणूचे": 7707,
      "गोरवांक": 7708,
      "पायप": 7709,
      "बाजारपे": 7710,
      "अवकाश": 7711,
      "अवसर": 7712,
      "अकादमीन": 7713,
      "तत्वां": 7714,
      "कागद": 7715,
      "सवंग": 7716,
      "अधिवेशनाक": 7717,
      "मात्शी": 7718,
      "पद्दत": 7719,
      "कांद्या": 7720,
      "गुणव": 7721,
      "रॉय": 7722,
      "रंजनान": 7723,
      "कपल": 7724,
      "उदयगत": 7725,
      "भाषेतल्या": 7726,
      "पध्दत": 7727,
      "ऩालरा": 7728,
      "चचत्र": 7729,
      "चचाा": 7730,
      "खुब": 7731,
      "साळू": 7732,
      "प्रधानंत्र्यानी": 7733,
      "ताब्यांत": 7734,
      "चलतल्या": 7735,
      "कार्यकर्": 7736,
      "अतिर": 7737,
      "ओपली": 7738,
      "जिणेची": 7739,
      "##धकायी": 7740,
      "फावटी": 7741,
      "समृद्ध": 7742,
      "महाविद्यालय": 7743,
      "अजापान": 7744,
      "राश्ट्रपती": 7745,
      "सौदी": 7746,
      "तापमान": 7747,
      "स्ने": 7748,
      "दुर्लक्ष": 7749,
      "आनिकूय": 7750,
      "हिंसाचार": 7751,
      "गरजेचेर": 7752,
      "अभियाना": 7753,
      "सत्यपाल": 7754,
      "आंदोलन": 7755,
      "##विश्वास": 7756,
      "न्हवरो": 7757,
      "ड्राय": 7758,
      "पोतयेंत": 7759,
      "मीनाबाय": 7760,
      "पढाव": 7761,
      "शाॊणी": 7762,
      "उपस्थित": 7763,
      "सिंड्रेलान": 7764,
      "हाचेवरवी": 7765,
      "##्रोलियम": 7766,
      "ङ्कायदो": 7767,
      "वाजपेयी": 7768,
      "राजिनामो": 7769,
      "अपेक्षा": 7770,
      "ताकतिकेन": 7771,
      "इन्स्टिट": 7772,
      "सन्मान": 7773,
      "गुलाब": 7774,
      "जमनीर": 7775,
      "सप्टेंबर": 7776,
      "थायलंड": 7777,
      "ळक्म": 7778,
      "म्हारगाय": 7779,
      "भूरग": 7780,
      "उप्राशिल्ल्या": 7781,
      "नवकल्पना": 7782,
      "आझाद": 7783,
      "लोकार्पण": 7784,
      "बंदखणी": 7785,
      "अंमलबज": 7786,
      "मलेशिया": 7787,
      "सीआरपीएङ्क": 7788,
      "बुद्धीबळ": 7789,
      "भ्रष्टाचार": 7790,
      "इस्लाम": 7791,
      "राळय": 7792,
      "शंभर": 7793,
      "गुप्तहेर": 7794,
      "डिजिटल": 7795,
      "दयानंद": 7796,
      "पृथ": 7797,
      "प्रसादा": 7798,
      "संबोदीत": 7799,
      "क्षेपणास्त्र": 7800,
      "प्रतिस्पर्": 7801,
      "बाजारपेठ": 7802,
      "11": 7803,
      "अट": 7804,
      "असा": 7805,
      "आल": 7806,
      "आजी": 7807,
      "आर्म": 7808,
      "आहा": 7809,
      "इल": 7810,
      "इस्ट": 7811,
      "इब्र": 7812,
      "इशान": 7813,
      "उभ": 7814,
      "उऱ": 7815,
      "एज": 7816,
      "एप्र": 7817,
      "कं": 7818,
      "कट्ट": 7819,
      "खय": 7820,
      "खच": 7821,
      "खाड": 7822,
      "खांब": 7823,
      "खुश": 7824,
      "खेलो": 7825,
      "गृ": 7826,
      "गुरु": 7827,
      "घया": 7828,
      "घुड": 7829,
      "चा": 7830,
      "चंद": 7831,
      "चुकी": 7832,
      "चंव": 7833,
      "जळ": 7834,
      "जभ": 7835,
      "जमा": 7836,
      "जाणी": 7837,
      "जाध": 7838,
      "ज्यु": 7839,
      "जेश्ठ": 7840,
      "टिका": 7841,
      "डोन": 7842,
      "तन": 7843,
      "तास": 7844,
      "ताांणी": 7845,
      "त्यावेळार": 7846,
      "थाल्": 7847,
      "दा": 7848,
      "दान": 7849,
      "नॉ": 7850,
      "नेग": 7851,
      "पीक": 7852,
      "पटन": 7853,
      "पन्नास": 7854,
      "बेत": 7855,
      "बास": 7856,
      "बुर": 7857,
      "बोड": 7858,
      "बेचाळीस": 7859,
      "भह": 7860,
      "भूय": 7861,
      "भिव": 7862,
      "भूम": 7863,
      "मंड": 7864,
      "मारी": 7865,
      "मल्ल्या": 7866,
      "म्यान": 7867,
      "म्यु": 7868,
      "मालक": 7869,
      "मतींत": 7870,
      "लख": 7871,
      "लां": 7872,
      "लें": 7873,
      "लाम": 7874,
      "लवा": 7875,
      "लाॊ": 7876,
      "वृ": 7877,
      "व्श": 7878,
      "वताली": 7879,
      "शन": 7880,
      "शाले": 7881,
      "शूर": 7882,
      "शुद्ध": 7883,
      "शाांका": 7884,
      "षट": 7885,
      "सती": 7886,
      "सक्": 7887,
      "सवि": 7888,
      "सतर": 7889,
      "सोंड": 7890,
      "हू": 7891,
      "हारी": 7892,
      "हिस": 7893,
      "ांक": 7894,
      "ेह": 7895,
      "१७": 7896,
      "११": 7897,
      "##राक": 7898,
      "##कता": 7899,
      "##कूल": 7900,
      "##वप": 7901,
      "##व्र": 7902,
      "##वाक": 7903,
      "##वेर": 7904,
      "##वांग": 7905,
      "##वशी": 7906,
      "##फयो": 7907,
      "##शय": 7908,
      "##लय": 7909,
      "##लइ": 7910,
      "##लाल": 7911,
      "##्डी": 7912,
      "##हू": 7913,
      "##यल्ल्या": 7914,
      "##नान": 7915,
      "##ोस": 7916,
      "##ंया": 7917,
      "##तम": 7918,
      "##त्य": 7919,
      "##िल्यान": 7920,
      "##िक्त": 7921,
      "##िबी": 7922,
      "##जाय": 7923,
      "##जकी": 7924,
      "##जमान": 7925,
      "##खा": 7926,
      "##ट्या": 7927,
      "##धर": 7928,
      "##डळ": 7929,
      "##डब": 7930,
      "##डोर": 7931,
      "##पीत": 7932,
      "##पूर्ण": 7933,
      "##सब": 7934,
      "##साक": 7935,
      "##सीक": 7936,
      "##संच": 7937,
      "##संचालक": 7938,
      "##घाती": 7939,
      "##दय": 7940,
      "##दाद": 7941,
      "##ूव": 7942,
      "##ूया": 7943,
      "##णच्या": 7944,
      "##णेंत": 7945,
      "##बरी": 7946,
      "##बर्ट": 7947,
      "##षक": 7948,
      "##अॅ": 7949,
      "##ऱ्याक": 7950,
      "##he": 7951,
      "##ha": 7952,
      "##ऺा": 7953,
      "##ऺण": 7954,
      "##ांटी": 7955,
      "##ारिक": 7956,
      "##ालाग": 7957,
      "##ल्यां": 7958,
      "##ल्याचे": 7959,
      "##ायली": 7960,
      "##ायुक्त": 7961,
      "##ावपी": 7962,
      "##ावयर": 7963,
      "##ाकडल्यान": 7964,
      "##तींक": 7965,
      "प्रया": 7966,
      "प्रेस": 7967,
      "प्रेम": 7968,
      "प्रजास": 7969,
      "हांब": 7970,
      "##क्की": 7971,
      "वितरण": 7972,
      "##ाजा": 7973,
      "##साधन": 7974,
      "जालों": 7975,
      "जाल्यांत": 7976,
      "##चीय": 7977,
      "संधी": 7978,
      "##ामत": 7979,
      "##ंकडेन": 7980,
      "##ीरी": 7981,
      "##ादु": 7982,
      "कोश": 7983,
      "कोस": 7984,
      "कोची": 7985,
      "पुर्न": 7986,
      "निको": 7987,
      "##ंगल": 7988,
      "##ंगण": 7989,
      "ङ्कोर": 7990,
      "ङ्केरी": 7991,
      "ङ्कॉर": 7992,
      "##रीस": 7993,
      "एकल्यान": 7994,
      "एकूय": 7995,
      "एकसार": 7996,
      "एकचार": 7997,
      "एकुण": 7998,
      "##्यांच्यो": 7999
    }
  }
}